#version: 0.2 - Trained by `huggingface/tokenizers`
Ġ t
h e
Ġ a
i n
Ġt he
o n
r e
e r
Ġ s
a t
Ġ o
i s
a n
e n
Ġ w
o r
Ġ c
i t
e d
Ġ f
a r
e s
a l
Ġ p
Ġo f
Ġ b
o u
n d
in g
Ġt o
Ġ in
i on
Ġ m
l e
Ġ d
a s
i c
Ġa nd
Ġ h
i l
en t
r o
Ġt h
Ġ n
c t
a m
Ġ re
o t
v e
o l
o m
s t
Ġ l
Ġ e
Ġb e
a d
at ion
Ġ g
u t
i m
i d
Ġf or
Ġ is
s e
Ġ S
c e
l y
e t
Ġ y
a y
Ġ on
o w
i g
T he
v er
u r
Ġth at
Ġ I
Ġ u
is t
Ġ A
Ġ C
Ġs t
r a
Ġy ou
e m
Ġ he
e l
a g
it h
Ġ P
i r
Ġ it
c h
t er
Ġn ot
u l
m ent
r i
Ġa n
Ġa l
il l
Ġ T
Ġc on
' s
Ġw h
Ġw ith
Ġ M
l d
er s
he r
an d
o p
Ġa s
at e
ar t
a b
Ġp ro
re s
o c
Ġ '
u s
Ġd e
p p
Ġ B
Ġ L
t h
a in
a k
a c
i f
Ġs e
Ġb y
a ve
Ġw as
es s
Ġs h
al l
i al
n t
am e
es t
p e
Ġa re
e re
o d
or t
h t
Ġ k
Ġ G
u m
Ġc om
o s
ct ion
Ġ r
Ġ D
o re
Ġa t
Ġ U
u n
Ġ F
ro m
it y
p t
e w
Ġs u
Ġth is
Ġ v
Ġ E
Ġh as
Ġw or
Ġ 1
Ġh ave
ou ld
Ġ R
Ġf rom
Ġ %
. .
Ġ N
ag e
i v
ig ht
Ġg o
Ġo r
i ve
Ġe x
i es
ou r
ar y
an t
Ġ (
0 0
Ġ W
i a
en d
Ġc h
Ġw ill
q u
Ġ le
as t
t her
i le
Ġ K
p l
Ġh is
ar d
a p
Ġal l
Ġ J
Ġ H
u d
ic h
Ġc l
e ar
Ġa g
u st
u re
ac k
Ġ O
ol d
Ġp l
an g
i re
Ġ 2
r ou
i an
Ġp ol
Ġ -
ic al
I n
a v
as s
r y
Ġ im
on g
a il
b er
Ġin t
res s
Ġm e
Ġwh ich
Ġf il
e ct
ou t
Ġd is
ion s
Ġw e
Ġwor k
ab le
o k
in d
at ed
o ve
ver n
c c
Ġthe y
T h
Ġ j
o st
he n
ou nt
ou s
Ġu n
o se
ig n
e x
Ġcon t
in e
Ġp e
a ce
im e
Ġp art
Ġthe ir
vern ment
u g
or d
Ġw ere
Ġa d
el l
i k
Ġyou r
i z
ic e
ĠU S
c on
a re
Ġo ut
i p
u b
id e
Ġa b
om e
u e
Ġgo vernment
e p
A nd
Ġu s
Ġs a
Ġd o
r an
as e
Ġit s
Ġthe m
ation s
c l
m er
Ġbe en
r it
Ġc an
Ġb ut
p ort
o g
Ġm an
at h
Ġh ad
op le
Ġw ar
le ct
p er
l ic
Ġre s
in t
Ġu p
ul t
am il
i b
Ġag ain
Ġa r
f f
Ġof f
on e
ak e
Ġp er
is h
Ġpe ople
l l
Ġcom p
. '
ur n
Ġh im
Ġon e
it ion
s o
ow n
Ġwh o
Ġthe re
Ġs p
Ġsh all
or m
an k
Ġsa id
c k
.. .
g h
en ce
Ġ V
ex t
Ġ en
ation al
ter n
v en
g e
Ġfil m
O R
in ist
a ct
g an
Ġn e
ad e
a j
c re
it e
Ġo ver
on t
or y
Ġn ew
Ġn o
Ġ "
ou nd
r u
e f
Ġy ear
f ter
Ġ1 9
t e
Ġp re
Ġpol it
Ġsu pp
a u
re e
oc ial
Ġal so
o b
en s
an ce
Ġagain st
ing s
c ent
j ect
il it
Ġa pp
ĠC h
old er
Ġat t
d u
c es
m an
Ġan y
Ġo ther
Ġc ount
p en
Th is
ver y
nd er
Ġon ly
a i
a h
I t
Ġa ct
is e
Ġm ore
re at
Ġf ile
id ent
Ġw ould
Y ou
Ġs o
Ġm y
Ġint o
Ġ ro
Ġw hen
ay s
Ġs er
ar k
f orm
is m
Ġs pe
Ġr ight
w o
mer ic
ik e
at es
Ġc ol
v i
he d
Ġin d
e y
re n
Ġcom m
Ġp r
Ġt ime
ĠS t
i ed
an n
Ġd em
Ġab out
Ġf older
ut ion
Ġm ilit
an s
Ġpolit ical
ire ct
w e
Ġn ame
r or
on s
Ġre g
o ok
al ly
ve l
ĠI s
le ction
ic t
Ġbe c
ent s
us h
re d
f ore
c ed
il d
Ġ2 00
r am
ro w
' t
ic k
Ġu nder
a ch
r at
Ġs c
I N
Ġa m
i e
er t
ir st
o int
Ġdis c
Ġ if
Ġa cc
Ġde f
se l
OR D
am p
H e
ĠT h
Ġk n
on d
Ġa fter
or s
l ow
gan is
Ġo pp
Ġ qu
Ġs et
as h
ĠL ORD
ĠI nd
au se
Ġmilit ary
Ġt wo
Ġp res
Ġbe t
u p
f t
u ro
W h
Ġsupp ort
ra q
u nd
Ġcon f
Ġth an
re ad
S h
e k
Ġin v
Ġs ocial
Ġd irect
Ġc all
Ġw ant
pt ion
ag es
S t
he re
Ġe m
ĠI raq
Ġm ess
con om
Ġst r
en er
Ġt r
Ġl ike
Ġle ad
Ġhe r
a w
oc k
Ġb l
if ic
N ame
Ġ The
ĠI n
ĠA meric
Ġsh ould
Ġb ack
T E
ĠU n
ub lic
A N
ĠT amil
Ġc ur
Ġre m
t on
Ġs y
Ġc ould
in k
it ed
o y
Ġs ome
Ġo pen
ere d
g m
ĠS e
ver s
S e
Ġm ade
w n
Ġ 3
rou nd
v ed
Ġg et
Ġthe se
l es
Ġu se
Ġf irst
l ed
n e
Ġe conom
cl ud
re nt
um ber
r ation
os ition
c y
Ġ ent
Ġad d
uro pe
Ġst ate
Ġs he
Ġc r
ment s
Ġwor ld
ra el
Ġk gm
iz e
ib le
g et
Ġn ow
i x
Ġc o
B ut
ig h
c ial
t he
we en
ou se
ou n
ri b
Ġe ven
Ġus ed
ran s
Ġ &
, '
Ġbe fore
and s
Ġre t
Ġwh at
p h
Ġper cent
Ġcl ass
it al
ot her
Ġd es
Ġwork ing
os s
l i
p or
Ġwork ers
ĠIs rael
le ase
ol ution
ot h
ĠP art
C h
is s
Ġbet ween
ut h
Ġyear s
as ed
o od
w ard
tern ational
Ġch ang
pe ct
n ing
oc rat
ind ow
r ganis
y pe
Ġp ow
Ġl ast
c ess
A R
Ġas s
Ġcount ry
Ġd id
st em
e b
ĠE urope
Ġsu ch
rou gh
Ġ end
in ce
er man
Ġd own
Ġs ay
rou p
er ror
Ġj ust
Ġv al
Ġt em
Ġd ay
ĠPart y
at er
Ġre port
Ġmess age
a ction
are d
ul ar
Ġm on
t o
E R
The re
Ġpro v
Ġin st
Ġfor m
in es
he ther
at her
Ġde c
f ul
or k
C an
Ġre l
Ġman y
i ous
om m
Ġst art
Ġad m
t s
e c
ar ch
t ed
Ġcon s
Ġc re
Ġse lect
u al
b o
a pp
Ġpl ace
Ġ ra
Ġ Y
W e
ill ion
Ġim p
f ere
Ġc ap
Ġin clud
Ġkn ow
N o
Ġin s
d ay
Ġt ra
t ing
Ġpro g
le ar
Ġpro du
Ġe lection
em ent
Ġcur rent
Ġbe ing
v ent
Ġth rough
u res
Ġsu b
ist an
g ht
Ġf in
Ġm ay
00 0
Ġatt ack
Ġo b
Ġre p
Ġm ost
Ġfil es
C ould
ĠS h
d it
A s
e ver
at ing
Ġre c
Ġh ow
Ġpol ic
b le
Ġoff ic
ĠB ush
n g
r al
it ies
U n
Ġb r
ĠG od
et h
le te
d d
Ġex p
v es
ri es
od e
Ġo ur
sel f
A T
Ġs ign
Ġe very
ol low
inist er
ist s
Ġm em
Ġbec ause
i o
us s
Ġn umber
F or
Ġm ake
Ġt e
ĠA s
e v
ur ing
al s
a ult
m ed
Ġf ound
ction s
ĠAmeric an
ĠG erman
Ġo wn
ter s
Ġh and
Ġcont in
os ed
Ġp ri
o ad
Ġ 4
Ġadm inist
Ġw rit
if e
Ġne ed
Ġt ake
ĠC ol
ou gh
Ġw here
a z
Ġb ro
Ġp ar
ocrat ic
Ġk ing
Ġc ame
is ing
Ġc or
Sh ow
Ġcom e
Ġch ar
Ġt ak
Ġg iv
a x
Ġc ent
Ġp ers
t y
form ation
Ġt rans
d er
Ġl ist
ic s
Ġch ild
he ck
aj or
O N
A n
Ġthe n
Ġp op
er n
Ġm ove
ou th
i ew
Ġsy stem
O n
at ive
ed ia
Ġc amp
ul l
con d
Ġm en
Ġin ter
Ġde cl
Ġdo es
Ġ ed
Ġpl ay
o ol
Ġpart y
it s
Ġd et
pl ay
Ġprog ram
is ed
Ġpro t
ot e
u es
at a
he s
Ġb u
Ġf l
Ġ est
Ġmon th
a ir
c ur
Ġcl ose
Ġa c
Ġret urn
Ġp ass
Ġp ress
i y
e g
y n
al k
Ġ 5
O ther
Ġth ose
Ġin cre
r on
il ity
I f
Ġre f
h ip
Ġeconom ic
if y
Ġst at
Ġl oc
if ied
Ġt ext
Ġw ell
Ġhe re
im es
vel op
Ġs ame
Ġ _
g ed
Ġadminist ration
l and
Ġser v
Ġim age
ail ed
Ġm ajor
Ġd if
Ġw ay
m s
n ot
Ġf e
Ġhe ad
ĠT H
IN G
Ġr ul
Ġpow er
Ġcap ital
C on
Ġin ternational
Ġwh ile
m e
ul ation
Ġex t
Ġre qu
Ġp oint
Ġl ong
ord ing
u ch
a im
n ess
ian s
ro l
in ed
C ity
Ġse e
w ay
Se lect
M ove
Ġf ollow
C om
r ic
Ġres p
Ġth ree
Ġle ft
Ġp ublic
The y
ar s
Ġwe ek
M E
Ġde p
b ers
Ġm ass
Ġe v
read y
Ġk ey
D E
i el
Ġcall ed
l ish
iv es
Ġh ouse
ere st
ut e
is ion
Ġoffic ial
Ġk ill
Ġg roup
ĠS ri
ĠN ew
Ġg reat
p ar
m b
am ent
Ġs l
T TE
pl oy
ener al
Ġd ays
oc u
u c
ff ect
Ġsh ow
Ġg l
ĠL ank
Ġo cc
art h
E n
p r
in a
W hether
Ġm ust
v olution
ĠInd ia
Ġw indow
Ġin it
or th
Ġselect ed
e ad
Ġs m
Ġ very
vi ew
Ġm ain
Ġn ext
ad es
Ġn ational
ang u
A l
ĠP ro
k e
Ġl aw
Ġwor d
is c
Ġl and
Ġint erest
Ġpro ject
Ġpart ic
Ġf un
Ġle t
Ġan other
por ary
Ġb o
ug g
cur ity
Ġl ar
i ent
Ġre ad
id d
Ġpres ident
A t
ce pt
cc ess
Ġf ore
t le
Ġal ready
Ġ Z
Ġim port
ĠO rganis
al e
A ll
Ġd i
is hed
â Ģ
Ġm ark
ĠB rit
oc i
Ġcount ries
E S
Ġex pl
o v
Ġ19 9
ĠA f
Ġd ist
l p
Ġc ar
Ġs on
Ġpol ice
Ġgiv en
Ġgo od
et s
Ġh igh
ar m
op y
c om
Ġ 6
in s
ĠF ran
o f
an y
Ġhe art
Ġopp osition
t en
ĠOrganis er
iel d
Ġin formation
Ġp o
a ign
Ġp ut
Ġe l
) ,
ash ing
ical ly
Ġspe c
Ġtem porary
Ġo per
o ot
at ure
ain ed
N ew
Ġcomm and
Ġb oth
Ġst ri
Ġc a
Ġf act
Ġwith out
Ġ [
am es
ic es
g y
D e
Ġde velop
) .
O U
ant s
Ġw id
A L
Ġst and
1 9
Ġd on
Ġis s
R em
Ġd est
ĠEurope an
Ġs ent
n a
Ġto ld
op s
I m
' .
I S
ang e
ak ing
Ġchild ren
Ġme et
P l
Ġb us
Ġg ot
Ġar t
T H
Ġcon st
Ġinclud ing
Ġcamp aign
Ġt urn
ĠA l
Ġb urn
Ġb as
Ġan n
Ġd ra
Ġfor ces
Ġ" %
Ġto ok
ĠR aj
ĠC D
v al
av ing
ĠD em
Ġre st
in ess
it her
u ed
or ld
ĠUn ited
e ep
Ġam ong
Ġcr is
Ġp h
Ġinit ial
u k
ire d
Ġcl aim
ĠL TTE
Ġm in
ĠTh is
ĠC omm
V D
Ġm ail
Ġg row
ren ch
Ġs ur
Ġp oss
Ġj ob
Ġro le
Ġlead ers
ashing ton
Ġw ent
Ġ 7
g er
al a
as k
r ont
Ġg u
Ġt ype
ĠS ocial
o h
id ed
I L
ĠA r
ain s
Ġcris is
Ġc ity
Ġcan not
Ġc our
ri ed
Ġbe h
ann ot
Ġhe lp
iv ed
Ġ' %
w ork
ur y
Ġse cond
Ġright s
ou ght
Ġl ay
Ġfilm s
Ġpolic y
c ri
s h
Ġpro p
p ut
al ity
pt y
Ġdif fere
Ġs ince
Wh at
' re
Ġan t
res ident
Ġs ize
Ġd ata
ocu ment
er ing
at or
W hen
m y
C annot
Ġm edia
Ġre ce
Ġr un
Ġval ue
ress ion
Ġest ab
S yn
A dd
E x
cre t
Ġm od
i j
D o
Ġd ri
Ġl ife
Ġt er
Ġad v
Ġpart ies
Ġfun ction
A fter
Ġres ult
angu age
' m
w ord
Ġl ine
Ġm illion
ra ct
Ġor der
Ġf our
s er
Ġde v
Ġa v
l ess
p le
Ġin f
em pt
Th at
on st
Ġh ist
e h
us ed
am a
Ġpers on
Ġ error
or n
ĠI t
f or
ap er
Ġg ive
ur al
Ġwith in
Ġbe l
pt ions
Ġt ro
iv ing
Ġa ction
el s
R E
uth or
ch ron
Ġsay ing
i er
R e
m ber
ĠW ashington
vi ous
at ch
Ġ /
ĠP r
Ġs it
Ġreg ion
ĠTH E
Ġprot est
Ġc ut
Ġag re
ru ct
Ġl ook
c il
b ar
iv il
Ġsp ok
cre en
Ġstr ugg
ak istan
om b
Ġe ar
n er
S o
en cy
Ġth reat
end ing
Ġpres ent
Ġ $
Ġf amil
um an
Ġ1 0
ard s
r ror
Ġf ind
en g
Ġall ow
it le
ate ly
P lease
Ġo ption
Ġcont rol
Ġs im
ĠInd ian
I C
Ġon to
Ġ ~
an cial
r ict
Ġd el
er o
il es
ial og
Ġt error
Ġle g
m in
em ber
Rem ove
Ġhe ro
Ġo ld
Ġc lear
Ġdis play
Ġpro ble
Ġ You
Ġm uch
E P
iz ed
ĠF rench
s s
A S
Ġle vel
Ġf ather
Ġl ab
Ġre cent
al th
Ġpro f
i ber
Ġde b
Ġa ut
n ce
en se
Ġg ame
Syn chron
ad a
un g
Ġst ud
om in
ĠU N
Ġl it
res ent
Ġt alk
Ġc heck
on ent
Ġmem bers
ure d
h ar
Ġa round
y s
Ġb ook
i od
ur ation
Ġl a
ĠA nd
ĠI ran
r ad
Ġin c
ĠW h
A M
Ġpri v
Ġrul ing
i ra
Ġchar act
Ġen c
Ġb ig
Ġbe g
Ġbu ild
ur s
Ġ2 0
Ġtro ops
li ament
g est
U S
ob al
Ġpr in
Ġm o
idd le
Ġh app
um n
Synchron ising
ĠP resident
Ġv iew
Ġf ight
Ġst ill
Ġto o
ĠM inister
Ġc ivil
ĠA b
Ġcon c
D is
o ver
Ġinv est
B l
t ings
Ġpro cess
Ġbut ton
N ow
H ow
Ġ 8
ol og
P ro
Ġf ailed
us ic
ĠSocial ist
ĠFran ce
C ol
ĠP akistan
g round
O rganis
Ġse curity
Ġem pty
ĠA ll
ep end
Ġp osition
s w
Com ment
it or
c hed
Ġe arth
Ġcre ate
Ġant i
Ġc ert
vers ion
en ed
Ġm inister
Ġth ous
ur ther
Ġpop ulation
Ġd one
Ġqu est
gh an
Ġn ear
Ġb re
all ed
ĠO F
Ġann oun
w ar
om at
Ġde ath
Ġob ject
our ce
E N
Ġa way
our s
Ġus ing
Ġas k
Ġp ost
ĠD e
as ing
Ġb ank
Ġinterest s
a it
Ġatt empt
Ġ ri
ĠM an
um b
u ally
Ġdem onst
Ġsu ccess
Ġ X
Ġv is
Ġlar ge
Ġfore ign
Ġv ot
s p
iss ion
ail able
Ġth ings
Ġf ar
w ing
it es
ar i
ail s
Ġdecl ared
an a
p ro
ud io
Ġme as
Ġadd ress
Ġ Q
ĠGerman y
Ġbus iness
Ġd uring
T o
h i
ĠI N
k n
at t
c ol
ir d
Organis ation
Ġf ive
ĠUn ion
Ġsm all
Ġf ull
ust ral
ond s
Ġr u
ad u
le g
Ġdem and
Ġp ast
ver al
Ġchang e
Ġtak en
rou ght
Ġkill ed
ĠA n
Ġgo ing
Ġf ree
ĠR ep
Ġh ost
Ġfor mer
Ġfin ancial
ĠLank a
Ġun ion
o z
ĠCh ina
ĠR uss
Ġcomm un
ide o
Ġdirect or
o is
al f
und red
O pen
se t
ĠAf ghan
The n
Ġper iod
a ug
A cc
r as
ĠC on
ra b
Ġapp lic
ub s
Ġe qu
Ġpl an
u ck
Ġfollow ing
Ġpe ace
Ġf ac
Ġcre ated
n ed
P r
h a
Ġth ink
t ion
Ġdem ocratic
f o
k t
C l
ra ph
Ġf urther
= "
u ation
Ġtra ck
ig ure
l ine
C re
ord er
Ġ 0
Ġdiffere nt
I T
Ġf ield
N ot
ent ion
Ġimport ant
Ġstrugg le
Ġf und
im um
Ġme ans
o ose
et y
Ġm ight
ro ss
Ġtr ade
Ġpar liament
Ġinv ol
Ġmove ment
k y
Ġo il
Ġac cept
Ġinitial ise
Ġc ase
Ġare a
kn own
Ġa uthor
Ġb rought
er v
Ġchang es
D es
U se
Ġcons id
Ġj o
Ġle ast
i ef
Ġg ener
ĠS et
in al
Ġs ong
Ġm ar
Ġre al
2 00
Ġar my
ĠE ast
Ġpro m
E D
r id
t t
ro p
Ġb ased
ot t
ĠI m
Ġheart s
ĠB l
Ġ 9
ĠH e
Ġl ess
l ished
Ġact or
ress ed
Ġc rit
ĠP l
mb ol
Ġc and
ĠE volution
ĠBrit ish
e e
n ai
Ã ©
an i
Ġit self
Ġser ver
Ġestab lish
per ial
i ence
ag er
The se
ĠO b
pl ace
ĠI f
ate g
dit ions
R O
Ġreg ime
Ġor gan
Ġs ide
ĠF ile
Ġocc up
Ġhe ld
ĠE x
ess ion
ef t
ĠD VD
Ġcomp onent
Ġwe b
Ġe ffect
c ing
Ġl iving
5 0
Ġm ode
am ed
ol l
Ġav ailable
Ġgl obal
r ist
Ġex ist
m en
med i
Ġdi am
Ġs om
Ġse arch
w are
S et
Ġv i
o ice
y le
Ġdef ault
Ġre as
Ġcon ditions
os p
d e
Ġb illion
Ġse ek
Ġfor ce
Ġp ay
Cre ate
Ġu nt
e ch
Ġs ix
Ġst ory
ĠDem ocratic
ap an
E rror
is on
Ġd iv
end ed
one y
ĠSt ates
Ġto p
Ġor ganis
et work
Ġ version
Ġl anguage
S ave
Ġh undred
cri ption
il y
Ġloc al
Ġto ward
ĠP al
Ġbr ing
Ġattack s
Ġpolic ies
Ġse par
Ġt amil
sel ves
Ġreturn s
n ect
Ġs old
Ġcl ubs
Ġde al
Ġmeet ing
ro y
od y
am b
Ġd ialog
hen nai
Ġbec ome
Ġhow ever
Ġt ry
Ġind ust
ĠAmeric a
I nd
iz ation
Ġcand id
Ġpartic ular
le ment
. "
ition al
kt op
Ġb omb
ĠW orld
S he
y a
Ġpl ac
Ġlead er
l er
Ġl ow
ot s
l ing
Ġrep resent
Ġposs ible
Ġit em
Ġsu re
Ġsp ace
Ġcharact er
i or
id es
Ġind epend
ĠS p
Ġf ace
Ġd ocument
Ġem ploy
Ġstri ke
Ġmonth s
O ne
Ġe ach
ic le
Acc ording
Ġd en
Ġdiam onds
ver t
amp le
Ġc al
ĠC an
i vers
w ays
Ġh old
Ġsp ades
Ġk eep
a pe
Ġf ew
Ġword s
ro ll
ore d
Ġcomm it
h an
Ġ( %
un e
ĠAfghan istan
Ġstart ed
Ġconc ern
Ġf all
Wh ile
Ġv ote
Ġe lect
Ġyou ng
un ch
Ġbro ther
ef ault
Ġb ar
os es
on se
ib ility
Ġreport ed
ia h
m it
Ġm ount
Ġh ome
Ġresp ons
Ġim perial
Ġen g
bo ard
ĠC l
cret ary
A meric
i ers
Ġw ater
ne ction
Ġcol our
Ġvi ol
Ġa im
ir c
Ġre le
id ence
Ġpro per
S c
r ay
er y
Ġacc ording
Ġ es
ru ction
g u
Ġm usic
Ġcol l
E dit
ĠS outh
um ar
ĠL e
Ġw om
Ġ1 2
ĠR e
u v
Ġsh oot
ra cy
A r
Ġf ire
ĠJ an
ĠC ong
ĠS o
av id
E L
pt ember
lic k
Ġc oun
st and
ĠN ame
Ġl ink
Ġelection s
Ġhist ory
ra w
Ġse veral
R I
Ġb ur
ĠA N
ri end
ĠN ational
Ġs ing
Ġst ates
ĠUS A
o ber
Ġh uman
Ġhe av
ab ly
Ġsupport ed
Ġm et
Ġwe ap
Ġeconom y
h ing
Ġan sw
ĠIraq i
i qu
r ing
Ġact iv
ain ing
Ġim medi
C ont
p art
g o
Ġy et
eth od
Ġab le
es e
Ġofficial s
ĠS c
s c
Ġex ec
Ġpre vious
ĠA ustral
Ġg ave
Ġapp ear
Ġw hether
Ġs ave
ust om
ĠM ay
ed er
re st
Ġconf lic
e es
Ġe ver
Ġapp e
an e
ĠC ent
Ġj ud
in i
i pp
ĠT O
Ġbel ie
I ON
l im
Ġp ath
C opy
on y
Ġspe ak
ĠRep ublic
Ġ âĢ
Ġpartic ip
ĠS EP
ĠG e
Ġsh ort
our n
W ith
ĠP h
m a
it ution
our ge
Ġfamil y
g es
Ġserv ice
ĠIn ternational
Ġsit uation
Ġl im
ourge ois
Ġse en
Ġind ic
Ġw on
ific ation
Ġunt il
an th
u ary
ar aj
Ġpow ers
Ġjob s
Ġst op
in ing
Ġto get
ar ing
Ġtoget her
ĠD avid
ĠI S
Ġne ver
Ġdest roy
Ġc e
Ġun ions
Ġform at
Ġm oney
Ġs um
est in
Ġne g
Ġent ire
a f
ay er
Ġ1 8
Ġhim self
Ġquest ion
Ġrece ived
Ġt en
Ġto ol
Ġal ong
al i
ch ool
ent ial
th ing
Ġex pect
Ġe mer
l u
Ġdisc uss
Ġca pt
on es
Ġacc ess
Ġmess ages
Ġre ally
Ġde ep
Ġl ost
Ġacc ount
Ġ1 5
Ġg eneral
p re
Ġc are
ĠS y
1 0
Ġm ult
Ġnot hing
uc lear
ĠN orth
Ġa udio
ian ce
el f
ĠCong ress
F ile
ĠE n
t ies
Ġl oad
Ġrequ est
Ġm at
are nt
Ġt ar
ĠH ind
Un able
y p
en ing
Ġannoun ced
Ġse ven
Ġlit tle
u nt
Ġb ourgeois
r ight
as es
Ġcomp lete
op tion
Ġbeg in
Ġp ort
A C
S L
e ah
l am
Ġc ast
ak es
Y our
Ġcl ick
Ġkn own
E ven
re g
a ff
Ġ1 1
Ġel ite
Ġa ir
Ġc ost
old ers
ĠJ er
Ġmeas ures
A ut
s ide
ĠT imes
in fo
Ġagre ement
Ġs w
Con f
Ġrele ased
d om
ĠP ol
Ġmark et
Ġsocial ist
- -
m ark
Ġ19 8
Ġt able
pl it
er a
N T
ĠL eft
Ġ ve
Ġs end
w ith
os ing
ear ch
Ġbro ad
Ġe ff
ĠC ont
Ġthem selves
s y
Ġm aking
A b
I s
M L
Ġse lection
Ġrel ations
pr il
Ġ ur
Ġth ing
Ġapp ro
eth ing
Ġt ab
Ġb order
ad h
in ation
Ġv ict
Ġwho le
Ġchang ed
ĠW ar
ĠLank an
: %
Ġl ater
pl es
Ġdec ision
ful ly
et er
ĠP ar
Ġd ue
Ġwh y
Ġp ur
Ġto t
ch n
ĠG eneral
Ġcomp any
Ġincre ase
ĠM ar
Ġd r
Ġn uclear
Ġl og
ig uration
pect ive
Ġdo ing
ru pt
M P
en ces
Ġb est
ĠF il
P re
rib ut
Ġtrans l
S ome
con t
ij ay
or iz
ess age
Ġthere fore
ĠSe ptember
Ġmajor ity
tern al
Ġh ard
ri al
Ġmen u
A P
ab led
Ġf ear
Ġh alf
Ġsa w
ens ion
Ġweap ons
Ġco al
' ll
A D
b y
op e
te e
St art
Ġstr ong
Ġt w
ult ure
l oad
un it
Ġg r
Ġdri ve
en e
Ġthous ands
is ation
ĠF or
Ġne cess
S p
le t
Ġcour t
al am
Ġe y
Ġs creen
ĠT r
Ġpolit ics
De lete
c ut
n ces
or g
ove mber
iy a
Ġcapital ist
gy pt
Ġl ive
oci ety
ct or
ĠP lease
Ġbre ak
L E
e en
Ġ3 0
r il
Ġspe cial
Ġcol umn
c hes
re ct
/ %
oc ation
P D
Ġt re
Ġcontin ue
ĠK DE
Ġpop ular
Ġp ub
Ġus er
Ġsign ific
ric a
he m
in ter
re ed
Ġn or
Ġl ed
Ġshoot ing
g ress
Ġdet er
B urn
Ġc ard
Ġent er
bo x
S pe
ĠPal estin
aug h
S ince
Ġch ief
u ly
Ġim m
as ter
ĠE U
vi et
Ġp at
or ies
Ġde ad
ĠL ab
Ġare as
Ġiss ue
Ġd ou
Ġcom ing
Ġoff ice
2 0
T amil
a id
Ġpr int
Ġs chool
Ġru le
in h
ĠG u
ap ak
Ġr ound
Ġsu ff
Ġapplic ation
Ġt ell
Ġc opy
Ġ ident
6 0
Ġs ons
Ġv ideo
Ġcurrent ly
Ġreas on
ut ure
Ġwh ose
Ġpl ans
Ġwrit e
Ġincre asing
Ġp age
' ve
Ġv ar
Ġstat ement
R es
Ġ ,
Ġf ont
Ġgovernment s
Ġme an
Ġeff ort
an ces
Ġm ethod
Ġspec ified
at s
Ġother s
Ġbas is
ag ed
us al
g ing
ann el
Ġdirect ed
Ġdemonst r
is es
ot i
at ives
il ar
Ġcor por
ad d
ĠM al
Ġspok e
ug in
apak se
ĠJ ud
ce ed
Ġfl ag
oriz ont
Ġ <
ens ions
olog y
ĠL ord
Ġhe ight
Ġrequ ired
âĢ ¦
i um
ĠG o
Ġl ight
Ġtar get
Ġex per
V P
u pp
Ġh aving
ra ck
Ġcent ury
M ore
Ġt imes
Ġs outh
our ces
ĠJ apan
ras ero
Ġ z
ĠE ng
re et
Ġresp onse
Ġleaders hip
ac hed
Ġcol or
Ġoper ation
Ġcert ain
Ġsom ething
" "
Ġsold iers
l ight
Ġre du
Ġp ack
Ġwrit ten
o le
Ġl ove
ist ance
N O
Ġdirect ory
it ions
Ġf riend
Ġh ig
Ġse a
ĠN o
Ġask ed
Ġor d
ign ed
Ġte chn
ud e
ĠBrit ain
ĠA pril
ĠRuss ia
Ġs ol
Ġn orth
ĠT ool
ain t
Ġstat us
Ġgroup s
Ġproble ms
c rib
du ct
Ġwid th
ct ober
Ġy es
ĠE gypt
Ġbl ood
R AN
Ġl at
Ġbec ame
ĠIsrael i
Ġcoal ition
Ġm ed
Ġcon nection
Ġrec ord
al y
Ġre lease
ĠAs ia
a ul
b e
Ġa ff
um p
ren g
Ġed uc
Ġgrow ing
ar an
Ġe vent
il t
Ġl o
C lick
Ġh ands
ry pt
Ġs ays
Ġon ce
En ter
C D
Ġv ill
U R
ĠC om
un ist
ord in
Ġed itor
Ġm or
Ġe as
Ġ19 7
ĠSt al
v ing
om bo
ĠD es
H is
ific ate
c i
pl ic
re en
Ġen ough
Ġlead ing
Ġs ociety
Ġoccup ation
m ost
l ist
r ary
ĠC hennai
Ġre volution
Ġwh om
A pp
Q u
ĠA m
A Y
vent ion
C H
it ch
Ġde lete
Ġdevelop ment
Ġproble m
Ġs ource
Ġprov ide
Ġrel ig
qu ality
Ġpre p
Ġart icle
og n
ar n
Ġburn ing
Ġs ou
Ġw ife
ĠCh rist
Ġ @
ug ust
Ġins ide
Ġmain t
oz y
m ail
Ġd ate
Americ a
Ġre form
ĠH ouse
ark ozy
f ic
ank s
at ors
Ġag o
Ġcomp le
Ġpriv ate
Ġt est
Ġf ail
Ġex ample
Ġo ptions
Ġc ities
Ġr ad
Ġm other
art ment
En able
Im age
ril ank
1 2
h am
Ġpress ure
A d
o om
re w
as ion
Ġn ight
Ġmem ber
Ġtalk s
Ġprodu ction
Ġth ird
re m
ĠA d
Ġtak ing
ĠOb ama
ill ions
ell ig
W S
Ġn um
if t
Ġloc ation
p ite
Ġn ames
ce mber
ĠCan ada
Ġneg oti
I A
Ġt ask
Ġtr ad
Ġst reng
d em
Ġ1 7
av ed
C heck
Ġn on
Ġse em
Ġcom b
Ġne ither
Ġab ove
Ġf uture
Ġbe gan
Ġu nd
Ġan g
ang er
Ġpre vent
Ġbo x
Ġadd ed
Ġb ud
Ġpri est
t ype
es us
ip le
b ack
Ġm iss
ĠW indow
Ġser ious
ent ly
Ġsy mbol
S im
c ome
ir m
Ġthrough out
Ġtr ue
ĠCol ombo
ur d
ĠSet tings
Ġm iddle
I G
am al
Ġc ause
Ġoff er
N umber
Ġn etwork
Ġact ing
Ġdev ice
ĠRaj apakse
Ġreg ard
c ul
Ġocc ur
orizont al
r ong
Ġto day
Ġcrit ic
G o
ar a
ur k
Ġte le
Ġhe ard
Con st
u se
Ġo p
Ġcont act
Ġact ive
at us
it ing
Ġconflic t
Ġst age
a ut
Ġs ound
Ġcomp ut
Ġbl ock
D efault
r ame
Ġfor th
c er
ĠA dd
oc racy
tern et
ĠPr ime
Ġestablish ment
se qu
Ġnew s
val id
ourn al
Ġtot al
B y
S T
um e
Ġturn ed
Ġst ep
em ploy
ĠV ijay
ines e
Ġt ax
w ell
Ġcontin ued
re me
Ġs al
Ġe ither
Ġg round
\ \
ĠS er
Ġcour se
Ġrun ning
eng th
Ġcent ral
1 1
Ġa ctions
ag ement
n ow
he ad
Ġal ways
Ġcom ment
How ever
on na
Ġdist rict
N A
ro du
orm al
reed om
usal em
Ġt itle
w w
ar on
Ġd omin
pe cial
ĠJan uary
3 0
Ġse c
ĠN ovember
option al
Ġvar ious
i ver
l s
Ġth ought
Ġtak es
ĠAN D
n et
Ġk ind
Ġpass word
O P
Ġplay ed
ĠV iew
oh n
Ġpr ison
us lim
Ġar rest
ĠJer usalem
L ast
Ġspe ech
Ġpresident ial
Ġval id
Ġf av
Ġso on
U N
he t
im ate
ĠIs lam
Ġgrow th
Ġexec ut
g ency
Ġ x
ĠJ uly
ov ing
M y
Ġinst ead
end ar
or ity
ar am
Ġth ough
op les
ĠB e
ens ive
ax imum
Ġbeh ind
Ġear ly
Ġ1 6
ilit ies
f er
ur rent
Ġpart s
ug u
Ġrem ove
Ġbuild ing
u el
Ġa ffect
em ents
ir t
an ced
Ġ1 4
Ġcar ried
Ġph ot
O r
Ġh it
Ġhe alth
ĠP er
ĠK umar
Ġe ight
ire ction
In st
Ġnew sp
x is
Ġdef e
l in
n am
ut es
ĠD o
ab ility
f ace
h u
re am
Ch ange
ĠE dit
Ġro w
Ġre pe
Ġl oss
Ġg onna
Ġ1 00
ellig ence
n adu
omat ic
Ġb ase
au c
en ame
Ġserv ices
F rom
ru ary
k ay
al ed
Ġnecess ary
P I
ĠF older
ĠR es
Ġins ist
Ġd augh
Ġlab el
ĠIm age
ig r
ri a
o o
ĠS inh
eb ruary
ol y
Ġinvol ved
Ġthere of
Ġspe ed
Ġback ground
O L
iv al
Ġdem ands
Ġstud ents
y ear
ir on
Ġfil ter
Ġrecent ly
Pr int
Ġt rib
Ġopp osed
b u
at ab
Ġweek s
d own
Ġle ave
R L
Ġw ait
ou ra
Ġstri k
Ġsa f
T ext
Ġl ines
Ġis land
Ġcapital ism
Ġneed s
Ġ ic
Ġinst all
Ġcut s
Ġcandid ate
k a
Ġd ied
Ġprotest s
Ġes c
Ġindepend ent
E T
ar ies
es tern
Ġoff ering
Ġev ents
" .
D VD
Ġre action
ra v
th is
ere nce
Ġ1 3
Ġs un
Ġcont ents
Ġ200 2
Ġs an
Ġf ood
Ġr ather
Ġam ount
ur ai
ort un
ĠW est
Ġconst itution
Ġpo or
' ,
is ions
Ġcomp an
On ly
c ies
s ert
Ġre ject
Ġbet ter
Ġpers pective
Ġplac es
C al
Ġsupp or
Ġpub lished
e ed
Ġ ide
Ġe at
ĠS am
Ġreport s
Ġconsid er
Ġs il
av an
Ġopen ed
ĠSo viet
Ã ¢
Ġunder stand
Ġass oci
Ġcar ry
L et
c alled
ig ers
ĠM arch
Ġar gu
w h
Ġbegin ning
Ġto wn
Ġyou th
Ġprodu ced
C T
n ame
ott om
S E
en u
ol it
av i
M A
Ġor ig
Ġint eg
he st
ĠT o
Ġbud get
ĠT ext
Ġs at
TE R
" %
ĠM oses
Ġpl ann
Ġim ages
Ġwe alth
Ġcomm on
ft ware
ivers ity
a o
k en
se mb
ra p
ath y
Ġbas ic
ĠO ctober
Im port
ĠComm unist
ĠJ esus
Ġdes crib
Ġsim ilar
Ġ ut
Ġsignific ant
Ġfund ament
I R
o ved
al se
Ġsu per
Ġ" "
Ġb en
Ġre place
Ġr ate
Ġdec ided
Dis play
ĠâĢ ĺ
S P
Y eah
Ġwith d
Ġ2 5
Ġeduc ation
ra f
her n
l o
ap s
l ation
ĠM iddle
li er
ĠK ore
ĠJ une
ĠJud ah
I D
Ġm ag
Ġsl ot
Ġhist or
y l
Ġval ues
ĠY ork
Ġ ess
ĠW eb
ĠSt ate
Ġun employ
cil s
z z
pl ate
Ġcompan ies
Ġc irc
Ġe ast
Ġincre ased
D isc
Ġ )
Ġv oice
Ġimperial ism
Ġconf ront
Ġ >
he l
Ġw ro
id ing
Un known
Ġf ell
ĠS arkozy
ag on
Ġch oose
U L
it ation
ĠP e
Ġbank s
ĠD ep
ĠO ptions
og raph
Ġpr ime
Ġbl ack
Ġtoward s
Ġwom en
Ġm akes
im al
ĠDem ocrat
p ly
t ext
el ugu
Ġsh are
Ġar med
ĠDe cember
Ġcom es
Ġm inist
Ġn at
Ġa ward
ec ause
Ġimmedi ately
iv id
fic ult
Ġw in
Ġl ot
Ġst yle
pp ed
Ġ5 0
Pl ace
m iss
Ġse ctions
ruct ure
Ġf ill
le an
Ġb it
ic ation
Ġev idence
Ġh ours
Ġbe low
Ġsu g
Ġco ver
O D
ive ly
ud d
Ġrec ogn
ter day
Ġconf erence
osp ital
w rit
Ġpoint s
Ġlay er
ĠSe cretary
Ġprodu ct
Ġm er
ĠAs s
Ġf uck
ag h
ac y
ort hern
Ġinf lu
G ener
it able
Ġin j
el am
ĠB ank
ik a
Pl ay
Ġl ives
ĠA ugust
Ġcon nect
Ġte am
Ġw ide
Ġre v
ĠM uslim
Ġ200 1
os er
M an
Ġs ession
ĠA rab
Ġhe ar
J P
al ys
Ġp ix
Ġfe el
Ġey es
( )
n es
Ġpl ant
cri pt
B ack
j a
Ġ200 7
col or
Ġb ure
Ġn ation
Ġcon duct
Ġparticular ly
eder al
Ġs ought
Ġc red
as c
Ġfor ced
.. ..
Ġagre ed
y ing
ĠCon f
Ġrespons ible
ic les
id a
ĠC al
Ġlar gest
Ġleg al
Ġbeh old
Ġjo ined
Ġs us
Ġdef end
atab ase
Ġl iber
Ġsuccess fully
ro ts
ĠS und
ail y
form ed
Ġinv asion
Ġins ert
Ġinvest ig
Ġst ar
ug e
Ġf olders
ĠF iles
Ġbelie ve
ar ian
Ġe le
r ast
t a
it ude
Ġd am
Ġsp read
Ġ19 4
ĠCh inese
Ġac ross
ip s
Ġent ry
Ġviol ence
rots ky
an ia
Ġb ody
se arch
Ġ4 0
Ġdet ails
Ġdialog ue
Ġg as
and a
ran ce
Ġwid get
A m
S earch
ĠS he
ĠL iber
Ġsh ot
Ġinclud e
Ġbure auc
u ff
Ġdest ruction
Ġwro te
Ġm ot
ul f
ĠL ist
Ġapp oint
v in
Ġup on
Ġimp lement
Ġ er
ĠP re
Ġlong er
ira c
Ġf ront
ĠK ar
Ġoper ations
am i
ĠS ch
u ing
ĠC oun
us es
Ġset tings
Ġsing le
Ġsh own
Ġcr im
l ands
ĠJ e
Ġwork s
, "
Ġd ict
th ough
Ġclaim s
omat ically
o ff
ĠF ebruary
Ġclaim ed
Ġindust ry
Ġj oint
ĠSinh ala
d o
av es
Ġconf iguration
Ġstr ing
Ġnewsp aper
ra g
ĠJ VP
Ġen em
in em
res h
ick ed
Ġref used
Ġsug gest
I V
T S
OR S
fere nce
Ġdou b
le y
ath an
ĠCent ral
Ġben ef
t hen
Ġcor rect
p oint
z e
Ġd well
ĠS en
ĠAustral ia
Conf igure
ow er
Ġr ise
ap se
reat ing
ivid ual
Ġh ous
Ġfor ward
op er
ĠPro ject
Ġexpect ed
Ġst ay
Ġthous and
ĠS un
Ġhero ine
Ġb ound
Ġd om
Ġd anger
Ġ200 4
ĠWh ite
K DE
i et
ud i
tt p
Ġal tern
ĠM ond
Ġfollow ed
Ġh ttp
Ġa xis
Ġfin al
Ġmo ves
Ġsuppor ters
F ont
Ġint elligence
Ġpro b
Ġpre view
Ġa id
Ġc ell
Ġre ve
ĠM ah
Wh y
T ML
ĠB r
ĠR ight
ir th
Ġdeter m
Ġcomput er
M any
Ġint rodu
ik i
Ġfamil ies
Ġt yp
ĠB o
ĠW e
Ġsign ed
ĠPalestin ian
Ġw alk
Ġn ations
ĠU RL
j ust
Ġb ug
In sert
O M
Ġcomp et
Ġem b
Ġmass ive
ĠCoun cil
M ail
ath i
Ġest im
Ġtry ing
Ġind ex
m on
Ġp urs
K ey
n o
ab or
ĠJ ohn
Ġhundred s
In valid
Ġiss ued
er gy
oc us
ix ed
en cils
ĠB er
Ġinter view
Ġm ob
Ġm illions
Ġdif ficult
ateg ic
Ġoccur red
F ailed
is k
it ive
ac her
ĠD isc
t itle
le b
ĠN ot
Ġwar ned
Ġestab lished
Ġallow ed
ĠStal inist
he me
Ġcivil ians
V iew
ly ing
ĠM ode
ib rary
G E
ell ation
Ġbo ard
Ġiss ues
ĠBl air
Ġ19 6
O ut
P A
Ġh ospital
RAN SL
Ġfundament al
L e
Ġf rame
ak k
O ver
in ary
Ġch annel
Ġdec ades
Ġbu ilt
Ġsong s
P er
o on
Ġal one
Ġout side
Ġinst alled
ĠCol our
Ġlet ter
W indow
Ġwork ed
Ġen v
Ġdirect ly
Ġev il
Ġprov ided
Com p
P P
Ġl ength
Ġread y
Ġdestroy ed
Ġlat est
f ile
ĠH ow
Ġget ting
0 2
A re
om et
row n
r ate
us ion
D on
O T
ic ians
RANSL AT
Y es
Ã ĥ
Ġg od
ĠF ront
ĠR am
h ab
Ġc am
Ġc ards
ay a
M al
ĠE quality
Ġexpl ained
Ġmor ning
c o
ut ions
ĠT rotsky
ocu ments
Ġseek ing
w ise
ĠM ad
Ġse cret
lect ed
p ed
Ġdep end
Ġfight ing
a pt
er ve
Ġn amed
igh b
RANSLAT ORS
A ccess
ow s
ver ty
ac ed
Ġpo verty
ot ed
ĠS PD
D P
Ġp arent
om es
id er
id th
ĠB h
Ġ200 3
Ġstand ard
Ġterror ism
Ġaim ed
b and
Ġag e
ĠRuss ian
m p
ol a
ac ity
ĠEng lish
f ire
i res
ĠS ar
ab el
Ġdef ence
U s
ul a
Ġal t
W ell
ĠS ing
ik ip
Ġthem e
Ġn ine
Ġmass es
Ġeng ine
I M
T ime
r ated
Ġ ign
Ġdes ktop
M in
U nder
Ġwh ite
Ġany thing
Ġser ies
Ġreturn ed
Dis able
E very
b l
Ġs en
Ġs qu
ĠN AT
Ġex ists
ĠDemocrat s
S y
i as
Ġcont ain
Ġ200 8
ĠSe curity
Ġexp ressed
Ġan ger
Ġab s
Ġic on
am ous
Ġre d
Ġres olution
Ġind ividual
Ġdem ocracy
St encils
fere nces
Des cription
Ġg old
Ġmat ter
Ġ2 4
Ġcoun ter
ĠT urk
Ġcon g
Ġex port
Ġnum bers
Ġpl ugin
Ġimp ro
idd en
J ust
Ġ il
it tee
Ġprep ared
ĠS ol
Ġnear ly
Ġcommun al
ĠPh il
C R
Ġb ad
Ġun c
Ġeffort s
W rit
l a
s ite
ĠC o
ate ver
Ġman ager
Ġ200 0
Ch oose
Ġs in
ra ce
G et
Ġs aved
Ġth us
ĠK er
Ġjo in
Ġpre d
Ġsub ject
Ġhig her
m ar
Ġp ot
Ġn av
al id
Ġb all
Ġb oy
Ġd oll
Ġprog ress
Ġprot ect
Ġbrother s
iron ment
D uring
l t
av a
Ġpe oples
Ġter ms
r ish
Ġp ra
our t
Ġass ist
2 5
B rasero
Ġopp ortun
Ġrepe ated
Ġt reat
at tle
or ge
Ġh int
ot al
Ġam b
Ġlike ly
Ġexp ression
ĠLab our
S w
Ġw rong
Ġc ulture
ĠB al
per ties
Ġla unch
Ġop in
O W
m l
ĠA t
ib an
Ġansw er
ur b
ĠG re
rib ute
Ġspok es
c ast
s on
Ġst ock
ir it
Ġch all
ĠCh irac
Ġdra w
Ġal arm
pp er
ort ed
Ġqu ick
Ġinc ident
ĠQ u
n ew
ert ical
Ġear lier
ĠP S
Ġen ergy
Ġexpl o
Ġce ase
E urope
he nt
ĠT elugu
ous ly
Ġout put
und o
ikip edia
A V
u le
ĠD ef
AN D
Ġvis it
Ġconsid ered
Ġf ig
ver age
ur g
res p
Ġman agement
ĠComm ittee
b ased
Ġn one
Ġl ack
Ġresp ond
Ġincreasing ly
i en
w orld
Ġ- -
Ġsub st
air s
Ġv ast
Ġpre par
Ġtem ple
g n
Ġc ou
Ġyes terday
k i
Ġsh ar
Ġprof it
ist ic
ĠB ook
Ġv ol
Ġj ournal
Ġdid n
ung a
Ġexist ing
oc al
Ġsc en
Ġwant ed
ĠG ame
Ġqu een
eb an
Ġc he
Ġp et
" >
ond on
com p
Ġp os
Ġne ighb
form at
it iz
Ġl ock
ĠO r
Ġcall s
g r
Ġf alse
ĠS im
ĠF l
Ġall iance
Ġext ra
Ġstand ards
Ġcoll apse
R U
Ġw age
Ġdaugh ter
T rans
Ġcont ains
Ġel se
Ġauthor ities
C K
ĠB ar
ac ing
Ġen s
Ġdisplay ed
Ġlink s
l ike
re f
ĠS a
ac ific
ĠE elam
ĠJ ac
ell ed
Ġinvest ment
Ġcert ificate
at ic
Ġst re
Ġent ered
Ġhapp ened
ateg ory
/ /
Ġs elf
ĠT ype
ĠM essage
Ġse ctor
Ġpass ed
ĠAf rica
P S
m ing
v ision
ĠF OR
Ġres ources
Ġbourgeois ie
Ġaltern ative
Ġ .
Ġp ie
Ġinclud ed
Ġterror ist
Ġparliament ary
S er
ad i
Ġg one
Ġde g
: //
i ents
an j
ent ed
Ġcom pl
Ġperson al
ĠWh at
Ġset ting
F il
Ġ ver
it ness
Ġm ind
ĠA pp
Ġrem ain
1 6
at he
ĠP ost
ul ly
Ġcon sequ
ĠY OU
Ġproper ty
or al
it er
Ġinflu ence
A B
O V
S end
t ime
Ġd ie
ĠB E
Ġse x
Ġimmedi ate
ĠPar is
N U
it led
Ġan im
ĠT RANSLATORS
iy ar
th i
Ġwom an
Ġil leg
H ere
iz ing
Ġprin ter
c her
l ig
Ġtr ust
iqu e
m ission
en cies
Ġnot ed
Ġse cretary
Ġsupp osed
Ġansw ered
Ġfail ure
U p
Ġcall ing
eh old
rilank a
O h
a res
Ġb row
ri pt
ĠW S
ĠO n
Ġgreat er
Ġsim ply
o id
Ġc ustom
Ġp lease
Ġl ate
Ġg e
ut y
Ġuse ful
Ġs ite
ĠT em
ĠL eban
Ġneed ed
Ġactiv ities
ĠRepublic an
Ġpur p
M e
Ġh uge
ro ad
us se
Ġro t
ev a
Ġshow s
Ġce leb
C I
Ġf arm
al ing
Ġch air
ry ption
Ġcont ract
Ġimp act
D own
t amil
Ġh ope
ist rict
19 8
Ġlit er
Ġbur nt
H ide
Ġc inem
ĠB JP
Ġstr ategic
L ist
or ry
ill a
ĠE rror
mbol s
ĠO N
Ġimperial ist
NO ME
N ext
Ġs plit
Ġd irection
led ge
ĠHind u
Ġtw ent
ĠWS WS
o or
ĠG roup
ĠAss oci
â Ļ
Ġ *
Ġp al
Ġdra g
ve ment
ist ory
ĠC ourt
ush ar
oss ible
Ġref ug
Ġri ver
Ġg ir
ĠGe org
Ġvict ory
Ġfriend s
c omm
h is
Ġt ensions
Ġw ages
Ġe t
im ately
Ġ200 6
Ġheav en
e pt
g ment
Ġt ree
Ġw all
ater ial
com ing
Ġcandid ates
Ġlim ited
Ġunemploy ment
F irst
p id
oc ol
ok e
Ġprop os
Ġmo ved
Ġapplic ations
Ġsepar ate
C urrent
d ate
og g
Ġwar ning
Ġsc ript
H el
M ar
ĠO pen
Ġcont ent
rib ution
ork ers
Bl ack
Ġwithd raw
ri f
Ġking dom
Ġlaw s
ĠKore a
Ġcrim inal
T ype
ĠI M
ĠB har
Ġgo vern
Ġen abled
ĠAustral ian
H ey
ed d
ct ors
Ġem ail
Ġquest ions
ushar raf
1 4
T wo
r ang
Ab out
Ġdr ink
ĠSund ay
ĠL ondon
Ġcur s
Col our
Ġal most
Ġorganis ations
ĠMond ay
P h
e ction
Ġs le
Ġm ouse
Ġe lement
el t
Ġso ftware
Ġdra wn
Ġleg is
Ġre search
Ġprin c
at ures
ĠP ublic
ound ed
isc o
ĠHind i
Const ellation
on ed
at al
ra in
ch ie
ĠT al
Ġse ction
ign ment
Ġindust rial
Ġpr ices
angu ages
Ġstrik es
Ġf reedom
ar ily
ĠS T
ĠS w
Ġgo es
Ġfather s
Ġorganis ation
Ġprob ably
Ġopin ion
n ers
Ġm ap
Ġre b
Ġpre c
Ġinter vention
ĠRaj ini
D irect
S ub
Ġs k
Ġm ur
ĠB ut
Ġclear ly
Ġcal cul
pecial ly
usse in
t r
Ġa f
ĠSt reet
19 7
at unga
im ent
ĠI D
un a
Ġdis p
Ġrece ive
Ġrem oved
Ġrespons ibility
L ook
l ay
Ġp en
ad er
ac le
a ith
ist er
Ġlay ers
roll ed
ĠG ree
ip board
Ġcent re
Ġdevelop ed
ĠPakistan i
C lear
ĠS at
Ġass ault
Ġvot es
Ġele ments
ĠC H
Ġsc ale
AT ION
Ġwindow s
sy mbols
Ġmethod s
Ġnat ural
ag ue
Ġsh ut
iv ity
ĠJ ew
Ġcorpor ate
A TE
O ff
or row
se e
Ġess ential
u f
Ġt ried
il i
Ġl ies
ĠCol or
ĠNAT O
c ers
u x
ĠM od
Ġacc used
Ġcr imes
pect ed
Ġprodu cer
for ce
Ġla un
M ost
Ġc ode
Ġst e
ĠD el
Ġro om
Ġpar am
1 8
o res
Ġf ast
Th ose
Ġtechn ology
M B
ĠC ity
Ġpr ay
At t
Ġnegoti ations
Ġc itiz
ce ll
ĠM r
aj i
Ġrul es
Ġdi pl
Ġter rit
Ġsaf e
Ġg ames
Ġde le
Ġ2 2
Ġimm igr
F ollow
m ap
Ġt ill
Ġmaint ain
Ġsec ure
âĻ ª
ou d
od ing
os en
ĠFil ter
B ecause
F l
g in
Ġa chie
Ġp ict
Ġst ated
Ġpro ceed
ĠU p
ĠIn formation
Ġra ised
at ers
al ai
Ġp aper
Ġm atch
Ġre ach
ag ar
ore ign
ther n
ount ry
Ġwant s
Ġtr uth
Ġdep art
m all
Ġbel ong
Ġ \
Ġh on
ĠT igers
Ġk ept
Ġreg ular
As ia
Ġrevolution ary
m ir
r ase
Ġs ac
le ft
ent agon
se c
Ġint ens
Ġseem s
1 5
ĠA tt
Ġcl osed
ove red
ĠTamil nadu
Ġprogram s
Ġaccept ed
L ike
P E
ath a
Ġfound ation
Ġed it
A ct
x y
Ġ2 6
Ġ6 0
Ġlook ing
Ġden oun
ĠEdit or
y r
ĠH ussein
Ġstreng th
G ame
Ġp ract
Ġres ol
Ġbro ken
Ġstat ements
Ġmark ets
Ġlay out
O b
v a
Ġs olution
Ġm ention
Ġd aily
ac he
Ġ2 1
ict ion
Ġlow er
d ad
Ġc ases
ĠA g
Ġwar s
Ġaut omatically
ĠGre ens
R ep
S plit
\ .
Ġt ri
ol ly
Ġcon dem
Ġv irt
Ġper man
Ġsp ending
Ġindepend ence
Ġemer gency
ĠIslam ic
D I
or ing
ic it
Ġh ar
ol id
ĠA ng
Ġst ood
ĠH TML
lic ation
Ġpres ence
Ġconcern ed
C omm
c an
p an
est ival
ĠF in
Ġv ari
ĠIn ternet
az a
agh dad
O S
n el
Ġ ill
Ġ Ã¢
Ġst ation
ak h
Ġkn ew
Wh ite
c he
il le
Ġal le
Ġpot ential
C E
r im
s ing
ĠK amal
Ġar ch
N e
R eg
Ġn et
Ġ2 3
Ġet c
L Y
R ed
Ġp ane
Ġm id
ers on
ĠH ar
cl es
Ġenc oura
ĠDes ktop
semb ly
' d
Ġm oving
Ġadd itional
Ġstart ing
Ġp ages
ĠL ic
Ġk ings
" ,
wo od
Ġlab our
Des pite
Ġdefe at
I ME
w here
Ġs we
le x
il ed
um s
Ġor g
Ġcent er
Ġlevel s
Ġdeb t
Ġpack age
Ġscen es
ĠT e
Ġun known
Ġar ri
Ġ199 0
Ġinsist ed
R ight
ay alam
Ġro ck
Wh o
Ġco ordin
Ġdemonstr ations
B oth
t p
Ġf ederal
Ġb ill
Ġext reme
Ġvot ers
Ġcommit tee
Ġcomplete ly
Ġdoub t
on ial
es p
ĠR em
qu e
AT H
Ġresult s
Ġregion al
C ustom
Ġp le
Ġ200 5
IS T
Ġvict im
. ,
R est
go ing
Ġeditor ial
alys is
Ġt ou
ol as
and hi
clud ed
An y
ĠLiber ation
o ch
as hed
ĠS ize
ĠC ar
ank ar
Ġpr ice
AR T
Ġplay er
Ġserv ants
Ġhead er
Ġdescrib ed
Ġenv ironment
B AR
N one
Ġ i
Ġm outh
ic ip
ĠA L
Ġst ore
ĠB ab
Ġun able
ĠSe lection
Ġfig ures
L oad
b ody
on ents
ĠP entagon
B o
M ay
Ġt ag
he ld
Ġw atch
Ġb read
ot o
ĠA h
h old
Ġf igure
ant ly
Ġdis k
Ġreg ions
Ġkill ing
Ġlim it
ĠSer ver
C ome
ĠB aghdad
Ġus ers
Ġsc ient
Ġset tle
ev ice
Ġp aid
ay an
Ġpolit icians
Ġwrit able
Ġburn ed
Ġru pe
Ġreject ed
Ġlaun ched
p i
Ġm aterial
Ġwe ak
Ġannoun ce
Ġplac ed
Ġpix els
Access ible
P e
S ize
s un
in ite
at ist
Ġn orthern
ĠM usharraf
ac es
orm at
ĠTamil s
Ġfin ance
Ġwrit ing
Ġdemonst ration
More over
l ies
Ġm is
ĠS ite
end a
Ġres istance
Ġattack ed
Ġsecond s
r is
Ġ vert
Ġa meric
ro g
Ġre pl
Ġpro s
Ġch au
int on
Ġfuck ing
k ar
Ġoff ensive
Ġsc heme
Ġw ond
ĠT ime
ive red
Ġf oot
Ġh oly
od ay
Cl ose
P ar
Ġoff ered
ij ing
2 4
U T
Ġs ell
es h
am m
ĠS iv
Ġinst it
Ġmem ory
ify ing
Ind ian
Ġhistor ical
Ġilleg al
ar ant
ok ed
Ġserv ant
Ġpriv at
B e
Ã ¶
ĠC IA
us band
ĠTal iban
C ent
V ertical
Ġw itness
ĠK ey
Ġplann ed
G eneral
et ing
Ġr ich
Ġro ad
Ġsou l
B C
U ser
p age
Ġf amous
al d
ĠJ ay
Ġexp ress
Ġcomple ted
Ġcritic ism
S uch
Ġs word
Ġd atabase
There fore
ĠPro perties
G roup
O f
r ich
w ide
Ġd ocuments
ra ft
ast e
Ġform s
Ġwid esp
Ġes pecially
Ġcease fire
Ġwidesp read
A ME
n ic
Ġw est
ĠF our
ĠAdd ress
ĠBer lin
K eep
re c
st er
est ic
Ġbl ess
Ch ile
Ġdel ivered
Ġbook s
Burn ing
Ġrelig ious
Ġw ays
Ġh op
Ġh ref
ent h
ĠW all
Ġinj ured
i B
Ã ¼
Ġre ached
Ġcom ments
Ġcharact ers
ĠGe orge
Ġmob il
M ake
Ġl ibrary
id s
ain e
Ġ2 7
Ġar m
M aximum
in et
at ory
Ġhe at
ate gy
qu er
It s
Ġstr ategy
ĠSe lect
Ġra pid
Ġgiv ing
Ġtrans port
Ġdemand ed
Ġappe al
Ġconsequ ences
Ġp ain
iv en
ĠO ut
Ġpoint ed
Ġbureauc racy
le ge
ĠP en
ĠK ing
ass word
Ġdo or
AM IL
Ġa verage
ou ble
et t
qu est
Ġla id
elf are
Ġchair man
b it
j ith
s creen
Ġw ish
ĠS ub
Ġser ve
ĠDep artment
A K
Ġb ann
ĠS u
and er
Ġres pect
Ġsocial ism
Ġpower ful
Ġinit i
Ġf low
Ġb orn
Ġd rop
ur am
ht tp
Ġrelations hip
us ing
Ġpol l
Ġitem s
Ġcoll abor
ĠCom p
Ġargu ment
Ġsen ior
A f
M ark
Ġb irth
ĠP L
ĠB en
un k
ĠR ev
Ġmur der
y ond
Ġe th
ĠT rans
Ġwas te
Ġr isk
Ġch osen
Ġmod el
Ġinc ome
Ġstreng then
E X
R ec
u zz
Ġman ner
Ġen able
Ġdes cription
19 9
Ġcapt ured
am y
ra z
ĠT able
ĠE l
Ġrelig ion
ER S
C isco
O K
P art
o e
an ish
Ġd ig
ĠA ct
ĠM e
Ġ19 3
Ġform ed
Ġgiv es
ogg le
Ġcurs or
E nd
b ook
Ġf ully
ch ange
ĠM on
Ġch ance
ĠTh ir
EN T
rid ay
Ġdiscuss ion
H orizontal
m m
Ġt rial
ab les
ult ural
Ġte acher
Ġspokes man
Â Ģ
en ge
Ġh our
ĠJ ose
ĠCh ar
Ġdes pite
An other
Ġdep artment
Ġkey s
olog ical
Ġelect ed
ĠN ations
Ġmin utes
Ġspok en
Ġenc rypt
ĠLeban on
ÂĢ Â
Ġs low
el ine
Ġall ies
Ġatt ach
Ex port
Ġtele vision
l abel
Ġf if
Ġbe yond
Im p
Ġlarge ly
Ġaffect ed
ĠKumar atunga
Ġrupe es
C ance
Ġs ens
Ġf ocus
Ġl ie
ĠI T
Ġu lt
Ġrequ ire
Ġhigh light
Ġarrest ed
athe red
M od
R aj
Ġp an
Ġopp ose
Ġrem ote
men u
ribut ed
a ire
it em
Ġl ik
Ġun s
ĠAmeric ans
ĠSy ria
Gener ic
ĠAssoci ation
Ġalle ged
W here
b ut
Ġsh ip
Ġpr im
Ġacc om
Ġfe ature
Ġrest rict
Ġsur round
IG H
Ġ #
Ġt im
Ġg un
ĠB udd
Ġmilit ar
Ġreas ons
Ġe uro
Ġsu itable
Ġmeas ure
Ġestim ated
n i
Ġ ]
Ġh usband
im b
Ġr at
ĠD et
Ġw ild
Ġg athered
Ġper form
Spe c
L TTE
V ideo
Ġc lean
ĠP age
Ġsp irit
Ġco ast
Ġspec ific
Ġhous es
hent ication
d en
y per
ic a
ĠS ury
ĠB ack
if orn
ess ages
ĠK on
Ġcommand ed
ĠUN P
g ram
Ġt ort
Ġin put
The ir
Ġrel ated
Ġevery thing
Ġgu arant
Ġthreat ened
1 7
e ous
Ġ :
ĠA z
ag an
Ġr ange
Ġj ack
Ġind ia
I F
T P
r ust
Ġl anguages
ig ration
Ġst ars
ul ated
res ents
os ite
St ock
ĠAs ian
Ġdoes n
Col or
Ġsymbol ic
Ġtyp es
C L
ed a
ri v
ĠM ove
Ġde ploy
ĠL ayer
ĠF ound
li ef
Ġplay ing
ME NT
Ġ199 9
Ġopportun ity
M essage
om on
ri age
and om
op h
Ġsur v
Ġcal endar
Ġmed ical
O kay
ce ption
ĠA re
if ies
ĠF oreign
ĠV al
Ġact ed
Ġro ot
Ġinst ance
Ġoffic ers
Ġdemand ing
Ġsum mit
Ġreaction ary
it z
ith a
Ġcon cess
Ġatt ention
ren ce
Ġorgan ization
ĠGo vernment
ww w
Ġassoci ated
L D
ĠU se
Ġwor th
ust er
Ġany one
Ġrem ark
ĠSh aron
ues day
Ġprop osed
Copy ing
R ead
j o
j oy
v an
on ia
ĠM o
ĠB rasero
Ġr ising
Ġun it
Ġqu ar
Ġchar ges
Ġhold ing
Ġcommit ted
Ġdom estic
Ġfarm ers
S iv
ef ore
Ġback ed
Ġrel ative
Ġexpl os
Ġvot ed
Ġminist ers
Hel p
A g
st ate
ĠS H
et ers
ĠA S
ub b
ert ificate
Ġob t
Ġca used
Ġvis ible
Ġsac rif
8 0
L og
Ã Ĺ
ag ing
ort cut
ĠUn iversity
Ġdown load
Ġden ied
P ort
Ġt rou
Ġcam era
Follow ing
iforn ia
ĠM a
te ction
Ġconf ir
Ġbl ank
Ġhapp en
Ġconcern s
) :
Ġs n
am an
ĠF ree
ap ore
Ġopen ing
ward s
Ġbr ut
ĠPalestin ians
y an
Ġf action
as on
ĠF ont
Ġex am
ric an
Ind ia
Ġrad io
ĠM er
Ġcont rad
Ġstud ent
rad ient
ĠSp ain
Ġhig hest
NA ME
Ġcitiz ens
D raw
G e
p a
Ġ =
Ġs ir
Ġc op
Ġd ro
ĠN ote
Ġcor rupt
Ġfac ilities
Ġexper ience
ĠJac ob
G erman
Ġm om
Ġ19 5
Ġget s
Ġrul ed
IL L
ĠWindow s
Ġprison ers
Inst all
re es
Ġag enda
ĠO ff
Ġcomp ared
Ġprin ci
Ġstop ped
Ġsubst ant
p g
s um
ar ge
Ġh idden
ĠT V
ĠM oh
ob o
Ġpolitical ly
Ġconst it
Ġweb site
gress ive
Sim ulation
uf act
D ata
ri ya
ĠJ os
Ġin ternal
Ġre por
Ġact ors
Ġsc ene
St op
Ġend ed
Ġrep resents
Ġfact or
Ġter m
Ġequ als
ĠD own
ĠIran ian
C F
G L
Ġ ir
Ġc ross
ou red
Ġim plic
erv ative
Ġquick ly
it ial
ed nes
ar as
ra k
ri e
Ġinv alid
Ġcons um
Ġadv anced
Ġtrad itional
ednes day
c ient
i ot
Ġa ware
ak a
Ġ2 9
Ġperson nel
Ġorgan iz
Ġcorpor ations
Ġesc al
I TH
ĠG NOME
Ġdel iver
Ġpriest s
Ġc reating
th at
Ġcont ext
Ġknow ledge
Ġchar ge
min ent
Ġcommun ity
reg ation
Ġb ottom
Ġl if
Ġg ra
Ġch oice
Ġrem ains
Ġopen ly
Ġsign ature
ĠBe ijing
Ġliter ature
P G
Ġf igh
ent ation
ĠF riday
ĠW ith
Ġdis app
ash mir
ph a
Ex p
Ġdele ted
O ur
un ction
Ġag ree
Ġyour self
Ġext ension
ĠAll iance
writ e
G u
h as
Ġc ir
ĠA T
ock s
Ġins ur
Ġexp and
Ġref er
Ġcivil ian
Ġmult iple
Ġcinem a
H igh
Ġre ality
ĠS aul
ce ler
ĠP aul
Th ir
N ever
Ġs ort
ul ations
Ġ2 8
ĠIm port
Ġprevious ly
Ġinvestig ation
Ġpurp ose
D ate
f rom
Ġb ail
ish ing
Ġrequest ed
aff na
Ġsou thern
4 0
c ious
ord ers
Ġshe ll
Ġdecl ine
ĠIt aly
stand ing
ĠCont rol
P age
p ad
p aper
Ġt ru
Ġs ight
Ġn ormal
Ġst aff
ill s
ĠT uesday
ĠD PI
ĠCl inton
Ġdis e
Ġout l
cl ass
Ġevery one
Ġadv ance
Ġbig gest
Ġsearch ing
quer or
ic o
Ġe ld
end er
AN G
Ġprogram me
Ġfe ed
Ġfe et
Ġpat tern
ĠRev olution
l ied
Ġs ending
Ġc as
Ġp ush
ĠM c
ĠW ednesday
ER E
ES S
Ġobject s
Ġcost s
G T
b on
r un
Ġf aith
Ġb attle
Ġg ather
if f
Ġsc ience
Ġass istance
Ġtrack s
Ġrepresent atives
S SP
u nder
er c
Ġc ab
ann a
Ġqu ite
les h
Ġshe et
Ġcr ime
Ġcr ash
Ġco oper
Ġcor resp
Ġallow s
osp here
Ġcoun cil
Aut o
Ġgr and
Ġenem ies
S O
T ake
m ary
Ġw el
ĠA RE
ĠM ich
ĠG reen
ĠU RI
og l
Ġper mission
Ġright eous
G H
Ġs ab
Ġw elfare
Ġc ub
Ġof ten
ol ute
ow ed
ĠG NU
Ġpl ug
Ġass ass
Ġcir cles
ĠP ath
Ġnot ify
ri ef
Ġr ural
Ġcontin uing
ĠCal ifornia
Ġgir l
f ect
s id
Ġf ra
Ġf irm
ab ad
ĠD ay
end s
Ġact ress
ĠIn st
Ar t
Ġparticip ated
add am
Ġer u
Ġinstit utions
ic ient
Ġn ar
Ġn ature
om ing
ra j
el a
ĠP ort
Ġwh atever
AL L
Ġreform s
Ġrefug ees
C C
M S
S l
Ġh ot
ig er
ĠW estern
qu ir
Th us
Ġcol lect
ach ing
Ġadd ing
Ġcamp s
Ġspec ify
Ġdel ay
Ġleg it
Ġindic ated
enu ine
T ool
r d
al t
Ġbe aut
ĠS up
ter ror
ĠG aza
Ġcl ipboard
Ġpri ority
Ġshow ed
Ġav oid
mit ted
Ġappe ared
A udio
is her
Ġb an
ic ial
ur day
Ġde leg
Ġar ms
ru it
Ġlet ters
E m
Ġm ach
ic ro
em b
Ġag g
Ġab and
ater al
De al
Ġdeb ate
Ġaut o
ĠSol omon
S ign
ĠC ON
ĠP har
ĠR eg
con nect
Ġar g
Ġar rang
Ġfin ally
Ġcontin ues
Ġrequ ires
ead er
ades h
ĠMan ager
Ġgener ation
Ġcrit ical
Ġbomb ing
Ġdou ble
Ġord inary
Ġreve aled
Generic Name
R ot
s pe
ab il
ĠE d
Ġwill ing
ne ctions
Ġfac ing
Ġbelie ved
a fter
i am
Ġs ides
Ġg raph
ĠL ink
Ġdis aster
conom ic
Ġadd ition
Ġdecl aring
Ġnational ist
Ġbus y
Ġmin imum
Ġdiffere nces
Ġappear s
Ġorig inal
Ġf uel
ĠI I
Ġ200 9
Ġdiv isions
sun ami
Ġw ave
ce an
ĠL og
Ġdis s
Ġen joy
. )
F P
c ard
Ġf le
Ġd ream
ĠS erv
ĠCh and
Ġfund s
Fil ter
ĠFour th
H aving
S cript
T oggle
Ġw iki
ol k
et te
ĠC heck
Ġpl ed
Ġad op
ru ption
Ġser ved
Ġeven ing
Ġmean ing
Ġcred it
Ġalt ar
Ġtwent y
ĠIn ter
Ġprov ince
Ġinst ru
Ġsur pr
Ġhost ility
Ġproper ly
Ġtransl ate
Ġrepeated ly
Ġf ans
Ġse ats
Ġspe aking
Ġob ser
Ġstrugg les
N etwork
Ġb ul
ur t
ĠA cc
ĠP oint
av en
Ġreg ist
Ġback ing
Ġass ert
Ġfact ory
Ġconst ruction
Ġ198 0
Ġens ure
o oth
Ġa p
Ġd ance
ad or
ĠF rom
ĠR ed
ĠJ affna
Sh ould
Ġdev ast
rop ri
ĠEx p
Ġbenef its
E MA
in ent
ar at
ĠS L
Ġsy n
Ġconduct ed
Sw itch
M er
u it
ĠSy stem
Ġphot os
Ġcirc um
c ow
it arian
Ġf ir
Ġin hab
ve re
ap ital
Ġcont aining
Ġman ufact
Ġimp osed
olit ical
ĠDel hi
V al
s hip
Ġs ources
Ġf lesh
Ġg en
ĠB a
ĠJ o
Ġdis miss
Ġsome one
Ġph one
Ġbank rupt
Americ an
Ġjud ge
Ġmiss ing
Ġvictim s
M AN
is f
ag u
ĠP rab
Ġcon d
sel s
Ġtra vel
Ġprom ised
ĠJapan ese
Down load
l obal
r and
Ġse ed
Ġk il
Ġact s
TE D
pect s
Ġprodu ce
Ġthreat s
Ġtable au
Ġdeterm ined
L ocation
e al
er ves
Ġc at
Ġm aximum
Ġd ark
ĠL ine
th umb
Ġtem per
Ġkey board
ĠAf rican
Cl ass
Ġintrodu ced
ĠSup reme
- %
; )
Ġt ens
ter m
ĠK ashmir
mer cial
ah oo
ans ion
Ġbet ray
Ġinclud es
Ġadv oc
Ġheav y
Ġschool s
? '
T em
a eda
h ood
Ġg enuine
Ġu pper
ug ht
ck now
ĠV iet
Ġjust ify
Ġknow s
Ġtrans fer
Ġdeath s
Ġattempt s
Ġactiv ity
Ġcong regation
Ġeth nic
Ġcon v
ĠD efault
ant ed
arch y
Ġtra ining
ract ed
Ġpresent ed
Ġemploy ees
ĠChrist ian
Ġfav or
Inst ead
Ġorig in
Ġshar p
Ġsubstant ial
Ġa st
am in
ĠL a
Se e
ĠComm ission
Re place
Ġfield s
ĠOb ject
eder ation
Ġstre ets
Ġrot ation
Ġwithdraw al
Cance l
C ategory
P F
d es
Ġc ro
st his
Ġg ar
Ġg ate
us hed
ĠK h
ĠIs land
mark s
Ġsus p
ĠJose ph
I P
ĠS addam
Ġr out
Ġpl ain
N ormal
ve y
Ġsh ift
ĠE N
ant ic
ĠW rit
Ġra il
Ġrep ression
min al
ĠIM F
L ine
Ġb al
Ġon es
ab ul
Ġrem aining
Ġwhat sthis
Ġext rem
En c
Ġsuccess ful
Ġmar ried
Ġimmigr ants
L eft
S U
n amed
Ġs ense
Ġre act
ĠA aron
pp ing
ak sh
ĠJ eh
In itial
Ġapp ly
Ġrem ained
Ġelect oral
Ġvill age
Ġexecut ive
Ġconfir med
D ouble
M K
Ġth ir
im age
ĠC P
Ġse qu
Ġdef ense
Ġsupport ing
Ġcre ation
Ġpers ons
ograph y
Ser ver
R ef
m ore
Ġc ru
Ġm ere
il ing
Ġst ored
Ġle arn
Ġcol onial
Al though
Ġsur face
Ġconflic ts
olly wood
S erv
t ons
Ġw icked
ĠM E
Ġsh ape
Ġbr as
ĠNew s
Ġlaw y
Ġparticip ate
Af rica
z b
Ġs ky
as i
her it
Ġinternational ly
Ġequ al
Ġload ing
L O
n an
Ġd ram
se ts
op ular
Ġrec omm
Ġrespond ed
om an
ĠS creen
ĠA ut
Ġst ructure
ul ate
ĠB el
up s
Ġprov ides
ĠSh i
Ġref lect
Ġprof its
ĠSen ate
Ġbras ero
' :
h and
r ity
Ġa cknow
re l
ed y
Ġh omes
ad urai
ce ived
ir i
Ġme ant
ĠCol umn
Ġdri ver
ĠSat urday
Ġ Ġ
ang le
ind er
Ġsp ent
Ġrem ember
Ġart icles
Ġhost s
M on
m al
Â ¬
Ġthe at
Ġn omin
Ġis ol
ra ight
ak en
ĠH am
ik ram
Ġdisc i
oy al
az ine
Ġ199 8
Ġmin ority
Ġlab or
Ġri val
I MP
Ã ¨
Ġo kay
Ġin ev
Ġh or
ĠA ir
ĠN az
Ġopp onents
Ġext ent
rilank an
ĠConf iguration
Sy stem
T oday
c ount
Â Ĥ
er b
it t
ing er
as tern
ĠM os
ord an
ĠDVD s
ÂĤ Â¬
Ġ id
Ġw is
Ġf ought
ĠA jith
ĠH igh
ang es
ĠTh at
Ġcons cious
Ġdist ance
urs day
Ġmult i
ĠTool bar
k ing
or ial
il ot
Ġbe ar
ĠL CR
ak ed
Ġro les
Ġdes igned
Ġexp ansion
Ġbro ke
ĠQ aeda
Ġeffect s
Ġpack ages
Ġeas tern
Ġa ud
ar ation
Ġl ived
Ġdec ade
Re cent
Ġmar riage
Ġtab ern
Ġwide ly
Ġpos itions
Ġtort ure
ri ev
Ġan alysis
Ġwork er
Ġres ident
Ġcol lection
Ġhigh ly
Ġz one
C P
R A
\ @
h ra
ill ed
ĠB as
ĠB ehold
ht ml
Ġra ise
Ġgl ory
ĠAr t
Ġsim ple
Ġord ered
Ġlegis lation
W eb
Ġl ord
Ġun iversity
Ġout come
ĠThe re
Ġve h
Ġcorrect ly
b an
Ġfor t
ĠT ab
con f
Ġqu ality
dd en
Ġloss es
Ġmom ent
s l
w an
Ġf estival
ar ia
ic ide
ĠS E
Ġal ignment
ĠT im
Ġpro tection
ĠD ata
cre ase
M ult
Ġs orry
at in
Ġp un
op p
Ġat m
Ġne o
Ġoffic er
Ex t
Ġconcess ions
EMA IL
L anguage
ĠS ud
qu es
cl us
ĠSt art
Ġcons ist
Ġhead s
Ġemer ged
Ġprinci ples
h ag
i us
ol f
od ies
Ġr ates
Ġsupp ress
ĠThe y
Ġpriv ile
Ġimpro ve
Ġterrit ory
Ġagg ression
Z oom
a el
k ey
Ġw aters
Ġf ine
ch an
In ter
Ġcab inet
5 00
R ename
ĠA nt
ĠM ed
ĠG OD
ĠW H
ep ing
ib ly
Ġpre text
ann els
eng al
Ġtransl ation
ĠStal in
Min imum
ĠC O
Ġle ar
con s
Ġsee ing
Ġtool bar
hem ical
Ġsil ver
R un
a an
Ġin n
Ġwe ight
Ġatt end
ĠTh ursday
Ġset s
Ġprov in
Ġdet ect
Ġ9 0
Ġsuff ered
Ġflag s
Ġredu ce
Back ground
Ġchall enge
A c
Ġm urd
ad ow
ak er
pt ed
Ġenc ryption
Ġut ter
ĠKer ry
ĠJew s
S ri
re ci
Ġbe ast
ĠL et
Ġcons ervative
go vernment
Ġsan ctions
R et
W idth
he lp
Ġb es
il a
ĠP A
ĠK ann
ll or
Ġem ails
the y
Ġread ing
Bl ank
Ġauthor ity
Ġenem y
( "
F in
it ted
Ġh un
ĠP E
ĠL ev
Ġdirect ors
Ġcontin ent
ĠMar x
Ġparent s
f el
j an
l ink
re qu
Ġin e
as ure
Ġab road
Ġres ign
Ġact ually
Pr inter
Ġdiscuss ions
Ġrad ical
Ġfill ed
Ġannounce ment
Ġa ce
Ġp ension
Ġh ide
ul s
Ġex erc
ific ations
Ġph ys
Ġ8 0
Ġemploy ers
EL L
A ng
y g
Ġa head
ĠP at
ri entation
ĠD irect
Th ough
St atus
Ġ7 0
ĠâĢ Ķ
2 3
G reen
t rans
ĠM ail
cl aim
Ġbu ff
Ġprop ag
Ġdiv ided
unch pad
Ġentire ly
Ġdoll ar
Ġassist ant
Pe ople
B rit
h at
n ational
it ler
nd o
ĠS pe
Ġnot es
Ġ' .
ĠU K
ell ing
Ġra in
ĠZ ion
Ġposs ess
Ġnum er
Ġphot o
Ġplann ing
ĠDef ence
Ġvert ical
I K
m ine
en a
Ġb ran
ro c
ĠC onst
ĠP eter
Ġsupp ly
Ġshow ing
Ġhelp ed
Sc ale
ĠGeorg ia
ĠLic ence
Ġmilitar ism
Ġinhab it
S H
o il
Ġc ry
Ġpro minent
Ġse vere
ĠE m
Ġob vious
Ġstud y
Ġide a
F ree
Ġc d
ĠS earch
ĠC or
em ory
Ġpl ays
row d
Ġtem plate
ON E
Ġimport ance
IT Y
Ġeas y
Ġpie ce
Ġcontrad ict
l ong
Ġin herit
Ġm al
Ġfor g
ĠC urrent
Ġse ized
Ġv ia
ĠK urd
ĠJ ordan
clud e
Ġfore st
Ġdist ribution
1 3
O ptions
P ol
Ġf ixed
Ġp ip
se cut
ĠG ulf
ap ers
Ġimp ossible
Ġsystem s
Ġpublic ly
col m
yl on
Ġappoint ed
ĠHow ard
ĠTurk ey
Ġtreat ment
Ġdenoun ced
Ġtabern acle
D et
T ry
Ġm ission
ĠC lick
ĠF irst
ĠW hen
Ġdes per
oth ing
Ġrec ip
ern ess
Ġprot ocol
Ġ5 00
Ġloc ated
Ġoper ating
ĠAr my
Ġmo on
ĠMal ayalam
Ġund ers
Ġsan ct
r s
st ar
ur ch
Ġun ited
Ġun its
Ġsc ore
2 8
C O
F our
P ath
in c
Ġf an
Ġb rief
Ġm ort
il ateral
ra id
ĠL aw
ĠR ich
ĠN adu
so le
Ġtext ure
Al so
Ġmark ed
Ġdel iber
miss ions
Ġdipl omatic
quir y
L a
b urn
or ida
Ġth r
Ġcom mercial
Ġ( #
Ġme at
Ġpri or
Ġlook s
Ġmount ain
Ġpict ure
h ost
k el
Ġs aving
ĠS el
Ġ3 00
All ow
uk k
Ġmag azine
Ġparam eter
uzz le
ir am
ĠD istrict
Ġwor st
Ġus age
Ġcomm ission
Ġconf ig
Ġtr ig
Ġinvol vement
Ġsignific ance
Ġident ity
Ġbit ter
h ib
Ġd uration
ver se
ra ham
os ure
Ġcont rast
ĠPl ugin
Ġfav our
Ġbrow ser
Ġorganiz ations
D evice
Ġf led
Ġl ose
ĠI nt
Ġsh it
ĠW AR
ĠW orkers
con st
ays ia
Ġpercent age
Ġsub urb
Ġmost ly
Ġdep th
Ġ199 7
Ġtalk ing
ustral ia
Ġtre es
Ġquar ter
W ar
W ord
p s
r ide
Ġcon nections
Ġex cept
Ġprov iding
Ġmod ern
Ġlook ed
Ġvis ited
Ġjud gment
Ġt al
Ġt ies
an c
Ġw ounded
Ġb orders
Ġl akh
Ġnot e
ĠN ep
Ġdis abled
Ġun f
Ġbut tons
Ġhapp y
ĠBo ard
V CD
g ent
h ad
in ue
Ġp ick
Ġd u
Ġal leg
ĠB urn
Ġab ility
Ġcor ruption
OU NT
aug ht
ĠSp anish
Ġrapid ly
ĠKon queror
Ġfigh ters
B us
R el
er ning
al ian
ĠM inist
ĠO s
Ġen orm
Ġprodu cers
umb ai
Is rael
Ġcomment ed
Ġcarry ing
Ġche ap
I nt
g roup
y th
is ible
Ġc le
Ġr ally
Ġle aving
Ġag encies
ber g
Ġwar n
Ġconf igure
Ġjust ice
Ġobject ive
Ġdemonstr ated
Ġinstall ation
Ġball ot
Ġbail out
F ull
e qu
s ub
t able
on ly
re ak
Ġin iqu
Ġh orizontal
ĠC GT
Ġhe aring
ĠH E
cess ion
Ġpress ing
Ġmass ac
TH E
ĠCD s
ĠBab ylon
T op
Ġa part
at form
Ġv es
the less
Ġcap acity
Ġaf raid
Ġcorresp ond
v als
Ġf elt
am s
ĠC he
Ġhe ll
ĠE arth
pl oad
ĠH ait
Ġapp end
to ol
Ġsub sid
Ġfin ished
Ġdet ain
ĠEx port
Ġheav ily
Ġpropos al
S ing
u j
Ġt sunami
re p
re t
Ġb odies
Ġcon gress
ĠW ITH
ĠH el
Ġro se
Ġconc erning
Ġload ed
Writ ing
Ġprepar ing
Ġsacrif ice
U RE
i ant
p ol
if ul
Ġsu dden
Ġex act
Ġag ency
Ġag gressive
Ġopp osite
ĠTH AT
Ġvot ing
unt u
Ġappro ach
Ġredu ced
Ġunderstand ing
gr ade
u ous
Ġs ister
id get
Ġal though
ĠD E
ĠJ ack
Ġcl ot
AN T
Ġchar ged
Ġlist en
of s
Ġposs ibility
Ġgener ally
ropri ate
Ġh om
ĠS on
ag ram
ere m
ĠR E
Ġag ric
OR E
Ġdef ined
Ġimp ose
Ġbu y
Ġstand ing
Ġliber al
Ġbrut al
Ġd er
ĠD an
ap ed
pen se
Ġplay ers
Ġfun ctions
Ġterror ists
Ġdiv ision
Ġconstitution al
Am ong
A GE
D ef
M ax
Ġt end
or gan
Ġst one
ul ed
if ier
iv ate
ug al
Ġpre t
Ġcol lege
cond s
urs or
ĠBl ack
K ar
L ES
v est
Ġm ist
ĠA uthor
ĠG a
ĠK han
Ġpart ners
ai y
Ġass um
Ġac celer
Ġweek end
Ġgu y
Ġadv is
Ġattempt ed
Ġattempt ing
Ġdoll ars
Ġwild erness
H er
c le
m i
or rect
it ute
as an
ĠS O
el es
ĠB ur
os l
Ġcol ours
Ġret rie
yn am
Ġbeh alf
Col umn
E AR
i Cal
an es
Ġw estern
al so
Ġm aster
ot a
ut ter
Ġsu icide
ĠN umber
ĠO ne
ern ame
Ġproject s
Ġmod ule
Ġprep are
Ġinteg rity
Ġmot ion
5 9
M ed
e er
p ay
r ant
an cing
Ġw ind
Ġh um
et her
Ġcon cluded
Ġse vent
Ġr an
ish a
Ġcomp rom
ren cy
aw n
Ġplan et
RU E
Ġcoordin ate
ĠFound ation
6 00
T itle
v anced
Ġg rid
ĠT er
Ġapp ar
reat es
Ġdes ign
uth u
Ġvill ages
fel d
L ight
T otal
U CK
x imately
ĠD ocument
Ġex ceed
qu are
Ġcl ient
Ġcont roll
ip al
Ġdra wing
ĠRepublic ans
Ġcomb ined
Ġvol ume
Ġtou ch
N orth
P al
h ak
Ġ ...
Ġre view
et ch
Ġcon cent
ang am
ug s
ĠSe e
Ġdeb ugg
Bl ue
Ġang le
\\ {
rast ructure
Ġdeg ree
I DE
S ort
a oh
s ocial
Ġt ear
at i
Ġc ook
ic y
im id
Ġu k
ĠF ather
iv ision
ĠIs lands
Ġdes ire
ĠFran k
Ġdevelop ing
OU T
Ġconst ruct
Ġdiffere nce
Ġfac es
Ġgod s
Ġpra ise
Ġatm osphere
Ġappar atus
D rag
L ocal
P ix
n y
Ġw ear
Ġf asc
am ing
Ġl ad
ur a
ĠO p
Ġunder st
Ġprov oc
Ġinter ven
ipp ed
ĠFil m
Ġtarget s
Ġcomb at
Ġabs olute
Ġcond ition
D el
P resident
b as
l ot
w est
ar ms
Ġst reet
ĠG andhi
Ġv ir
AN S
Ġcare er
Ġsol id
Ġconnect ed
ĠViet nam
D ocument
S S
ri an
ĠN eb
Ġcont est
cl usion
Ġrest ruct
Ġaccount s
ĠEn c
Pre vious
Ġfont s
Ġwait ing
Ġargu ments
ĠFl orida
Y et
m ath
v inist
w ill
ĠJ ust
ĠJ ournal
Ġsupp lies
Ġadminist rat
Ġdecl aration
Ġturn ing
Ġcat ast
A nt
B ar
B ush
s he
t ip
or ic
ar ity
al le
ay out
ĠM P
Ġk id
Ġfil ed
Ġrep ublic
Ġsent iment
Ġmin ute
Ġcheck ed
Ġinvest ors
RO M
ĠShi ite
B efore
Ġw ise
em ale
Ġpro xy
ĠD is
Ġdo z
Ġsc hed
Ġmove ments
Ġdet ention
ĠSer b
ĠSing h
ĠSury a
ut ed
ul es
og le
Ġpre v
Ġbec oming
OU N
Ġclaim ing
Ġdeep ly
Ġcast e
Ġ197 0
hu a
Ġsettle ment
A I
Ġs ack
ĠM adh
ĠM iB
ĠM essages
ĠG en
ĠG reat
ĠSt yle
Ġqu it
Se veral
Ġco ven
Ġlar ger
Ġbas es
Ġview s
ĠQ ue
Ġdanger ous
ĠPhar aoh
Ġtemper ature
2 1
B ase
V ER
c al
g reat
p et
Ġb ab
ĠS al
Ġdis m
ĠInd ones
uss ia
Ġ199 1
Ġstep s
Ġnav y
Ġmere ly
F rench
M ain
P acific
Ġt act
in am
ed it
Ġre j
Ġsh ock
um er
Ġv ide
ĠR ad
ĠR ober
Th ree
Ġconf idence
Ġbl ast
Ġhead ed
Ġmount ing
Ġfear s
/ ~
D U
et ary
ĠO ther
vi e
rat ing
Ġmod ified
Ġimm igration
Ġminist ry
Ġ* .
Ġcas ual
r c
Ġb ow
ers ion
ak anth
ĠD r
ank a
Ġbec omes
Ġdef icit
IC E
ĠFor ce
Ġdaugh ters
lay ers
Ġvirt ually
Ġchau vinist
Ġinsur ance
Ġine quality
Ġpropag anda
E l
R Y
f ield
m od
in st
Ġst ones
ra int
em s
Ġfil ename
ex pected
Ġres erves
ĠCh ief
Ġmeet ings
Ġinf rastructure
Ġrepresent ed
Ġemploy ed
ipp ines
wh ile
yl um
Ġinhabit ants
iCal Imp
Ġcoven ant
A IN
p ir
ri ver
ĠR avi
ant a
Ġint imid
Ġact ual
app ed
Ġmain ly
Ġold er
araj a
Ġsat isf
Ġhttp s
Ġjournal ists
Ġaud ience
3 00
K a
re ction
Ġf ruit
as se
ad ed
ak ers
ĠE nd
Ġex ternal
Ġun pre
act er
Ġother wise
Ġmight y
Ġcompet ition
Ġframe work
C ountry
I d
P assword
S u
at ically
ut t
Ġst ands
ĠB y
ok er
Ġgu ard
Ġorganis ed
ĠCont act
Ġey e
Ġregard ing
Ġpred ict
ums feld
Ġameric a
Ġcollabor ation
F older
at ched
Ġc rowd
ĠM y
ĠM il
ĠD O
ang al
ang ers
Ġun less
Ġpe as
Ġmy self
Ġro ll
Ġunder lying
Ġ3 1
Ġform al
ĠCD U
Ġclick ing
Ġbroad er
Ġtown s
Ġprinc iple
Ġperman ent
Ġbuff er
Ġlakh s
v ation
am ber
ĠS l
ĠA R
ĠM ao
so ft
Ġback end
Ġprodu cing
Ġed ge
Ġac qu
Ġcomple x
la unchpad
Ġpie ces
Em pty
Ġcircum st
T e
d i
t wo
om as
ist ics
act ive
te en
Ġown ers
Ġoffer ings
ĠPhil ist
2 2
c am
l ib
r Ã¶
Ġ vers
le ts
ot ion
im in
ĠM B
ĠD ev
ĠN ic
ĠK en
ĠV ikram
Ġdra ft
val ue
Ġprom ises
Ġappoint ment
ĠTem plate
Ġrestruct uring
C ON
S ets
ar io
Ġre ct
st yle
ra ine
ag n
ann ing
Ġfour th
Ġeng aged
dem ocratic
ĠMad urai
t es
ĠS athy
Ġon going
all ing
ĠR el
Ġj oy
ĠTH IS
AC K
Pre view
avi our
Disc ard
P ost
P aste
an am
Ġre cession
ĠL ocation
ĠK al
ind a
Ġ3 5
ph one
Ġhand le
Ġexpl ain
Ġcheck sum
200 9
Ġmount ains
ĠGu ard
ĠMinist ry
Ġth read
Ġe p
el lect
ĠP ress
all s
ĠF reedom
ĠE li
Ġpl ants
Ġint ention
Sh ortcut
Ġsub sequ
On ce
Ġprop het
Ġsmall er
ĠPl ay
Ġlat ter
Ġrow s
O p
W ashington
d ep
s html
Ġt igers
ad ian
Ġas sembly
ind i
per ation
ced ented
Ġplay list
iy an
Pl ayer
Ġinvol ving
Ġpropos als
Ġrat io
E A
G B
P L
et ween
ĠC hen
ast ic
ang ed
Ġman ually
Ġres c
Ġoff ers
Ġacc ident
Ġsom ew
ĠIS O
Ġhous ing
Ġign ored
Ġanim ation
Ġguarant ee
ĠMos cow
d is
r ations
Ġw ing
ic ed
id ency
ig an
and ard
if est
ĠR ef
ĠR eh
ĠN a
Ġex it
Ġim pl
Ġviol ent
plic ate
ĠMuslim s
G ood
l on
v ar
or ious
le vel
Ġfor get
ĠC ard
ĠN av
Ġpol ls
Ch ina
Ġadv ant
ĠPol and
Ġenorm ous
B ug
F ind
b urg
Ġc ited
Ġre fere
Ġas ylum
ĠB ug
ĠL ex
ĠE astern
Ġcan cell
ound s
ĠCh annel
Al ign
Ġdist ributed
Ġrepresent ative
Ġarri ved
Ġrepor ters
T r
m ad
at ible
Ġin ternet
Ġan aly
ĠT AMIL
Ġpro claim
ĠK Mail
ang ing
Ġdet ained
ffect s
pr int
Ġenc oding
Ġeffect ively
ĠCent er
Ġdeep ening
Ġeas ily
inite ly
Ġprivat isation
* .
S ocial
Ġb i
Ġb low
Ġal ly
oc ent
Ġcur rency
Ġdec ide
Ġhold s
Ġfall en
upp ort
Ġregard ed
Ġdefe ated
Ġtrib e
Ġdict ators
Ġdise ase
S k
f irst
Ġm ask
ĠS pecial
ĠM umbai
Ġsh ips
Ġle af
Ġus es
ran k
Ġres erve
Ġback up
ĠLe vel
Qu it
Writ e
Ġdisci ples
Ġiniqu ity
9 6
D ue
F rance
Ġf ulf
Ġp ure
Ġre ven
Ġex change
ĠK a
Ġun ity
IS H
Ġdeb ug
Ġprin ces
Ġshort cut
Ġimplement ed
2 7
T Y
U ri
ur i
ĠC ub
un an
Ġcl imate
Th ank
iz er
Ġ" -
ĠIraq is
Ġdep uty
eh ran
Ġaim s
ribut es
back ed
Ġcirc le
Rest ore
ĠLev ites
Ġunpre cedented
E ng
W orld
h aps
i pe
w hel
ou l
il k
im a
ĠG M
ĠSe cond
ĠAb raham
Ġfac ed
onse ka
\\ \\{
ĠJe an
rak ash
Ġinherit ance
Ġcircumst ances
Ġp it
ĠW idth
Se lection
ES T
Ġann ual
Ġbomb s
Cont ents
ĠLab or
Ġaff airs
Ad just
Ġcontact s
Ġconsider able
edd ing
ĠGree ce
Comm and
F ormat
M D
h ow
r ink
or ation
ig inal
ir an
ch o
Ġcom edy
Ġr het
ĠH uman
ĠH itler
Ġman ual
li ber
Ġprov oked
Ġstart s
Ġra c
Ġincre ases
Ġsur re
Ġresult ed
ĠWh y
Ġthink ing
Ġpur ch
Ġlog in
Ġcertain ly
App lication
ĠKer ala
Ġcou ple
Ġteacher s
ĠRich ard
2 6
3 60
Ġc rack
Ġm and
Ġre lief
st art
ĠM et
ĠL in
ĠU k
own ed
Ġpre ced
ob e
Ġent ering
Ġtra in
oll ah
Ġelect ric
Ġparticip ation
ĠDes cription
Ġserious ly
Ġmer cy
Ġnar row
A W
n ey
Ġc hemical
Ġf ate
ro se
ĠM at
Ġas sets
ĠR umsfeld
ĠN ay
Ġch o
Ġun ivers
Ġatt itude
Ġinv itation
Ġjust ified
Ġbr ush
Ġcor ner
Ġrest art
Ġdiv ide
ĠTr ade
Category Name
H ome
ve ll
ĠM in
ĠB BC
ac hes
ĠN O
ĠN AME
iz es
Ġdisc ard
Ġqu e
Ġconf irm
Ġclose ly
Ġoccup ied
Ġport ion
ĠGree k
Ġachie ve
Ġmention ed
Ġsequ ence
Ġacknow led
Ġmassac re
A U
B S
G R
S outh
s al
is ofs
Ġc yn
Ġb ed
el ly
ag a
Ġal ive
Ġdirect ing
ific ates
Ġgood s
Ġprop he
ung ary
Ġsure ly
araj an
ĠFin ancial
Ġcooper ation
Ġregist ered
Ġvide os
ĠLex Uri
ĠLexUri Serv
in y
Ġb ind
il s
Ġbe at
ĠA ction
ra h
ĠT rack
ĠM ur
Ġse at
ant i
Ġus ually
ĠThe me
Ġmaint ained
Ġtest im
Ġtask s
Ġdam age
Le vel
ĠTurk ish
OV ER
Ġadop ted
ĠWrit ten
ellect ual
C op
b ath
i ar
m et
v ince
Ġt itled
an cy
Ġg reen
ĠP acific
ĠF olders
ĠH er
Ġcont rolled
Ġman ifest
Ġpre fer
Ġopp ressed
Ġopp osing
Ġob lig
US T
Ġri vals
Ġexist ence
ĠTr isha
Ġpract ice
Ġperman ently
B ook
S EP
o x
p x
v as
Ġw ood
Ġc y
Ġin menu
Ġg ang
ĠC ount
ag og
ĠD on
ĠR at
ĠH ome
ong al
ail ing
Ġinter pre
ĠPro du
Ġdev ices
Ġprof ile
Ġhapp ening
Ġtrad ition
ĠSar ath
ĠSing apore
gn ore
Siv aji
rÃ¶ der
U M
W ork
ĠP ART
ri p
Ġk de
ok ing
Ġover whel
ert ain
ph as
ser v
Ġunemploy ed
Ġcou p
Ġfle e
Ġdictators hip
C reating
H yper
T O
g en
k anth
Ġre ference
os it
Ġwor se
ĠN or
Ġres ource
He ight
Ġsy mp
Ġdri ven
ipp ing
Res et
Ġtax es
Ġdepend ent
Ġdepart ed
B ehold
R W
T race
u h
Ġs ick
om s
ag ers
ĠM A
ĠW E
ĠH istory
ock et
ars h
ĠDe lete
Ġsum mer
Start ing
Ġsal es
Ġplug ins
f ix
j arat
Ġre ign
Ġl iqu
ig ation
ĠB engal
our ing
ĠK os
ĠSh ankar
hes s
Ġmod ify
Ġdeb ut
ole an
Ġsound s
rish na
Ob ject
Ġcondem ned
Ġwond er
Ġdro pped
% %
C ard
w in
Ġt on
it a
Ġp ull
ĠS ign
ra ction
em on
ĠP and
ĠO h
Ġ7 5
Ġbeg un
cont rolled
Ġprint ing
Ġident ified
ĠRight s
C o
J apan
M r
T ab
u z
it ect
Ġb ought
Ġin quiry
Ġre new
ol ved
Ġst ead
Ġcon ver
Ġcl osing
Ġun p
Ġper missions
Ġover th
Ġapp ropriate
Ġset t
rib le
Con nect
Ġprinc ipal
ĠServ ice
D as
u an
Ġst raight
ĠM un
ĠB on
Ġcomp ens
Ġind eed
Ġmon itor
Al ways
Ġsw itch
bu ild
ÂĢÂ ¦
uster ity
ĠKurd ish
A z
P ri
U RI
b um
f e
l antic
Ġ âĻª
Ġw ine
Ġw ikipedia
Ġm arch
as ury
am bar
ĠS um
Ġan cient
Ġpro ced
ĠL ast
os h
ĠF ormat
ĠW ick
qu ar
ib et
Ġthere in
ĠV ish
ach ment
rat ors
Ġsupport s
Ġinv ited
Ġfl ood
ĠPr inter
ĠAb d
Ġless ons
Ġsepar atist
Ġkeep ing
ĠCent re
Ġmult itude
B row
P N
c ape
t here
u ated
Ġw ake
ic ate
el ve
ĠP ers
ĠB row
pl ates
Ġpart ner
ĠV as
Ġsign s
Ġfe atures
Ġhapp ens
ĠOn ly
ĠAcc ount
Ġrefere nd
S m
b ed
at ter
ĠM ark
Ġsh ared
Ġcomp osed
Ġbl ind
Ġent ries
Ġrel ation
ov o
part s
Const ruct
Ġgovern or
Ġtrou ble
ĠJos hua
Ġbal ance
E mail
j ack
s k
Ġa usterity
it ably
el ess
ĠG DP
ĠG IMP
ive k
Ġch ose
Ġdis pl
ove re
Ġext ended
Ġread ers
Ġinitial ly
ĠComm and
Ġbuild ings
Ġprocess es
han ush
Ġsaf ety
Ġesc ape
resh old
Ġnav al
Ġscient ific
Ġremark s
Ġmach ine
Ġfir ms
ĠPE OP
C hennai
S mall
W ait
h uman
r um
is en
al let
ot ic
ĠS ave
ig ar
ĠC ogl
em en
ag raph
ew ise
port s
Ġapp arent
ual ity
Ġdif f
Ġprof ound
Ġappear ance
Ġdwell ed
Ġrighteous ness
ĠPhilist ines
c heck
ur u
Ġsh adow
ell ow
iz h
Ġ" )
Ġqu ery
Ġnational ism
Ġbo ost
ov al
min ation
Ġbring ing
amb a
Ġtool tip
cont inent
Ġdomin ation
ĠSun ni
Ġlegit im
Ġbankrupt cy
Ġkil omet
Ġcontradict ions
8 8
B el
Ġc ultural
ic ations
Ġh yp
ut to
ĠA c
ear ance
ĠV ad
Ġpre m
ĠRaj a
Ġear n
Ġaddress es
Cont rol
Ġindic ation
ĠPe oples
D eb
T est
n ight
Ġb in
Ġpl atform
Ġunder t
Ġafter math
Ġret ire
Ġstart up
Ġcap able
ĠAs sembly
Ġlist ed
Ġmin or
ĠIt alian
Ġmembers hip
Ġindust ries
Ġexec ute
Ġcolumn s
Ġsuff ering
upp orted
Ġang el
Ġplant ation
Ġpip eline
1 00
P ilot
b les
n u
Ġa rose
en ger
Ġc overed
Ġth anks
Ġg rad
ur ies
ra ge
ĠM or
ĠD i
Ġgo al
Ġcl oser
iz ard
ilit ary
Wh atever
Ġdecl are
Ġart ist
Ġdri vers
Ġsepar ated
Ġemploy ment
Ġfall ing
Ġsqu are
Ġprogress ive
Ġrepl aced
Ġprim ary
icro soft
Ġadvant age
s ome
or age
Ġp ill
ch i
ust ria
Ġim ag
ail and
Ġint ellectual
Ġpres idency
ĠIn fo
ĠY our
ĠY eah
Ġcommand er
Ġcour ts
Ġenter pr
Ġtell ing
Ġbureauc rat
Ġsuggest ed
Ġdeterm ine
Out put
ĠSim bu
Spec ify
S ar
S ource
W orkers
i eth
Â £
Ġo cean
al es
Ġl ands
ad em
ĠT ehran
her an
ĠF ull
Ġun le
Ġar row
ĠV er
IN D
Ġexp osed
iy am
Ġ199 5
Ġ199 6
Ġgot ta
ĠSo ftware
Ġsil ence
Ġpos itive
Ne ither
ĠMoh an
Ġprophe ts
% .
A ustralia
D ark
F ar
d ef
r ath
r ange
v ille
Ġs rilanka
om p
Ġst ance
ĠD ate
ĠF onseka
ĠW AS
Ġun rest
ish ment
Ġ19 30
Ġapp lied
Ġadm itted
ĠX ML
ird s
add ing
Ġimplic ations
Ġunderst ood
A G
g al
Ġt our
Ġc ens
Ġf at
om ic
ill er
ĠW ill
ĠW ork
ip se
Ġover t
Ġ19 60
Ġ4 00
Ġsm ote
ialog s
raf at
Ġpet ition
Ph oto
Ġassass ination
yg on
Ġrhet oric
I con
W ill
n on
u w
ce l
ĠC ome
ĠP an
ĠB Y
ĠU s
ĠN OT
ash ion
ĠSe a
Ġworld wide
isc her
Ġel ites
ĠMal aysia
Ad vanced
Ġdomin ated
wh ich
ĠKore an
Ġinsert ed
ĠDef ense
Ġaband oned
Ġlawy er
P resent
o very
Ġa w
Ġb ull
Ġre de
ĠI d
ag s
ĠM enu
ĠL SSP
Ġat roc
ĠF ederal
Ġsu c
Ġsu st
ary a
ĠJ ob
ru ck
Ġro b
As k
Ġrest ore
Ġbur den
Cont act
Ġblood y
Ġlif ted
Ġexerc ise
3 5
A v
s ur
an im
al ese
Ġp ensions
se x
se lect
ĠA k
ĠM art
ĠG ames
Ġr um
ĠF ill
ĠO ver
Ġup d
Ġwrit er
ĠPr int
Ġaut hentication
Ġproper ties
ĠEng land
Ġlo ans
Ġang ry
sec ution
Ġswe et
Ġencrypt ed
Ġsurround ing
S A
S ir
U PS
b us
d istrict
h on
Ġf air
ic ian
ic ated
Ġg ain
Ġst ories
ĠP aper
ĠT op
Ġsh if
Ġex ception
du c
ĠSt atus
ick s
Add ress
Ġsit es
Ġbomb ings
Ġassoci ation
Ġaward s
ĠSch rÃ¶der
Ġindividual s
Ag ain
Ġresident s
Ġsuc ceed
D ec
P ack
P ause
ot ing
ol es
ag am
and ar
and al
ĠU ser
Ġnew ly
ick et
ĠTh us
Se cond
Ġshe ep
TH ER
Ġjo ining
Ġneg ative
rav ity
Ġnat ur
Ġprec ise
ĠRober t
7 0
ot es
ch or
ĠW ord
ĠO R
Ġsp ot
Ġent itled
the se
Ġend s
Ġdec isions
Ġest ate
Ġgreat est
Ġreported ly
Ġweap on
ĠPe ople
Ġpurs ued
Ġlegis l
zb ollah
Ġdebugg ing
Ġs cre
en k
Ġw he
Ġp awn
Ġm ix
as th
am ar
ĠS il
Ġnot ice
and h
Ġde als
ess ions
pe ople
ĠR ow
ĠJ on
rou d
ind ia
Ġcomp ar
Ġreg imes
St ate
ĠThe se
Ġback ward
cy cl
Ġra ce
Ġpar se
Ġsl og
Ġbeg at
ĠPre ferences
Ġbelong s
Load ing
ĠBack ground
Ġdetain ees
F OR
U ndo
W E
a ik
b rit
h ist
v o
re land
Ġs av
es ing
as p
id hi
ĠB ay
Ġint ended
ress ive
ĠV in
Ġany way
Wh ich
Ch ar
Ġsign al
ON G
Ġed iting
Ġfl ight
Con nection
Ġdest abil
ivers ary
Ġsuff icient
Ġstre t
ĠBhar ath
Reg ion
PF A
ĠSud an
H istory
L ink
g g
Ġt iles
Ġs overe
at ural
Ġo rientation
it ary
Ġas ide
ap uram
Ġad just
Ġsp aces
vers ation
Ġmem o
Ġhand ed
Ġpo et
Ġlink ed
AC E
Ġhard ly
Ġground s
Ġincident s
Rep ly
Ġsens itive
Ġcub its
Ġinev itably
2 9
b el
m ake
z one
or ough
Ġin formed
ĠS P
Ġst ability
ĠT RUE
ĠB ala
un icip
Ġask ing
Ġprom ise
Ġorgan ized
With in
atist ics
IGH T
Ġfra ud
Ġarg ued
esing he
l as
l aw
ad ing
ra wing
th ree
ain er
Ġr ic
ass ador
Ġatt ended
Ġappro ximately
ches s
Or gan
Ġexport s
ĠGeorg ian
ĠDet ails
Ġtheat re
riev ing
Ġoverwhel ming
D em
T rack
c a
o ja
Ġw edding
ut ch
ig al
ĠA M
ĠP RO
ĠE ph
ĠR ec
rou s
clud ing
Ġimp over
As s
Ġbr ight
ĠDe velop
Ġequ ip
ĠPl ayer
vin ism
Ġclot hes
C ar
C ertificate
D B
K S
v is
Ġc ried
ed itor
Ġb ore
Ġb are
Ġre nd
ĠS ource
ow ell
ĠC re
em ail
Ġpro ve
ang o
aj a
ram es
Ġtrans form
Ġexpl an
ov ies
Ġpost s
ĠEx t
uv ar
Ġappro val
ĠMah inda
Ġboy c
Ġchau vinism
ĠVal ue
Ġsuburb s
osl av
Ġdism ant
m as
Ġt it
as hes
Ġh ur
Ġh all
om en
ĠS U
pe ace
ud h
OR T
Ġdisc s
Ġ4 5
ĠPro gram
Ġca ught
OU R
Spe aking
Ġord ers
Ġmed ic
vin ces
ĠSa udi
Ġcasual ties
= \\\\{
C ong
L ong
R ather
S at
g ence
g ments
n ar
y es
Ġ `
Ġs rc
ou ch
ro om
ĠC ertificate
Ġst ressed
Ġ( $
ĠW ikipedia
Ġqu oted
Select ed
Ġfollow s
Ex ec
Ġter minal
Ġhost ile
Ġgener ated
200 1
Ġdialog ues
part y
Ġport ray
rem esinghe
AV E
ĠBhar at
Ġparam eters
N or
U E
m inist
Ġp ul
ĠA V
ĠC OUNT
ĠT ibet
Ġcomp oser
Ġhouse hold
Ġca uses
Ġcontrol s
ani um
ĠJan atha
adh al
Ġpub lish
Ġblock s
Ġtrib es
Ġpra ised
ĠPS G
Off ice
Ġnumer ous
P ress
S un
U I
l ast
p arent
s ites
Ġo x
Ġd pi
am araj
Ġre ck
ĠB ol
Ġr andom
av ali
IN E
Ġter rible
Ġbur st
Aut omatic
augh ter
Ġrecord ed
Ġconfront ation
Ġstar ring
Us ed
Ġpan el
Ġdesper ate
Ġmort g
Ġsched uled
