{"<CLS>":0,"<pad>":1,"<SEP>":2,"<UNK>":3,"<MASK>":4,"!":5,"\"":6,"#":7,"$":8,"%":9,"&":10,"'":11,"(":12,")":13,"*":14,"+":15,",":16,"-":17,".":18,"/":19,"0":20,"1":21,"2":22,"3":23,"4":24,"5":25,"6":26,"7":27,"8":28,"9":29,":":30,";":31,"<":32,"=":33,">":34,"?":35,"@":36,"A":37,"B":38,"C":39,"D":40,"E":41,"F":42,"G":43,"H":44,"I":45,"J":46,"K":47,"L":48,"M":49,"N":50,"O":51,"P":52,"Q":53,"R":54,"S":55,"T":56,"U":57,"V":58,"W":59,"X":60,"Y":61,"Z":62,"[":63,"\\":64,"]":65,"^":66,"_":67,"`":68,"a":69,"b":70,"c":71,"d":72,"e":73,"f":74,"g":75,"h":76,"i":77,"j":78,"k":79,"l":80,"m":81,"n":82,"o":83,"p":84,"q":85,"r":86,"s":87,"t":88,"u":89,"v":90,"w":91,"x":92,"y":93,"z":94,"{":95,"|":96,"}":97,"~":98,"¡":99,"¢":100,"£":101,"¤":102,"¥":103,"¦":104,"§":105,"¨":106,"©":107,"ª":108,"«":109,"¬":110,"®":111,"¯":112,"°":113,"±":114,"²":115,"³":116,"´":117,"µ":118,"¶":119,"·":120,"¸":121,"¹":122,"º":123,"»":124,"¼":125,"½":126,"¾":127,"¿":128,"À":129,"Á":130,"Â":131,"Ã":132,"Ä":133,"Å":134,"Æ":135,"Ç":136,"È":137,"É":138,"Ê":139,"Ë":140,"Ì":141,"Í":142,"Î":143,"Ï":144,"Ð":145,"Ñ":146,"Ò":147,"Ó":148,"Ô":149,"Õ":150,"Ö":151,"×":152,"Ø":153,"Ù":154,"Ú":155,"Û":156,"Ü":157,"Ý":158,"Þ":159,"ß":160,"à":161,"á":162,"â":163,"ã":164,"ä":165,"å":166,"æ":167,"ç":168,"è":169,"é":170,"ê":171,"ë":172,"ì":173,"í":174,"î":175,"ï":176,"ð":177,"ñ":178,"ò":179,"ó":180,"ô":181,"õ":182,"ö":183,"÷":184,"ø":185,"ù":186,"ú":187,"û":188,"ü":189,"ý":190,"þ":191,"ÿ":192,"Ā":193,"ā":194,"Ă":195,"ă":196,"Ą":197,"ą":198,"Ć":199,"ć":200,"Ĉ":201,"ĉ":202,"Ċ":203,"ċ":204,"Č":205,"č":206,"Ď":207,"ď":208,"Đ":209,"đ":210,"Ē":211,"ē":212,"Ĕ":213,"ĕ":214,"Ė":215,"ė":216,"Ę":217,"ę":218,"Ě":219,"ě":220,"Ĝ":221,"ĝ":222,"Ğ":223,"ğ":224,"Ġ":225,"ġ":226,"Ģ":227,"ģ":228,"Ĥ":229,"ĥ":230,"Ħ":231,"ħ":232,"Ĩ":233,"ĩ":234,"Ī":235,"ī":236,"Ĭ":237,"ĭ":238,"Į":239,"į":240,"İ":241,"ı":242,"Ĳ":243,"ĳ":244,"Ĵ":245,"ĵ":246,"Ķ":247,"ķ":248,"ĸ":249,"Ĺ":250,"ĺ":251,"Ļ":252,"ļ":253,"Ľ":254,"ľ":255,"Ŀ":256,"ŀ":257,"Ł":258,"ł":259,"Ń":260,"Ġt":261,"he":262,"Ġa":263,"in":264,"Ġthe":265,"on":266,"re":267,"er":268,"Ġs":269,"at":270,"Ġo":271,"is":272,"an":273,"en":274,"Ġw":275,"or":276,"Ġc":277,"it":278,"ed":279,"Ġf":280,"ar":281,"es":282,"al":283,"Ġp":284,"Ġof":285,"Ġb":286,"ou":287,"nd":288,"ing":289,"Ġto":290,"Ġin":291,"ion":292,"Ġm":293,"le":294,"Ġd":295,"as":296,"ic":297,"Ġand":298,"Ġh":299,"il":300,"ent":301,"ro":302,"Ġth":303,"Ġn":304,"ct":305,"am":306,"Ġre":307,"ot":308,"ve":309,"ol":310,"om":311,"st":312,"Ġl":313,"Ġe":314,"Ġbe":315,"ad":316,"ation":317,"Ġg":318,"ut":319,"im":320,"id":321,"Ġfor":322,"Ġis":323,"se":324,"ĠS":325,"ce":326,"ly":327,"et":328,"Ġy":329,"ay":330,"Ġon":331,"ow":332,"ig":333,"The":334,"ver":335,"ur":336,"Ġthat":337,"ĠI":338,"Ġu":339,"ist":340,"ĠA":341,"ĠC":342,"Ġst":343,"ra":344,"Ġyou":345,"em":346,"Ġhe":347,"el":348,"ag":349,"ith":350,"ĠP":351,"ir":352,"Ġit":353,"ch":354,"ter":355,"Ġnot":356,"ul":357,"ment":358,"ri":359,"Ġan":360,"Ġal":361,"ill":362,"ĠT":363,"Ġcon":364,"'s":365,"Ġwh":366,"Ġwith":367,"ĠM":368,"ld":369,"ers":370,"her":371,"and":372,"op":373,"Ġas":374,"ate":375,"art":376,"ab":377,"Ġpro":378,"res":379,"oc":380,"Ġ'":381,"us":382,"Ġde":383,"pp":384,"ĠB":385,"ĠL":386,"th":387,"ain":388,"ak":389,"ac":390,"if":391,"Ġse":392,"Ġby":393,"ave":394,"Ġwas":395,"ess":396,"Ġsh":397,"all":398,"ial":399,"nt":400,"ame":401,"est":402,"pe":403,"Ġare":404,"ere":405,"od":406,"ort":407,"ht":408,"Ġk":409,"ĠG":410,"um":411,"Ġcom":412,"os":413,"ction":414,"Ġr":415,"ĠD":416,"ore":417,"Ġat":418,"ĠU":419,"un":420,"ĠF":421,"rom":422,"ity":423,"pt":424,"ew":425,"Ġsu":426,"Ġthis":427,"Ġv":428,"ĠE":429,"Ġhas":430,"Ġwor":431,"Ġ1":432,"Ġhave":433,"ould":434,"ĠR":435,"Ġfrom":436,"Ġ%":437,"..":438,"ĠN":439,"age":440,"iv":441,"ight":442,"Ġgo":443,"Ġor":444,"ive":445,"Ġex":446,"ies":447,"our":448,"ary":449,"ant":450,"Ġ(":451,"00":452,"ĠW":453,"ia":454,"end":455,"Ġch":456,"Ġwill":457,"qu":458,"Ġle":459,"ast":460,"ther":461,"ile":462,"ĠK":463,"pl":464,"Ġhis":465,"ard":466,"ap":467,"Ġall":468,"ĠJ":469,"ĠH":470,"ud":471,"ich":472,"Ġcl":473,"ear":474,"Ġag":475,"ust":476,"ure":477,"ack":478,"ĠO":479,"old":480,"Ġpl":481,"ang":482,"ire":483,"Ġ2":484,"rou":485,"ian":486,"Ġpol":487,"Ġ-":488,"ical":489,"In":490,"av":491,"ass":492,"ry":493,"Ġim":494,"ong":495,"ail":496,"ber":497,"Ġint":498,"ress":499,"Ġme":500,"Ġwhich":501,"Ġfil":502,"ect":503,"out":504,"Ġdis":505,"ions":506,"Ġwe":507,"Ġwork":508,"able":509,"ok":510,"ind":511,"ated":512,"ove":513,"vern":514,"cc":515,"Ġthey":516,"Th":517,"Ġj":518,"ost":519,"hen":520,"ount":521,"ous":522,"Ġun":523,"ose":524,"ign":525,"ex":526,"Ġcont":527,"ine":528,"Ġpe":529,"ace":530,"ime":531,"Ġpart":532,"Ġtheir":533,"vernment":534,"ug":535,"ord":536,"Ġwere":537,"Ġad":538,"ell":539,"ik":540,"Ġyour":541,"iz":542,"ice":543,"ĠUS":544,"con":545,"are":546,"Ġout":547,"ip":548,"ub":549,"ide":550,"Ġab":551,"ome":552,"ue":553,"Ġgovernment":554,"ep":555,"And":556,"Ġus":557,"Ġsa":558,"Ġdo":559,"ran":560,"ase":561,"Ġits":562,"Ġthem":563,"ations":564,"cl":565,"mer":566,"Ġbeen":567,"rit":568,"Ġcan":569,"Ġbut":570,"port":571,"og":572,"Ġman":573,"ath":574,"Ġhad":575,"ople":576,"Ġwar":577,"lect":578,"per":579,"lic":580,"Ġres":581,"int":582,"Ġup":583,"ult":584,"amil":585,"ib":586,"Ġagain":587,"Ġar":588,"ff":589,"Ġoff":590,"one":591,"ake":592,"Ġper":593,"ish":594,"Ġpeople":595,"ll":596,"Ġcomp":597,".'":598,"urn":599,"Ġhim":600,"Ġone":601,"ition":602,"so":603,"own":604,"Ġwho":605,"Ġthere":606,"Ġsp":607,"Ġshall":608,"orm":609,"ank":610,"Ġsaid":611,"ck":612,"...":613,"gh":614,"ence":615,"ĠV":616,"ext":617,"Ġen":618,"ational":619,"tern":620,"ven":621,"ge":622,"Ġfilm":623,"OR":624,"inist":625,"act":626,"gan":627,"Ġne":628,"ade":629,"aj":630,"cre":631,"ite":632,"Ġover":633,"ont":634,"ory":635,"Ġnew":636,"Ġno":637,"Ġ\"":638,"ound":639,"ru":640,"ef":641,"Ġyear":642,"fter":643,"Ġ19":644,"te":645,"Ġpre":646,"Ġpolit":647,"Ġsupp":648,"au":649,"ree":650,"ocial":651,"Ġalso":652,"ob":653,"ens":654,"ance":655,"Ġagainst":656,"ings":657,"cent":658,"ject":659,"ilit":660,"Ġapp":661,"ĠCh":662,"older":663,"Ġatt":664,"du":665,"ces":666,"man":667,"Ġany":668,"Ġother":669,"Ġcount":670,"pen":671,"This":672,"very":673,"nder":674,"Ġonly":675,"ai":676,"ah":677,"It":678,"Ġact":679,"ise":680,"Ġmore":681,"reat":682,"Ġfile":683,"ident":684,"Ġwould":685,"You":686,"Ġso":687,"Ġmy":688,"Ġinto":689,"Ġro":690,"Ġwhen":691,"ays":692,"Ġser":693,"ark":694,"form":695,"ism":696,"Ġspe":697,"Ġright":698,"wo":699,"meric":700,"ike":701,"ates":702,"Ġcol":703,"vi":704,"hed":705,"Ġind":706,"ey":707,"ren":708,"Ġcomm":709,"Ġpr":710,"Ġtime":711,"ĠSt":712,"ied":713,"ann":714,"Ġdem":715,"Ġabout":716,"Ġfolder":717,"ution":718,"Ġmilit":719,"ans":720,"Ġpolitical":721,"irect":722,"we":723,"Ġname":724,"ror":725,"ons":726,"Ġreg":727,"ook":728,"ally":729,"vel":730,"ĠIs":731,"lection":732,"ict":733,"Ġbec":734,"ents":735,"ush":736,"red":737,"fore":738,"ced":739,"ild":740,"Ġ200":741,"ram":742,"row":743,"'t":744,"ick":745,"Ġunder":746,"ach":747,"rat":748,"Ġsc":749,"IN":750,"Ġam":751,"ie":752,"ert":753,"irst":754,"oint":755,"Ġdisc":756,"Ġif":757,"Ġacc":758,"Ġdef":759,"sel":760,"ORD":761,"amp":762,"He":763,"ĠTh":764,"Ġkn":765,"ond":766,"Ġafter":767,"ors":768,"low":769,"ganis":770,"Ġopp":771,"Ġqu":772,"Ġset":773,"ash":774,"ĠLORD":775,"ĠInd":776,"ause":777,"Ġmilitary":778,"Ġtwo":779,"Ġpres":780,"Ġbet":781,"up":782,"ft":783,"uro":784,"Wh":785,"Ġsupport":786,"raq":787,"und":788,"Ġconf":789,"Ġthan":790,"read":791,"Sh":792,"ek":793,"Ġinv":794,"Ġsocial":795,"Ġdirect":796,"Ġcall":797,"Ġwant":798,"ption":799,"ages":800,"St":801,"here":802,"Ġem":803,"ĠIraq":804,"Ġmess":805,"conom":806,"Ġstr":807,"ener":808,"Ġtr":809,"Ġlike":810,"Ġlead":811,"Ġher":812,"aw":813,"ock":814,"Ġbl":815,"ific":816,"Name":817,"ĠThe":818,"ĠIn":819,"ĠAmeric":820,"Ġshould":821,"Ġback":822,"TE":823,"ĠUn":824,"ublic":825,"AN":826,"ĠTamil":827,"Ġcur":828,"Ġrem":829,"ton":830,"Ġsy":831,"Ġcould":832,"ink":833,"ited":834,"oy":835,"Ġsome":836,"Ġopen":837,"ered":838,"gm":839,"ĠSe":840,"vers":841,"Se":842,"Ġmade":843,"wn":844,"Ġ3":845,"round":846,"ved":847,"Ġget":848,"Ġthese":849,"les":850,"Ġuse":851,"Ġfirst":852,"led":853,"ne":854,"Ġeconom":855,"clud":856,"rent":857,"umber":858,"ration":859,"osition":860,"cy":861,"Ġent":862,"Ġadd":863,"urope":864,"Ġstate":865,"Ġshe":866,"Ġcr":867,"ments":868,"Ġworld":869,"rael":870,"Ġkgm":871,"ize":872,"ible":873,"get":874,"Ġnow":875,"ix":876,"Ġco":877,"But":878,"igh":879,"cial":880,"the":881,"ween":882,"ouse":883,"oun":884,"rib":885,"Ġeven":886,"Ġused":887,"rans":888,"Ġ&":889,",'":890,"Ġbefore":891,"ands":892,"Ġret":893,"Ġwhat":894,"ph":895,"Ġpercent":896,"Ġclass":897,"ital":898,"other":899,"Ġdes":900,"Ġworking":901,"oss":902,"li":903,"por":904,"Ġworkers":905,"ĠIsrael":906,"lease":907,"olution":908,"oth":909,"ĠPart":910,"Ch":911,"iss":912,"Ġbetween":913,"uth":914,"Ġyears":915,"ased":916,"ood":917,"ward":918,"ternational":919,"Ġchang":920,"pect":921,"ning":922,"ocrat":923,"indow":924,"rganis":925,"ype":926,"Ġpow":927,"Ġlast":928,"cess":929,"AR":930,"Ġass":931,"Ġcountry":932,"Ġdid":933,"stem":934,"eb":935,"ĠEurope":936,"Ġsuch":937,"rough":938,"Ġend":939,"ince":940,"erman":941,"Ġdown":942,"Ġsay":943,"roup":944,"error":945,"Ġjust":946,"Ġval":947,"Ġtem":948,"Ġday":949,"ĠParty":950,"ater":951,"Ġreport":952,"Ġmessage":953,"action":954,"ared":955,"ular":956,"Ġmon":957,"to":958,"ER":959,"There":960,"Ġprov":961,"Ġinst":962,"Ġform":963,"ines":964,"hether":965,"ather":966,"Ġdec":967,"ful":968,"ork":969,"Can":970,"Ġrel":971,"Ġmany":972,"ious":973,"omm":974,"Ġstart":975,"Ġadm":976,"ts":977,"ec":978,"arch":979,"ted":980,"Ġcons":981,"Ġcre":982,"Ġselect":983,"ual":984,"bo":985,"app":986,"Ġplace":987,"Ġra":988,"ĠY":989,"We":990,"illion":991,"Ġimp":992,"fere":993,"Ġcap":994,"Ġinclud":995,"Ġknow":996,"No":997,"Ġins":998,"day":999,"Ġtra":1000,"ting":1001,"Ġprog":1002,"lear":1003,"Ġprodu":1004,"Ġelection":1005,"ement":1006,"Ġcurrent":1007,"Ġbeing":1008,"vent":1009,"Ġthrough":1010,"ures":1011,"Ġsub":1012,"istan":1013,"ght":1014,"Ġfin":1015,"Ġmay":1016,"000":1017,"Ġattack":1018,"Ġob":1019,"Ġrep":1020,"Ġmost":1021,"Ġfiles":1022,"Could":1023,"ĠSh":1024,"dit":1025,"As":1026,"ever":1027,"ating":1028,"Ġrec":1029,"Ġhow":1030,"Ġpolic":1031,"ble":1032,"Ġoffic":1033,"ĠBush":1034,"ng":1035,"ral":1036,"ities":1037,"Un":1038,"Ġbr":1039,"ĠGod":1040,"eth":1041,"lete":1042,"dd":1043,"Ġexp":1044,"ves":1045,"ries":1046,"ode":1047,"Ġour":1048,"self":1049,"AT":1050,"Ġsign":1051,"Ġevery":1052,"ollow":1053,"inister":1054,"ists":1055,"Ġmem":1056,"Ġbecause":1057,"io":1058,"uss":1059,"Ġnumber":1060,"For":1061,"Ġmake":1062,"Ġte":1063,"ĠAs":1064,"ev":1065,"uring":1066,"als":1067,"ault":1068,"med":1069,"Ġfound":1070,"ctions":1071,"ĠAmerican":1072,"ĠGerman":1073,"Ġown":1074,"ters":1075,"Ġhand":1076,"Ġcontin":1077,"osed":1078,"Ġpri":1079,"oad":1080,"Ġ4":1081,"Ġadminist":1082,"Ġwrit":1083,"ife":1084,"Ġneed":1085,"Ġtake":1086,"ĠCol":1087,"ough":1088,"Ġwhere":1089,"az":1090,"Ġbro":1091,"Ġpar":1092,"ocratic":1093,"Ġking":1094,"Ġcame":1095,"ising":1096,"Ġcor":1097,"Show":1098,"Ġcome":1099,"Ġchar":1100,"Ġtak":1101,"Ġgiv":1102,"ax":1103,"Ġcent":1104,"Ġpers":1105,"ty":1106,"formation":1107,"Ġtrans":1108,"der":1109,"Ġlist":1110,"ics":1111,"Ġchild":1112,"heck":1113,"ajor":1114,"ON":1115,"An":1116,"Ġthen":1117,"Ġpop":1118,"ern":1119,"Ġmove":1120,"outh":1121,"iew":1122,"Ġsystem":1123,"On":1124,"ative":1125,"edia":1126,"Ġcamp":1127,"ull":1128,"cond":1129,"Ġmen":1130,"Ġinter":1131,"Ġdecl":1132,"Ġdoes":1133,"Ġed":1134,"Ġplay":1135,"ool":1136,"Ġparty":1137,"its":1138,"Ġdet":1139,"play":1140,"Ġprogram":1141,"ised":1142,"Ġprot":1143,"ote":1144,"ues":1145,"ata":1146,"hes":1147,"Ġbu":1148,"Ġfl":1149,"Ġest":1150,"Ġmonth":1151,"air":1152,"cur":1153,"Ġclose":1154,"Ġac":1155,"Ġreturn":1156,"Ġpass":1157,"Ġpress":1158,"iy":1159,"eg":1160,"yn":1161,"alk":1162,"Ġ5":1163,"Other":1164,"Ġthose":1165,"Ġincre":1166,"ron":1167,"ility":1168,"If":1169,"Ġref":1170,"hip":1171,"Ġeconomic":1172,"ify":1173,"Ġstat":1174,"Ġloc":1175,"ified":1176,"Ġtext":1177,"Ġwell":1178,"Ġhere":1179,"imes":1180,"velop":1181,"Ġsame":1182,"Ġ_":1183,"ged":1184,"Ġadministration":1185,"land":1186,"Ġserv":1187,"Ġimage":1188,"ailed":1189,"Ġmajor":1190,"Ġdif":1191,"Ġway":1192,"ms":1193,"not":1194,"Ġfe":1195,"Ġhead":1196,"ĠTH":1197,"ING":1198,"Ġrul":1199,"Ġpower":1200,"Ġcapital":1201,"Con":1202,"Ġinternational":1203,"Ġwhile":1204,"me":1205,"ulation":1206,"Ġext":1207,"Ġrequ":1208,"Ġpoint":1209,"Ġlong":1210,"ording":1211,"uch":1212,"aim":1213,"ness":1214,"ians":1215,"rol":1216,"ined":1217,"City":1218,"Ġsee":1219,"way":1220,"Select":1221,"Move":1222,"Ġfollow":1223,"Com":1224,"ric":1225,"Ġresp":1226,"Ġthree":1227,"Ġleft":1228,"Ġpublic":1229,"They":1230,"ars":1231,"Ġweek":1232,"ME":1233,"Ġdep":1234,"bers":1235,"Ġmass":1236,"Ġev":1237,"ready":1238,"Ġkey":1239,"DE":1240,"iel":1241,"Ġcalled":1242,"lish":1243,"ives":1244,"Ġhouse":1245,"erest":1246,"ute":1247,"ision":1248,"Ġofficial":1249,"Ġkill":1250,"Ġgroup":1251,"ĠSri":1252,"ĠNew":1253,"Ġgreat":1254,"par":1255,"mb":1256,"ament":1257,"Ġsl":1258,"TTE":1259,"ploy":1260,"eneral":1261,"Ġdays":1262,"ocu":1263,"uc":1264,"ffect":1265,"Ġshow":1266,"Ġgl":1267,"ĠLank":1268,"Ġocc":1269,"arth":1270,"En":1271,"pr":1272,"ina":1273,"Whether":1274,"Ġmust":1275,"volution":1276,"ĠIndia":1277,"Ġwindow":1278,"Ġinit":1279,"orth":1280,"Ġselected":1281,"ead":1282,"Ġsm":1283,"Ġvery":1284,"view":1285,"Ġmain":1286,"Ġnext":1287,"ades":1288,"Ġnational":1289,"angu":1290,"Al":1291,"ĠPro":1292,"ke":1293,"Ġlaw":1294,"Ġword":1295,"isc":1296,"Ġland":1297,"Ġinterest":1298,"Ġproject":1299,"Ġpartic":1300,"Ġfun":1301,"Ġlet":1302,"Ġanother":1303,"porary":1304,"Ġbo":1305,"ugg":1306,"curity":1307,"Ġlar":1308,"ient":1309,"Ġread":1310,"idd":1311,"Ġpresident":1312,"At":1313,"cept":1314,"ccess":1315,"Ġfore":1316,"tle":1317,"Ġalready":1318,"ĠZ":1319,"Ġimport":1320,"ĠOrganis":1321,"ale":1322,"All":1323,"Ġdi":1324,"ished":1325,"âĢ":1326,"Ġmark":1327,"ĠBrit":1328,"oci":1329,"Ġcountries":1330,"ES":1331,"Ġexpl":1332,"ov":1333,"Ġ199":1334,"ĠAf":1335,"Ġdist":1336,"lp":1337,"Ġcar":1338,"Ġson":1339,"Ġpolice":1340,"Ġgiven":1341,"Ġgood":1342,"ets":1343,"Ġhigh":1344,"arm":1345,"opy":1346,"com":1347,"Ġ6":1348,"ins":1349,"ĠFran":1350,"of":1351,"any":1352,"Ġheart":1353,"Ġopposition":1354,"ten":1355,"ĠOrganiser":1356,"ield":1357,"Ġinformation":1358,"Ġpo":1359,"aign":1360,"Ġput":1361,"Ġel":1362,"),":1363,"ashing":1364,"ically":1365,"Ġspec":1366,"Ġtemporary":1367,"Ġoper":1368,"oot":1369,"ature":1370,"ained":1371,"New":1372,"Ġcommand":1373,"Ġboth":1374,"Ġstri":1375,"Ġca":1376,"Ġfact":1377,"Ġwithout":1378,"Ġ[":1379,"ames":1380,"ices":1381,"gy":1382,"De":1383,"Ġdevelop":1384,").":1385,"OU":1386,"ants":1387,"Ġwid":1388,"AL":1389,"Ġstand":1390,"19":1391,"Ġdon":1392,"Ġiss":1393,"Rem":1394,"Ġdest":1395,"ĠEuropean":1396,"Ġsent":1397,"na":1398,"Ġtold":1399,"ops":1400,"Im":1401,"'.":1402,"IS":1403,"ange":1404,"aking":1405,"Ġchildren":1406,"Ġmeet":1407,"Pl":1408,"Ġbus":1409,"Ġgot":1410,"Ġart":1411,"TH":1412,"Ġconst":1413,"Ġincluding":1414,"Ġcampaign":1415,"Ġturn":1416,"ĠAl":1417,"Ġburn":1418,"Ġbas":1419,"Ġann":1420,"Ġdra":1421,"Ġforces":1422,"Ġ\"%":1423,"Ġtook":1424,"ĠRaj":1425,"ĠCD":1426,"val":1427,"aving":1428,"ĠDem":1429,"Ġrest":1430,"iness":1431,"ither":1432,"ued":1433,"orld":1434,"ĠUnited":1435,"eep":1436,"Ġamong":1437,"Ġcris":1438,"Ġph":1439,"Ġinitial":1440,"uk":1441,"ired":1442,"Ġclaim":1443,"ĠLTTE":1444,"Ġmin":1445,"ĠThis":1446,"ĠComm":1447,"VD":1448,"Ġmail":1449,"Ġgrow":1450,"rench":1451,"Ġsur":1452,"Ġposs":1453,"Ġjob":1454,"Ġrole":1455,"Ġleaders":1456,"ashington":1457,"Ġwent":1458,"Ġ7":1459,"ger":1460,"ala":1461,"ask":1462,"ront":1463,"Ġgu":1464,"Ġtype":1465,"ĠSocial":1466,"oh":1467,"ided":1468,"IL":1469,"ĠAr":1470,"ains":1471,"Ġcrisis":1472,"Ġcity":1473,"Ġcannot":1474,"Ġcour":1475,"ried":1476,"Ġbeh":1477,"annot":1478,"Ġhelp":1479,"ived":1480,"Ġ'%":1481,"work":1482,"ury":1483,"Ġsecond":1484,"Ġrights":1485,"ought":1486,"Ġlay":1487,"Ġfilms":1488,"Ġpolicy":1489,"cri":1490,"sh":1491,"Ġprop":1492,"put":1493,"ality":1494,"pty":1495,"Ġdiffere":1496,"Ġsince":1497,"What":1498,"'re":1499,"Ġant":1500,"resident":1501,"Ġsize":1502,"Ġdata":1503,"ocument":1504,"ering":1505,"ator":1506,"When":1507,"my":1508,"Cannot":1509,"Ġmedia":1510,"Ġrece":1511,"Ġrun":1512,"Ġvalue":1513,"ression":1514,"Ġestab":1515,"Syn":1516,"Add":1517,"Ex":1518,"cret":1519,"Ġmod":1520,"ij":1521,"Do":1522,"Ġdri":1523,"Ġlife":1524,"Ġter":1525,"Ġadv":1526,"Ġparties":1527,"Ġfunction":1528,"After":1529,"Ġresult":1530,"anguage":1531,"'m":1532,"word":1533,"Ġline":1534,"Ġmillion":1535,"ract":1536,"Ġorder":1537,"Ġfour":1538,"ser":1539,"Ġdev":1540,"Ġav":1541,"less":1542,"ple":1543,"Ġinf":1544,"empt":1545,"That":1546,"onst":1547,"Ġhist":1548,"eh":1549,"used":1550,"ama":1551,"Ġperson":1552,"Ġerror":1553,"orn":1554,"ĠIt":1555,"for":1556,"aper":1557,"Ġgive":1558,"ural":1559,"Ġwithin":1560,"Ġbel":1561,"ptions":1562,"Ġtro":1563,"iving":1564,"Ġaction":1565,"els":1566,"RE":1567,"uthor":1568,"chron":1569,"Ġsaying":1570,"ier":1571,"Re":1572,"mber":1573,"ĠWashington":1574,"vious":1575,"atch":1576,"Ġ/":1577,"ĠPr":1578,"Ġsit":1579,"Ġregion":1580,"ĠTHE":1581,"Ġprotest":1582,"Ġcut":1583,"Ġagre":1584,"ruct":1585,"Ġlook":1586,"cil":1587,"bar":1588,"ivil":1589,"Ġspok":1590,"creen":1591,"Ġstrugg":1592,"akistan":1593,"omb":1594,"Ġear":1595,"ner":1596,"So":1597,"ency":1598,"Ġthreat":1599,"ending":1600,"Ġpresent":1601,"Ġ$":1602,"Ġfamil":1603,"uman":1604,"Ġ10":1605,"ards":1606,"rror":1607,"Ġfind":1608,"eng":1609,"Ġallow":1610,"itle":1611,"ately":1612,"Please":1613,"Ġoption":1614,"Ġcontrol":1615,"Ġsim":1616,"ĠIndian":1617,"IC":1618,"Ġonto":1619,"Ġ~":1620,"ancial":1621,"rict":1622,"Ġdel":1623,"ero":1624,"iles":1625,"ialog":1626,"Ġterror":1627,"Ġleg":1628,"min":1629,"ember":1630,"Remove":1631,"Ġhero":1632,"Ġold":1633,"Ġclear":1634,"Ġdisplay":1635,"Ġproble":1636,"ĠYou":1637,"Ġmuch":1638,"EP":1639,"ized":1640,"ĠFrench":1641,"ss":1642,"AS":1643,"Ġlevel":1644,"Ġfather":1645,"Ġlab":1646,"Ġrecent":1647,"alth":1648,"Ġprof":1649,"iber":1650,"Ġdeb":1651,"Ġaut":1652,"nce":1653,"ense":1654,"Ġgame":1655,"Synchron":1656,"ada":1657,"ung":1658,"Ġstud":1659,"omin":1660,"ĠUN":1661,"Ġlit":1662,"resent":1663,"Ġtalk":1664,"Ġcheck":1665,"onent":1666,"Ġmembers":1667,"ured":1668,"har":1669,"Ġaround":1670,"ys":1671,"Ġbook":1672,"iod":1673,"uration":1674,"Ġla":1675,"ĠAnd":1676,"ĠIran":1677,"rad":1678,"Ġinc":1679,"ĠWh":1680,"AM":1681,"Ġpriv":1682,"Ġruling":1683,"ira":1684,"Ġcharact":1685,"Ġenc":1686,"Ġbig":1687,"Ġbeg":1688,"Ġbuild":1689,"urs":1690,"Ġ20":1691,"Ġtroops":1692,"liament":1693,"gest":1694,"US":1695,"obal":1696,"Ġprin":1697,"Ġmo":1698,"iddle":1699,"Ġhapp":1700,"umn":1701,"Synchronising":1702,"ĠPresident":1703,"Ġview":1704,"Ġfight":1705,"Ġstill":1706,"Ġtoo":1707,"ĠMinister":1708,"Ġcivil":1709,"ĠAb":1710,"Ġconc":1711,"Dis":1712,"over":1713,"Ġinvest":1714,"Bl":1715,"tings":1716,"Ġprocess":1717,"Ġbutton":1718,"Now":1719,"How":1720,"Ġ8":1721,"olog":1722,"Pro":1723,"Ġfailed":1724,"usic":1725,"ĠSocialist":1726,"ĠFrance":1727,"Col":1728,"ĠPakistan":1729,"ground":1730,"Organis":1731,"Ġsecurity":1732,"Ġempty":1733,"ĠAll":1734,"epend":1735,"Ġposition":1736,"sw":1737,"Comment":1738,"itor":1739,"ched":1740,"Ġearth":1741,"Ġcreate":1742,"Ġanti":1743,"Ġcert":1744,"version":1745,"ened":1746,"Ġminister":1747,"Ġthous":1748,"urther":1749,"Ġpopulation":1750,"Ġdone":1751,"Ġquest":1752,"ghan":1753,"Ġnear":1754,"Ġbre":1755,"alled":1756,"ĠOF":1757,"Ġannoun":1758,"war":1759,"omat":1760,"Ġdeath":1761,"Ġobject":1762,"ource":1763,"EN":1764,"Ġaway":1765,"ours":1766,"Ġusing":1767,"Ġask":1768,"Ġpost":1769,"ĠDe":1770,"asing":1771,"Ġbank":1772,"Ġinterests":1773,"ait":1774,"Ġattempt":1775,"Ġri":1776,"ĠMan":1777,"umb":1778,"ually":1779,"Ġdemonst":1780,"Ġsuccess":1781,"ĠX":1782,"Ġvis":1783,"Ġlarge":1784,"Ġforeign":1785,"Ġvot":1786,"sp":1787,"ission":1788,"ailable":1789,"Ġthings":1790,"Ġfar":1791,"wing":1792,"ites":1793,"ari":1794,"ails":1795,"Ġdeclared":1796,"ana":1797,"pro":1798,"udio":1799,"Ġmeas":1800,"Ġaddress":1801,"ĠQ":1802,"ĠGermany":1803,"Ġbusiness":1804,"Ġduring":1805,"To":1806,"hi":1807,"ĠIN":1808,"kn":1809,"att":1810,"col":1811,"ird":1812,"Organisation":1813,"Ġfive":1814,"ĠUnion":1815,"Ġsmall":1816,"Ġfull":1817,"ustral":1818,"onds":1819,"Ġru":1820,"adu":1821,"leg":1822,"Ġdemand":1823,"Ġpast":1824,"veral":1825,"Ġchange":1826,"Ġtaken":1827,"rought":1828,"Ġkilled":1829,"ĠAn":1830,"Ġgoing":1831,"Ġfree":1832,"ĠRep":1833,"Ġhost":1834,"Ġformer":1835,"Ġfinancial":1836,"ĠLanka":1837,"Ġunion":1838,"oz":1839,"ĠChina":1840,"ĠRuss":1841,"Ġcommun":1842,"ideo":1843,"Ġdirector":1844,"ois":1845,"alf":1846,"undred":1847,"Open":1848,"set":1849,"ĠAfghan":1850,"Then":1851,"Ġperiod":1852,"aug":1853,"Acc":1854,"ras":1855,"ĠCon":1856,"rab":1857,"Ġapplic":1858,"ubs":1859,"Ġequ":1860,"Ġplan":1861,"uck":1862,"Ġfollowing":1863,"Ġpeace":1864,"Ġfac":1865,"Ġcreated":1866,"ned":1867,"Pr":1868,"ha":1869,"Ġthink":1870,"tion":1871,"Ġdemocratic":1872,"fo":1873,"kt":1874,"Cl":1875,"raph":1876,"Ġfurther":1877,"=\"":1878,"uation":1879,"Ġtrack":1880,"igure":1881,"line":1882,"Cre":1883,"order":1884,"Ġ0":1885,"Ġdifferent":1886,"IT":1887,"Ġfield":1888,"Not":1889,"ention":1890,"Ġimportant":1891,"Ġstruggle":1892,"Ġfund":1893,"imum":1894,"Ġmeans":1895,"oose":1896,"ety":1897,"Ġmight":1898,"ross":1899,"Ġtrade":1900,"Ġparliament":1901,"Ġinvol":1902,"Ġmovement":1903,"ky":1904,"Ġoil":1905,"Ġaccept":1906,"Ġinitialise":1907,"Ġcase":1908,"Ġarea":1909,"known":1910,"Ġauthor":1911,"Ġbrought":1912,"erv":1913,"Ġchanges":1914,"Des":1915,"Use":1916,"Ġconsid":1917,"Ġjo":1918,"Ġleast":1919,"ief":1920,"Ġgener":1921,"ĠSet":1922,"inal":1923,"Ġsong":1924,"Ġmar":1925,"Ġreal":1926,"200":1927,"Ġarmy":1928,"ĠEast":1929,"Ġprom":1930,"ED":1931,"rid":1932,"tt":1933,"rop":1934,"Ġbased":1935,"ott":1936,"ĠIm":1937,"Ġhearts":1938,"ĠBl":1939,"Ġ9":1940,"ĠHe":1941,"Ġless":1942,"lished":1943,"Ġactor":1944,"ressed":1945,"Ġcrit":1946,"ĠPl":1947,"mbol":1948,"Ġcand":1949,"ĠEvolution":1950,"ĠBritish":1951,"ee":1952,"nai":1953,"Ã©":1954,"ani":1955,"Ġitself":1956,"Ġserver":1957,"Ġestablish":1958,"perial":1959,"ience":1960,"ager":1961,"These":1962,"ĠOb":1963,"place":1964,"ĠIf":1965,"ateg":1966,"ditions":1967,"RO":1968,"Ġregime":1969,"Ġorgan":1970,"Ġside":1971,"ĠFile":1972,"Ġoccup":1973,"Ġheld":1974,"ĠEx":1975,"ession":1976,"eft":1977,"ĠDVD":1978,"Ġcomponent":1979,"Ġweb":1980,"Ġeffect":1981,"cing":1982,"Ġliving":1983,"50":1984,"Ġmode":1985,"amed":1986,"oll":1987,"Ġavailable":1988,"Ġglobal":1989,"rist":1990,"Ġexist":1991,"men":1992,"medi":1993,"Ġdiam":1994,"Ġsom":1995,"Ġsearch":1996,"ware":1997,"Set":1998,"Ġvi":1999,"oice":2000,"yle":2001,"Ġdefault":2002,"Ġreas":2003,"Ġconditions":2004,"osp":2005,"de":2006,"Ġbillion":2007,"Ġseek":2008,"Ġforce":2009,"Ġpay":2010,"Create":2011,"Ġunt":2012,"ech":2013,"Ġsix":2014,"Ġstory":2015,"ĠDemocratic":2016,"apan":2017,"Error":2018,"ison":2019,"Ġdiv":2020,"ended":2021,"oney":2022,"ĠStates":2023,"Ġtop":2024,"Ġorganis":2025,"etwork":2026,"Ġversion":2027,"Ġlanguage":2028,"Save":2029,"Ġhundred":2030,"cription":2031,"ily":2032,"Ġlocal":2033,"Ġtoward":2034,"ĠPal":2035,"Ġbring":2036,"Ġattacks":2037,"Ġpolicies":2038,"Ġsepar":2039,"Ġtamil":2040,"selves":2041,"Ġreturns":2042,"nect":2043,"Ġsold":2044,"Ġclubs":2045,"Ġdeal":2046,"Ġmeeting":2047,"roy":2048,"ody":2049,"amb":2050,"Ġdialog":2051,"hennai":2052,"Ġbecome":2053,"Ġhowever":2054,"Ġtry":2055,"Ġindust":2056,"ĠAmerica":2057,"Ind":2058,"ization":2059,"Ġcandid":2060,"Ġparticular":2061,"lement":2062,".\"":2063,"itional":2064,"ktop":2065,"Ġbomb":2066,"ĠWorld":2067,"She":2068,"ya":2069,"Ġplac":2070,"Ġleader":2071,"ler":2072,"Ġlow":2073,"ots":2074,"ling":2075,"Ġrepresent":2076,"Ġpossible":2077,"Ġitem":2078,"Ġsure":2079,"Ġspace":2080,"Ġcharacter":2081,"ior":2082,"ides":2083,"Ġindepend":2084,"ĠSp":2085,"Ġface":2086,"Ġdocument":2087,"Ġemploy":2088,"Ġstrike":2089,"Ġmonths":2090,"One":2091,"Ġeach":2092,"icle":2093,"According":2094,"Ġden":2095,"Ġdiamonds":2096,"vert":2097,"ample":2098,"Ġcal":2099,"ĠCan":2100,"ivers":2101,"ways":2102,"Ġhold":2103,"Ġspades":2104,"Ġkeep":2105,"ape":2106,"Ġfew":2107,"Ġwords":2108,"roll":2109,"ored":2110,"Ġcommit":2111,"han":2112,"Ġ(%":2113,"une":2114,"ĠAfghanistan":2115,"Ġstarted":2116,"Ġconcern":2117,"Ġfall":2118,"While":2119,"Ġvote":2120,"Ġelect":2121,"Ġyoung":2122,"unch":2123,"Ġbrother":2124,"efault":2125,"Ġbar":2126,"oses":2127,"onse":2128,"ibility":2129,"Ġreported":2130,"iah":2131,"mit":2132,"Ġmount":2133,"Ġhome":2134,"Ġrespons":2135,"Ġimperial":2136,"Ġeng":2137,"board":2138,"ĠCl":2139,"cretary":2140,"Americ":2141,"iers":2142,"Ġwater":2143,"nection":2144,"Ġcolour":2145,"Ġviol":2146,"Ġaim":2147,"irc":2148,"Ġrele":2149,"idence":2150,"Ġproper":2151,"Sc":2152,"ray":2153,"ery":2154,"Ġaccording":2155,"Ġes":2156,"ruction":2157,"gu":2158,"Ġmusic":2159,"Ġcoll":2160,"Edit":2161,"ĠSouth":2162,"umar":2163,"ĠLe":2164,"Ġwom":2165,"Ġ12":2166,"ĠRe":2167,"uv":2168,"Ġshoot":2169,"racy":2170,"Ar":2171,"Ġfire":2172,"ĠJan":2173,"ĠCong":2174,"ĠSo":2175,"avid":2176,"EL":2177,"ptember":2178,"lick":2179,"Ġcoun":2180,"stand":2181,"ĠName":2182,"Ġlink":2183,"Ġelections":2184,"Ġhistory":2185,"raw":2186,"Ġseveral":2187,"RI":2188,"Ġbur":2189,"ĠAN":2190,"riend":2191,"ĠNational":2192,"Ġsing":2193,"Ġstates":2194,"ĠUSA":2195,"ober":2196,"Ġhuman":2197,"Ġheav":2198,"ably":2199,"Ġsupported":2200,"Ġmet":2201,"Ġweap":2202,"Ġeconomy":2203,"hing":2204,"Ġansw":2205,"ĠIraqi":2206,"iqu":2207,"ring":2208,"Ġactiv":2209,"aining":2210,"Ġimmedi":2211,"Cont":2212,"part":2213,"go":2214,"Ġyet":2215,"ethod":2216,"Ġable":2217,"ese":2218,"Ġofficials":2219,"ĠSc":2220,"sc":2221,"Ġexec":2222,"Ġprevious":2223,"ĠAustral":2224,"Ġgave":2225,"Ġappear":2226,"Ġwhether":2227,"Ġsave":2228,"ustom":2229,"ĠMay":2230,"eder":2231,"rest":2232,"Ġconflic":2233,"ees":2234,"Ġever":2235,"Ġappe":2236,"ane":2237,"ĠCent":2238,"Ġjud":2239,"ini":2240,"ipp":2241,"ĠTO":2242,"Ġbelie":2243,"ION":2244,"lim":2245,"Ġpath":2246,"Copy":2247,"ony":2248,"Ġspeak":2249,"ĠRepublic":2250,"ĠâĢ":2251,"Ġparticip":2252,"ĠSEP":2253,"ĠGe":2254,"Ġshort":2255,"ourn":2256,"With":2257,"ĠPh":2258,"ma":2259,"itution":2260,"ourge":2261,"Ġfamily":2262,"ges":2263,"Ġservice":2264,"ĠInternational":2265,"Ġsituation":2266,"Ġlim":2267,"ourgeois":2268,"Ġseen":2269,"Ġindic":2270,"Ġwon":2271,"ification":2272,"Ġuntil":2273,"anth":2274,"uary":2275,"araj":2276,"Ġpowers":2277,"Ġjobs":2278,"Ġstop":2279,"ining":2280,"Ġtoget":2281,"aring":2282,"Ġtogether":2283,"ĠDavid":2284,"ĠIS":2285,"Ġnever":2286,"Ġdestroy":2287,"Ġce":2288,"Ġunions":2289,"Ġformat":2290,"Ġmoney":2291,"Ġsum":2292,"estin":2293,"Ġneg":2294,"Ġentire":2295,"af":2296,"ayer":2297,"Ġ18":2298,"Ġhimself":2299,"Ġquestion":2300,"Ġreceived":2301,"Ġten":2302,"Ġtool":2303,"Ġalong":2304,"ali":2305,"chool":2306,"ential":2307,"thing":2308,"Ġexpect":2309,"Ġemer":2310,"lu":2311,"Ġdiscuss":2312,"Ġcapt":2313,"ones":2314,"Ġaccess":2315,"Ġmessages":2316,"Ġreally":2317,"Ġdeep":2318,"Ġlost":2319,"Ġaccount":2320,"Ġ15":2321,"Ġgeneral":2322,"pre":2323,"Ġcare":2324,"ĠSy":2325,"10":2326,"Ġmult":2327,"Ġnothing":2328,"uclear":2329,"ĠNorth":2330,"Ġaudio":2331,"iance":2332,"elf":2333,"ĠCongress":2334,"File":2335,"ĠEn":2336,"ties":2337,"Ġload":2338,"Ġrequest":2339,"Ġmat":2340,"arent":2341,"Ġtar":2342,"ĠHind":2343,"Unable":2344,"yp":2345,"ening":2346,"Ġannounced":2347,"Ġseven":2348,"Ġlittle":2349,"unt":2350,"Ġbourgeois":2351,"right":2352,"ases":2353,"Ġcomplete":2354,"option":2355,"Ġbegin":2356,"Ġport":2357,"AC":2358,"SL":2359,"eah":2360,"lam":2361,"Ġcast":2362,"akes":2363,"Your":2364,"Ġclick":2365,"Ġknown":2366,"Even":2367,"reg":2368,"aff":2369,"Ġ11":2370,"Ġelite":2371,"Ġair":2372,"Ġcost":2373,"olders":2374,"ĠJer":2375,"Ġmeasures":2376,"Aut":2377,"side":2378,"ĠTimes":2379,"info":2380,"Ġagreement":2381,"Ġsw":2382,"Conf":2383,"Ġreleased":2384,"dom":2385,"ĠPol":2386,"Ġmarket":2387,"Ġsocialist":2388,"--":2389,"mark":2390,"Ġ198":2391,"Ġtable":2392,"plit":2393,"era":2394,"NT":2395,"ĠLeft":2396,"Ġve":2397,"Ġsend":2398,"with":2399,"osing":2400,"earch":2401,"Ġbroad":2402,"Ġeff":2403,"ĠCont":2404,"Ġthemselves":2405,"sy":2406,"Ġmaking":2407,"Ab":2408,"Is":2409,"ML":2410,"Ġselection":2411,"Ġrelations":2412,"pril":2413,"Ġur":2414,"Ġthing":2415,"Ġappro":2416,"ething":2417,"Ġtab":2418,"Ġborder":2419,"adh":2420,"ination":2421,"Ġvict":2422,"Ġwhole":2423,"Ġchanged":2424,"ĠWar":2425,"ĠLankan":2426,":%":2427,"Ġlater":2428,"ples":2429,"Ġdecision":2430,"fully":2431,"eter":2432,"ĠPar":2433,"Ġdue":2434,"Ġwhy":2435,"Ġpur":2436,"Ġtot":2437,"chn":2438,"ĠGeneral":2439,"Ġcompany":2440,"Ġincrease":2441,"ĠMar":2442,"Ġdr":2443,"Ġnuclear":2444,"Ġlog":2445,"iguration":2446,"pective":2447,"Ġdoing":2448,"rupt":2449,"MP":2450,"ences":2451,"Ġbest":2452,"ĠFil":2453,"Pre":2454,"ribut":2455,"Ġtransl":2456,"Some":2457,"cont":2458,"ijay":2459,"oriz":2460,"essage":2461,"Ġtherefore":2462,"ĠSeptember":2463,"Ġmajority":2464,"ternal":2465,"Ġhard":2466,"rial":2467,"Ġmenu":2468,"AP":2469,"abled":2470,"Ġfear":2471,"Ġhalf":2472,"Ġsaw":2473,"ension":2474,"Ġweapons":2475,"Ġcoal":2476,"'ll":2477,"AD":2478,"by":2479,"ope":2480,"tee":2481,"Start":2482,"Ġstrong":2483,"Ġtw":2484,"ulture":2485,"load":2486,"unit":2487,"Ġgr":2488,"Ġdrive":2489,"ene":2490,"Ġthousands":2491,"isation":2492,"ĠFor":2493,"Ġnecess":2494,"Sp":2495,"let":2496,"Ġcourt":2497,"alam":2498,"Ġey":2499,"Ġscreen":2500,"ĠTr":2501,"Ġpolitics":2502,"Delete":2503,"cut":2504,"nces":2505,"org":2506,"ovember":2507,"iya":2508,"Ġcapitalist":2509,"gypt":2510,"Ġlive":2511,"ociety":2512,"ctor":2513,"ĠPlease":2514,"Ġbreak":2515,"LE":2516,"een":2517,"Ġ30":2518,"ril":2519,"Ġspecial":2520,"Ġcolumn":2521,"ches":2522,"rect":2523,"/%":2524,"ocation":2525,"PD":2526,"Ġtre":2527,"Ġcontinue":2528,"ĠKDE":2529,"Ġpopular":2530,"Ġpub":2531,"Ġuser":2532,"Ġsignific":2533,"rica":2534,"hem":2535,"inter":2536,"reed":2537,"Ġnor":2538,"Ġled":2539,"Ġshooting":2540,"gress":2541,"Ġdeter":2542,"Burn":2543,"Ġcard":2544,"Ġenter":2545,"box":2546,"Spe":2547,"ĠPalestin":2548,"augh":2549,"Since":2550,"Ġchief":2551,"uly":2552,"Ġimm":2553,"aster":2554,"ĠEU":2555,"viet":2556,"Ġpat":2557,"ories":2558,"Ġdead":2559,"ĠLab":2560,"Ġareas":2561,"Ġissue":2562,"Ġdou":2563,"Ġcoming":2564,"Ġoffice":2565,"20":2566,"Tamil":2567,"aid":2568,"Ġprint":2569,"Ġschool":2570,"Ġrule":2571,"inh":2572,"ĠGu":2573,"apak":2574,"Ġround":2575,"Ġsuff":2576,"Ġapplication":2577,"Ġtell":2578,"Ġcopy":2579,"Ġident":2580,"60":2581,"Ġsons":2582,"Ġvideo":2583,"Ġcurrently":2584,"Ġreason":2585,"uture":2586,"Ġwhose":2587,"Ġplans":2588,"Ġwrite":2589,"Ġincreasing":2590,"Ġpage":2591,"'ve":2592,"Ġvar":2593,"Ġstatement":2594,"Res":2595,"Ġ,":2596,"Ġfont":2597,"Ġgovernments":2598,"Ġmean":2599,"Ġeffort":2600,"ances":2601,"Ġmethod":2602,"Ġspecified":2603,"ats":2604,"Ġothers":2605,"Ġbasis":2606,"aged":2607,"usal":2608,"ging":2609,"annel":2610,"Ġdirected":2611,"Ġdemonstr":2612,"ises":2613,"oti":2614,"atives":2615,"ilar":2616,"Ġcorpor":2617,"add":2618,"ĠMal":2619,"Ġspoke":2620,"ugin":2621,"apakse":2622,"ĠJud":2623,"ceed":2624,"Ġflag":2625,"orizont":2626,"Ġ<":2627,"ensions":2628,"ology":2629,"ĠLord":2630,"Ġheight":2631,"Ġrequired":2632,"âĢ¦":2633,"ium":2634,"ĠGo":2635,"Ġlight":2636,"Ġtarget":2637,"Ġexper":2638,"VP":2639,"upp":2640,"Ġhaving":2641,"rack":2642,"Ġcentury":2643,"More":2644,"Ġtimes":2645,"Ġsouth":2646,"ources":2647,"ĠJapan":2648,"rasero":2649,"Ġz":2650,"ĠEng":2651,"reet":2652,"Ġresponse":2653,"Ġleadership":2654,"ached":2655,"Ġcolor":2656,"Ġoperation":2657,"Ġcertain":2658,"Ġsomething":2659,"\"\"":2660,"Ġsoldiers":2661,"light":2662,"Ġredu":2663,"Ġpack":2664,"Ġwritten":2665,"ole":2666,"Ġlove":2667,"istance":2668,"NO":2669,"Ġdirectory":2670,"itions":2671,"Ġfriend":2672,"Ġhig":2673,"Ġsea":2674,"ĠNo":2675,"Ġasked":2676,"Ġord":2677,"igned":2678,"Ġtechn":2679,"ude":2680,"ĠBritain":2681,"ĠApril":2682,"ĠRussia":2683,"Ġsol":2684,"Ġnorth":2685,"ĠTool":2686,"aint":2687,"Ġstatus":2688,"Ġgroups":2689,"Ġproblems":2690,"crib":2691,"duct":2692,"Ġwidth":2693,"ctober":2694,"Ġyes":2695,"ĠEgypt":2696,"Ġblood":2697,"RAN":2698,"Ġlat":2699,"Ġbecame":2700,"ĠIsraeli":2701,"Ġcoalition":2702,"Ġmed":2703,"Ġconnection":2704,"Ġrecord":2705,"aly":2706,"Ġrelease":2707,"ĠAsia":2708,"aul":2709,"be":2710,"Ġaff":2711,"ump":2712,"reng":2713,"Ġeduc":2714,"Ġgrowing":2715,"aran":2716,"Ġevent":2717,"ilt":2718,"Ġlo":2719,"Click":2720,"Ġhands":2721,"rypt":2722,"Ġsays":2723,"Ġonce":2724,"Enter":2725,"CD":2726,"Ġvill":2727,"UR":2728,"ĠCom":2729,"unist":2730,"ordin":2731,"Ġeditor":2732,"Ġmor":2733,"Ġeas":2734,"Ġ197":2735,"ĠStal":2736,"ving":2737,"ombo":2738,"ĠDes":2739,"His":2740,"ificate":2741,"ci":2742,"plic":2743,"reen":2744,"Ġenough":2745,"Ġleading":2746,"Ġsociety":2747,"Ġoccupation":2748,"most":2749,"list":2750,"rary":2751,"ĠChennai":2752,"Ġrevolution":2753,"Ġwhom":2754,"App":2755,"Qu":2756,"ĠAm":2757,"AY":2758,"vention":2759,"CH":2760,"itch":2761,"Ġdelete":2762,"Ġdevelopment":2763,"Ġproblem":2764,"Ġsource":2765,"Ġprovide":2766,"Ġrelig":2767,"quality":2768,"Ġprep":2769,"Ġarticle":2770,"ogn":2771,"arn":2772,"Ġburning":2773,"Ġsou":2774,"Ġwife":2775,"ĠChrist":2776,"Ġ@":2777,"ugust":2778,"Ġinside":2779,"Ġmaint":2780,"ozy":2781,"mail":2782,"Ġdate":2783,"America":2784,"Ġreform":2785,"ĠHouse":2786,"arkozy":2787,"fic":2788,"anks":2789,"ators":2790,"Ġago":2791,"Ġcomple":2792,"Ġprivate":2793,"Ġtest":2794,"Ġfail":2795,"Ġexample":2796,"Ġoptions":2797,"Ġcities":2798,"Ġrad":2799,"Ġmother":2800,"artment":2801,"Enable":2802,"Image":2803,"rilank":2804,"12":2805,"ham":2806,"Ġpressure":2807,"Ad":2808,"oom":2809,"rew":2810,"asion":2811,"Ġnight":2812,"Ġmember":2813,"Ġtalks":2814,"Ġproduction":2815,"Ġthird":2816,"rem":2817,"ĠAd":2818,"Ġtaking":2819,"ĠObama":2820,"illions":2821,"ellig":2822,"WS":2823,"Ġnum":2824,"ift":2825,"Ġlocation":2826,"pite":2827,"Ġnames":2828,"cember":2829,"ĠCanada":2830,"Ġnegoti":2831,"IA":2832,"Ġtask":2833,"Ġtrad":2834,"Ġstreng":2835,"dem":2836,"Ġ17":2837,"aved":2838,"Check":2839,"Ġnon":2840,"Ġseem":2841,"Ġcomb":2842,"Ġneither":2843,"Ġabove":2844,"Ġfuture":2845,"Ġbegan":2846,"Ġund":2847,"Ġang":2848,"anger":2849,"Ġprevent":2850,"Ġbox":2851,"Ġadded":2852,"Ġbud":2853,"Ġpriest":2854,"type":2855,"esus":2856,"iple":2857,"back":2858,"Ġmiss":2859,"ĠWindow":2860,"Ġserious":2861,"ently":2862,"Ġsymbol":2863,"Sim":2864,"come":2865,"irm":2866,"Ġthroughout":2867,"Ġtrue":2868,"ĠColombo":2869,"urd":2870,"ĠSettings":2871,"Ġmiddle":2872,"IG":2873,"amal":2874,"Ġcause":2875,"Ġoffer":2876,"Number":2877,"Ġnetwork":2878,"Ġacting":2879,"Ġdevice":2880,"ĠRajapakse":2881,"Ġregard":2882,"cul":2883,"Ġoccur":2884,"orizontal":2885,"rong":2886,"Ġtoday":2887,"Ġcritic":2888,"Go":2889,"ara":2890,"urk":2891,"Ġtele":2892,"Ġheard":2893,"Const":2894,"use":2895,"Ġop":2896,"Ġcontact":2897,"Ġactive":2898,"atus":2899,"iting":2900,"Ġconflict":2901,"Ġstage":2902,"aut":2903,"Ġsound":2904,"Ġcomput":2905,"Ġblock":2906,"Default":2907,"rame":2908,"Ġforth":2909,"cer":2910,"ĠAdd":2911,"ocracy":2912,"ternet":2913,"ĠPrime":2914,"Ġestablishment":2915,"sequ":2916,"Ġnews":2917,"valid":2918,"ournal":2919,"Ġtotal":2920,"By":2921,"ST":2922,"ume":2923,"Ġturned":2924,"Ġstep":2925,"employ":2926,"ĠVijay":2927,"inese":2928,"Ġtax":2929,"well":2930,"Ġcontinued":2931,"reme":2932,"Ġsal":2933,"Ġeither":2934,"Ġground":2935,"\\\\":2936,"ĠSer":2937,"Ġcourse":2938,"Ġrunning":2939,"ength":2940,"Ġcentral":2941,"11":2942,"Ġactions":2943,"agement":2944,"now":2945,"head":2946,"Ġalways":2947,"Ġcomment":2948,"However":2949,"onna":2950,"Ġdistrict":2951,"NA":2952,"rodu":2953,"ormal":2954,"reedom":2955,"usalem":2956,"Ġtitle":2957,"ww":2958,"aron":2959,"Ġdomin":2960,"pecial":2961,"ĠJanuary":2962,"30":2963,"Ġsec":2964,"ĠNovember":2965,"optional":2966,"Ġvarious":2967,"iver":2968,"ls":2969,"Ġthought":2970,"Ġtakes":2971,"ĠAND":2972,"net":2973,"Ġkind":2974,"Ġpassword":2975,"OP":2976,"Ġplayed":2977,"ĠView":2978,"ohn":2979,"Ġprison":2980,"uslim":2981,"Ġarrest":2982,"ĠJerusalem":2983,"Last":2984,"Ġspeech":2985,"Ġpresidential":2986,"Ġvalid":2987,"Ġfav":2988,"Ġsoon":2989,"UN":2990,"het":2991,"imate":2992,"ĠIslam":2993,"Ġgrowth":2994,"Ġexecut":2995,"gency":2996,"Ġx":2997,"ĠJuly":2998,"oving":2999,"My":3000,"Ġinstead":3001,"endar":3002,"ority":3003,"aram":3004,"Ġthough":3005,"oples":3006,"ĠBe":3007,"ensive":3008,"aximum":3009,"Ġbehind":3010,"Ġearly":3011,"Ġ16":3012,"ilities":3013,"fer":3014,"urrent":3015,"Ġparts":3016,"ugu":3017,"Ġremove":3018,"Ġbuilding":3019,"uel":3020,"Ġaffect":3021,"ements":3022,"irt":3023,"anced":3024,"Ġ14":3025,"Ġcarried":3026,"Ġphot":3027,"Or":3028,"Ġhit":3029,"Ġhealth":3030,"ĠPer":3031,"ĠKumar":3032,"Ġeight":3033,"irection":3034,"Inst":3035,"Ġnewsp":3036,"xis":3037,"Ġdefe":3038,"lin":3039,"nam":3040,"utes":3041,"ĠDo":3042,"ability":3043,"face":3044,"hu":3045,"ream":3046,"Change":3047,"ĠEdit":3048,"Ġrow":3049,"Ġrepe":3050,"Ġloss":3051,"Ġgonna":3052,"Ġ100":3053,"elligence":3054,"nadu":3055,"omatic":3056,"Ġbase":3057,"auc":3058,"ename":3059,"Ġservices":3060,"From":3061,"ruary":3062,"kay":3063,"aled":3064,"Ġnecessary":3065,"PI":3066,"ĠFolder":3067,"ĠRes":3068,"Ġinsist":3069,"Ġdaugh":3070,"Ġlabel":3071,"ĠImage":3072,"igr":3073,"ria":3074,"oo":3075,"ĠSinh":3076,"ebruary":3077,"oly":3078,"Ġinvolved":3079,"Ġthereof":3080,"Ġspeed":3081,"Ġbackground":3082,"OL":3083,"ival":3084,"Ġdemands":3085,"Ġstudents":3086,"year":3087,"iron":3088,"Ġfilter":3089,"Ġrecently":3090,"Print":3091,"Ġtrib":3092,"Ġopposed":3093,"bu":3094,"atab":3095,"Ġweeks":3096,"down":3097,"Ġleave":3098,"RL":3099,"Ġwait":3100,"oura":3101,"Ġstrik":3102,"Ġsaf":3103,"Text":3104,"Ġlines":3105,"Ġisland":3106,"Ġcapitalism":3107,"Ġneeds":3108,"Ġic":3109,"Ġinstall":3110,"Ġcuts":3111,"Ġcandidate":3112,"ka":3113,"Ġdied":3114,"Ġprotests":3115,"Ġesc":3116,"Ġindependent":3117,"ET":3118,"aries":3119,"estern":3120,"Ġoffering":3121,"Ġevents":3122,"\".":3123,"DVD":3124,"Ġreaction":3125,"rav":3126,"this":3127,"erence":3128,"Ġ13":3129,"Ġsun":3130,"Ġcontents":3131,"Ġ2002":3132,"Ġsan":3133,"Ġfood":3134,"Ġrather":3135,"Ġamount":3136,"urai":3137,"ortun":3138,"ĠWest":3139,"Ġconstitution":3140,"Ġpoor":3141,"',":3142,"isions":3143,"Ġcompan":3144,"Only":3145,"cies":3146,"sert":3147,"Ġreject":3148,"Ġbetter":3149,"Ġperspective":3150,"Ġplaces":3151,"Cal":3152,"Ġsuppor":3153,"Ġpublished":3154,"eed":3155,"Ġide":3156,"Ġeat":3157,"ĠSam":3158,"Ġreports":3159,"Ġconsider":3160,"Ġsil":3161,"avan":3162,"Ġopened":3163,"ĠSoviet":3164,"Ã¢":3165,"Ġunderstand":3166,"Ġassoci":3167,"Ġcarry":3168,"Let":3169,"called":3170,"igers":3171,"ĠMarch":3172,"Ġargu":3173,"wh":3174,"Ġbeginning":3175,"Ġtown":3176,"Ġyouth":3177,"Ġproduced":3178,"CT":3179,"name":3180,"ottom":3181,"SE":3182,"enu":3183,"olit":3184,"avi":3185,"MA":3186,"Ġorig":3187,"Ġinteg":3188,"hest":3189,"ĠTo":3190,"Ġbudget":3191,"ĠText":3192,"Ġsat":3193,"TER":3194,"\"%":3195,"ĠMoses":3196,"Ġplann":3197,"Ġimages":3198,"Ġwealth":3199,"Ġcommon":3200,"ftware":3201,"iversity":3202,"ao":3203,"ken":3204,"semb":3205,"rap":3206,"athy":3207,"Ġbasic":3208,"ĠOctober":3209,"Import":3210,"ĠCommunist":3211,"ĠJesus":3212,"Ġdescrib":3213,"Ġsimilar":3214,"Ġut":3215,"Ġsignificant":3216,"Ġfundament":3217,"IR":3218,"oved":3219,"alse":3220,"Ġsuper":3221,"Ġ\"\"":3222,"Ġben":3223,"Ġreplace":3224,"Ġrate":3225,"Ġdecided":3226,"Display":3227,"ĠâĢĺ":3228,"SP":3229,"Yeah":3230,"Ġwithd":3231,"Ġ25":3232,"Ġeducation":3233,"raf":3234,"hern":3235,"lo":3236,"aps":3237,"lation":3238,"ĠMiddle":3239,"lier":3240,"ĠKore":3241,"ĠJune":3242,"ĠJudah":3243,"ID":3244,"Ġmag":3245,"Ġslot":3246,"Ġhistor":3247,"yl":3248,"Ġvalues":3249,"ĠYork":3250,"Ġess":3251,"ĠWeb":3252,"ĠState":3253,"Ġunemploy":3254,"cils":3255,"zz":3256,"plate":3257,"Ġcompanies":3258,"Ġcirc":3259,"Ġeast":3260,"Ġincreased":3261,"Disc":3262,"Ġ)":3263,"Ġvoice":3264,"Ġimperialism":3265,"Ġconfront":3266,"Ġ>":3267,"hel":3268,"Ġwro":3269,"iding":3270,"Unknown":3271,"Ġfell":3272,"ĠSarkozy":3273,"agon":3274,"Ġchoose":3275,"UL":3276,"itation":3277,"ĠPe":3278,"Ġbanks":3279,"ĠDep":3280,"ĠOptions":3281,"ograph":3282,"Ġprime":3283,"Ġblack":3284,"Ġtowards":3285,"Ġwomen":3286,"Ġmakes":3287,"imal":3288,"ĠDemocrat":3289,"ply":3290,"text":3291,"elugu":3292,"Ġshare":3293,"Ġarmed":3294,"ĠDecember":3295,"Ġcomes":3296,"Ġminist":3297,"Ġnat":3298,"Ġaward":3299,"ecause":3300,"Ġimmediately":3301,"ivid":3302,"ficult":3303,"Ġwin":3304,"Ġlot":3305,"Ġstyle":3306,"pped":3307,"Ġ50":3308,"Place":3309,"miss":3310,"Ġsections":3311,"ructure":3312,"Ġfill":3313,"lean":3314,"Ġbit":3315,"ication":3316,"Ġevidence":3317,"Ġhours":3318,"Ġbelow":3319,"Ġsug":3320,"Ġcover":3321,"OD":3322,"ively":3323,"udd":3324,"Ġrecogn":3325,"terday":3326,"Ġconference":3327,"ospital":3328,"writ":3329,"Ġpoints":3330,"Ġlayer":3331,"ĠSecretary":3332,"Ġproduct":3333,"Ġmer":3334,"ĠAss":3335,"Ġfuck":3336,"agh":3337,"acy":3338,"orthern":3339,"Ġinflu":3340,"Gener":3341,"itable":3342,"Ġinj":3343,"elam":3344,"ĠBank":3345,"ika":3346,"Play":3347,"Ġlives":3348,"ĠAugust":3349,"Ġconnect":3350,"Ġteam":3351,"Ġwide":3352,"Ġrev":3353,"ĠMuslim":3354,"Ġ2001":3355,"oser":3356,"Man":3357,"Ġsession":3358,"ĠArab":3359,"Ġhear":3360,"JP":3361,"alys":3362,"Ġpix":3363,"Ġfeel":3364,"Ġeyes":3365,"()":3366,"nes":3367,"Ġplant":3368,"cript":3369,"Back":3370,"ja":3371,"Ġ2007":3372,"color":3373,"Ġbure":3374,"Ġnation":3375,"Ġconduct":3376,"Ġparticularly":3377,"ederal":3378,"Ġsought":3379,"Ġcred":3380,"asc":3381,"Ġforced":3382,"....":3383,"Ġagreed":3384,"ying":3385,"ĠConf":3386,"Ġresponsible":3387,"icles":3388,"ida":3389,"ĠCal":3390,"Ġlargest":3391,"Ġlegal":3392,"Ġbehold":3393,"Ġjoined":3394,"Ġsus":3395,"Ġdefend":3396,"atabase":3397,"Ġliber":3398,"Ġsuccessfully":3399,"rots":3400,"ĠSund":3401,"aily":3402,"formed":3403,"Ġinvasion":3404,"Ġinsert":3405,"Ġinvestig":3406,"Ġstar":3407,"uge":3408,"Ġfolders":3409,"ĠFiles":3410,"Ġbelieve":3411,"arian":3412,"Ġele":3413,"rast":3414,"ta":3415,"itude":3416,"Ġdam":3417,"Ġspread":3418,"Ġ194":3419,"ĠChinese":3420,"Ġacross":3421,"ips":3422,"Ġentry":3423,"Ġviolence":3424,"rotsky":3425,"ania":3426,"Ġbody":3427,"search":3428,"Ġ40":3429,"Ġdetails":3430,"Ġdialogue":3431,"Ġgas":3432,"anda":3433,"rance":3434,"Ġwidget":3435,"Am":3436,"Search":3437,"ĠShe":3438,"ĠLiber":3439,"Ġshot":3440,"Ġinclude":3441,"Ġbureauc":3442,"uff":3443,"Ġdestruction":3444,"Ġwrote":3445,"Ġmot":3446,"ulf":3447,"ĠList":3448,"Ġappoint":3449,"vin":3450,"Ġupon":3451,"Ġimplement":3452,"Ġer":3453,"ĠPre":3454,"Ġlonger":3455,"irac":3456,"Ġfront":3457,"ĠKar":3458,"Ġoperations":3459,"ami":3460,"ĠSch":3461,"uing":3462,"ĠCoun":3463,"uses":3464,"Ġsettings":3465,"Ġsingle":3466,"Ġshown":3467,"Ġcrim":3468,"lands":3469,"ĠJe":3470,"Ġworks":3471,",\"":3472,"Ġdict":3473,"though":3474,"Ġclaims":3475,"omatically":3476,"off":3477,"ĠFebruary":3478,"Ġclaimed":3479,"Ġindustry":3480,"Ġjoint":3481,"ĠSinhala":3482,"do":3483,"aves":3484,"Ġconfiguration":3485,"Ġstring":3486,"Ġnewspaper":3487,"rag":3488,"ĠJVP":3489,"Ġenem":3490,"inem":3491,"resh":3492,"icked":3493,"Ġrefused":3494,"Ġsuggest":3495,"IV":3496,"TS":3497,"ORS":3498,"ference":3499,"Ġdoub":3500,"ley":3501,"athan":3502,"ĠCentral":3503,"Ġbenef":3504,"then":3505,"Ġcorrect":3506,"point":3507,"ze":3508,"Ġdwell":3509,"ĠSen":3510,"ĠAustralia":3511,"Configure":3512,"ower":3513,"Ġrise":3514,"apse":3515,"reating":3516,"ividual":3517,"Ġhous":3518,"Ġforward":3519,"oper":3520,"ĠProject":3521,"Ġexpected":3522,"Ġstay":3523,"Ġthousand":3524,"ĠSun":3525,"Ġheroine":3526,"Ġbound":3527,"Ġdom":3528,"Ġdanger":3529,"Ġ2004":3530,"ĠWhite":3531,"KDE":3532,"iet":3533,"udi":3534,"ttp":3535,"Ġaltern":3536,"ĠMond":3537,"Ġfollowed":3538,"Ġhttp":3539,"Ġaxis":3540,"Ġfinal":3541,"Ġmoves":3542,"Ġsupporters":3543,"Font":3544,"Ġintelligence":3545,"Ġprob":3546,"Ġpreview":3547,"Ġaid":3548,"Ġcell":3549,"Ġreve":3550,"ĠMah":3551,"Why":3552,"TML":3553,"ĠBr":3554,"ĠRight":3555,"irth":3556,"Ġdeterm":3557,"Ġcomputer":3558,"Many":3559,"Ġintrodu":3560,"iki":3561,"Ġfamilies":3562,"Ġtyp":3563,"ĠBo":3564,"ĠWe":3565,"Ġsigned":3566,"ĠPalestinian":3567,"Ġwalk":3568,"Ġnations":3569,"ĠURL":3570,"just":3571,"Ġbug":3572,"Insert":3573,"OM":3574,"Ġcompet":3575,"Ġemb":3576,"Ġmassive":3577,"ĠCouncil":3578,"Mail":3579,"athi":3580,"Ġestim":3581,"Ġtrying":3582,"Ġindex":3583,"mon":3584,"Ġpurs":3585,"Key":3586,"no":3587,"abor":3588,"ĠJohn":3589,"Ġhundreds":3590,"Invalid":3591,"Ġissued":3592,"ergy":3593,"ocus":3594,"ixed":3595,"encils":3596,"ĠBer":3597,"Ġinterview":3598,"Ġmob":3599,"Ġmillions":3600,"Ġdifficult":3601,"ategic":3602,"Ġoccurred":3603,"Failed":3604,"isk":3605,"itive":3606,"acher":3607,"ĠDisc":3608,"title":3609,"leb":3610,"ĠNot":3611,"Ġwarned":3612,"Ġestablished":3613,"Ġallowed":3614,"ĠStalinist":3615,"heme":3616,"Ġcivilians":3617,"View":3618,"lying":3619,"ĠMode":3620,"ibrary":3621,"GE":3622,"ellation":3623,"Ġboard":3624,"Ġissues":3625,"ĠBlair":3626,"Ġ196":3627,"Out":3628,"PA":3629,"Ġhospital":3630,"RANSL":3631,"Ġfundamental":3632,"Le":3633,"Ġframe":3634,"akk":3635,"Over":3636,"inary":3637,"Ġchannel":3638,"Ġdecades":3639,"Ġbuilt":3640,"Ġsongs":3641,"Per":3642,"oon":3643,"Ġalone":3644,"Ġoutside":3645,"Ġinstalled":3646,"ĠColour":3647,"Ġletter":3648,"Window":3649,"Ġworked":3650,"Ġenv":3651,"Ġdirectly":3652,"Ġevil":3653,"Ġprovided":3654,"Comp":3655,"PP":3656,"Ġlength":3657,"Ġready":3658,"Ġdestroyed":3659,"Ġlatest":3660,"file":3661,"ĠHow":3662,"Ġgetting":3663,"02":3664,"Are":3665,"omet":3666,"rown":3667,"rate":3668,"usion":3669,"Don":3670,"OT":3671,"icians":3672,"RANSLAT":3673,"Yes":3674,"Ãĥ":3675,"Ġgod":3676,"ĠFront":3677,"ĠRam":3678,"hab":3679,"Ġcam":3680,"Ġcards":3681,"aya":3682,"Mal":3683,"ĠEquality":3684,"Ġexplained":3685,"Ġmorning":3686,"co":3687,"utions":3688,"ĠTrotsky":3689,"ocuments":3690,"Ġseeking":3691,"wise":3692,"ĠMad":3693,"Ġsecret":3694,"lected":3695,"ped":3696,"Ġdepend":3697,"Ġfighting":3698,"apt":3699,"erve":3700,"Ġnamed":3701,"ighb":3702,"RANSLATORS":3703,"Access":3704,"ows":3705,"verty":3706,"aced":3707,"Ġpoverty":3708,"oted":3709,"ĠSPD":3710,"DP":3711,"Ġparent":3712,"omes":3713,"ider":3714,"idth":3715,"ĠBh":3716,"Ġ2003":3717,"Ġstandard":3718,"Ġterrorism":3719,"Ġaimed":3720,"band":3721,"Ġage":3722,"ĠRussian":3723,"mp":3724,"ola":3725,"acity":3726,"ĠEnglish":3727,"fire":3728,"ires":3729,"ĠSar":3730,"abel":3731,"Ġdefence":3732,"Us":3733,"ula":3734,"Ġalt":3735,"Well":3736,"ĠSing":3737,"ikip":3738,"Ġtheme":3739,"Ġnine":3740,"Ġmasses":3741,"Ġengine":3742,"IM":3743,"Time":3744,"rated":3745,"Ġign":3746,"Ġdesktop":3747,"Min":3748,"Under":3749,"Ġwhite":3750,"Ġanything":3751,"Ġseries":3752,"Ġreturned":3753,"Disable":3754,"Every":3755,"bl":3756,"Ġsen":3757,"Ġsqu":3758,"ĠNAT":3759,"Ġexists":3760,"ĠDemocrats":3761,"Sy":3762,"ias":3763,"Ġcontain":3764,"Ġ2008":3765,"ĠSecurity":3766,"Ġexpressed":3767,"Ġanger":3768,"Ġabs":3769,"Ġicon":3770,"amous":3771,"Ġred":3772,"Ġresolution":3773,"Ġindividual":3774,"Ġdemocracy":3775,"Stencils":3776,"ferences":3777,"Description":3778,"Ġgold":3779,"Ġmatter":3780,"Ġ24":3781,"Ġcounter":3782,"ĠTurk":3783,"Ġcong":3784,"Ġexport":3785,"Ġnumbers":3786,"Ġplugin":3787,"Ġimpro":3788,"idden":3789,"Just":3790,"Ġil":3791,"ittee":3792,"Ġprepared":3793,"ĠSol":3794,"Ġnearly":3795,"Ġcommunal":3796,"ĠPhil":3797,"CR":3798,"Ġbad":3799,"Ġunc":3800,"Ġefforts":3801,"Writ":3802,"la":3803,"site":3804,"ĠCo":3805,"atever":3806,"Ġmanager":3807,"Ġ2000":3808,"Choose":3809,"Ġsin":3810,"race":3811,"Get":3812,"Ġsaved":3813,"Ġthus":3814,"ĠKer":3815,"Ġjoin":3816,"Ġpred":3817,"Ġsubject":3818,"Ġhigher":3819,"mar":3820,"Ġpot":3821,"Ġnav":3822,"alid":3823,"Ġball":3824,"Ġboy":3825,"Ġdoll":3826,"Ġprogress":3827,"Ġprotect":3828,"Ġbrothers":3829,"ironment":3830,"During":3831,"lt":3832,"ava":3833,"Ġpeoples":3834,"Ġterms":3835,"rish":3836,"Ġpra":3837,"ourt":3838,"Ġassist":3839,"25":3840,"Brasero":3841,"Ġopportun":3842,"Ġrepeated":3843,"Ġtreat":3844,"attle":3845,"orge":3846,"Ġhint":3847,"otal":3848,"Ġamb":3849,"Ġlikely":3850,"Ġexpression":3851,"ĠLabour":3852,"Sw":3853,"Ġwrong":3854,"Ġculture":3855,"ĠBal":3856,"perties":3857,"Ġlaunch":3858,"Ġopin":3859,"OW":3860,"ml":3861,"ĠAt":3862,"iban":3863,"Ġanswer":3864,"urb":3865,"ĠGre":3866,"ribute":3867,"Ġspokes":3868,"cast":3869,"son":3870,"Ġstock":3871,"irit":3872,"Ġchall":3873,"ĠChirac":3874,"Ġdraw":3875,"Ġalarm":3876,"pper":3877,"orted":3878,"Ġquick":3879,"Ġincident":3880,"ĠQu":3881,"new":3882,"ertical":3883,"Ġearlier":3884,"ĠPS":3885,"Ġenergy":3886,"Ġexplo":3887,"Ġcease":3888,"Europe":3889,"hent":3890,"ĠTelugu":3891,"ously":3892,"Ġoutput":3893,"undo":3894,"ikipedia":3895,"AV":3896,"ule":3897,"ĠDef":3898,"AND":3899,"Ġvisit":3900,"Ġconsidered":3901,"Ġfig":3902,"verage":3903,"urg":3904,"resp":3905,"Ġmanagement":3906,"ĠCommittee":3907,"based":3908,"Ġnone":3909,"Ġlack":3910,"Ġrespond":3911,"Ġincreasingly":3912,"ien":3913,"world":3914,"Ġ--":3915,"Ġsubst":3916,"airs":3917,"Ġvast":3918,"Ġprepar":3919,"Ġtemple":3920,"gn":3921,"Ġcou":3922,"Ġyesterday":3923,"ki":3924,"Ġshar":3925,"Ġprofit":3926,"istic":3927,"ĠBook":3928,"Ġvol":3929,"Ġjournal":3930,"Ġdidn":3931,"unga":3932,"Ġexisting":3933,"ocal":3934,"Ġscen":3935,"Ġwanted":3936,"ĠGame":3937,"Ġqueen":3938,"eban":3939,"Ġche":3940,"Ġpet":3941,"\">":3942,"ondon":3943,"comp":3944,"Ġpos":3945,"Ġneighb":3946,"format":3947,"itiz":3948,"Ġlock":3949,"ĠOr":3950,"Ġcalls":3951,"gr":3952,"Ġfalse":3953,"ĠSim":3954,"ĠFl":3955,"Ġalliance":3956,"Ġextra":3957,"Ġstandards":3958,"Ġcollapse":3959,"RU":3960,"Ġwage":3961,"Ġdaughter":3962,"Trans":3963,"Ġcontains":3964,"Ġelse":3965,"Ġauthorities":3966,"CK":3967,"ĠBar":3968,"acing":3969,"Ġens":3970,"Ġdisplayed":3971,"Ġlinks":3972,"like":3973,"ref":3974,"ĠSa":3975,"acific":3976,"ĠEelam":3977,"ĠJac":3978,"elled":3979,"Ġinvestment":3980,"Ġcertificate":3981,"atic":3982,"Ġstre":3983,"Ġentered":3984,"Ġhappened":3985,"ategory":3986,"//":3987,"Ġself":3988,"ĠType":3989,"ĠMessage":3990,"Ġsector":3991,"Ġpassed":3992,"ĠAfrica":3993,"PS":3994,"ming":3995,"vision":3996,"ĠFOR":3997,"Ġresources":3998,"Ġbourgeoisie":3999,"Ġalternative":4000,"Ġ.":4001,"Ġpie":4002,"Ġincluded":4003,"Ġterrorist":4004,"Ġparliamentary":4005,"Ser":4006,"adi":4007,"Ġgone":4008,"Ġdeg":4009,"://":4010,"ients":4011,"anj":4012,"ented":4013,"Ġcompl":4014,"Ġpersonal":4015,"ĠWhat":4016,"Ġsetting":4017,"Fil":4018,"Ġver":4019,"itness":4020,"Ġmind":4021,"ĠApp":4022,"Ġremain":4023,"16":4024,"athe":4025,"ĠPost":4026,"ully":4027,"Ġconsequ":4028,"ĠYOU":4029,"Ġproperty":4030,"oral":4031,"iter":4032,"Ġinfluence":4033,"AB":4034,"OV":4035,"Send":4036,"time":4037,"Ġdie":4038,"ĠBE":4039,"Ġsex":4040,"Ġimmediate":4041,"ĠParis":4042,"NU":4043,"itled":4044,"Ġanim":4045,"ĠTRANSLATORS":4046,"iyar":4047,"thi":4048,"Ġwoman":4049,"Ġilleg":4050,"Here":4051,"izing":4052,"Ġprinter":4053,"cher":4054,"lig":4055,"Ġtrust":4056,"ique":4057,"mission":4058,"encies":4059,"Ġnoted":4060,"Ġsecretary":4061,"Ġsupposed":4062,"Ġanswered":4063,"Ġfailure":4064,"Up":4065,"Ġcalling":4066,"ehold":4067,"rilanka":4068,"Oh":4069,"ares":4070,"Ġbrow":4071,"ript":4072,"ĠWS":4073,"ĠOn":4074,"Ġgreater":4075,"Ġsimply":4076,"oid":4077,"Ġcustom":4078,"Ġplease":4079,"Ġlate":4080,"Ġge":4081,"uty":4082,"Ġuseful":4083,"Ġsite":4084,"ĠTem":4085,"ĠLeban":4086,"Ġneeded":4087,"Ġactivities":4088,"ĠRepublican":4089,"Ġpurp":4090,"Me":4091,"Ġhuge":4092,"road":4093,"usse":4094,"Ġrot":4095,"eva":4096,"Ġshows":4097,"Ġceleb":4098,"CI":4099,"Ġfarm":4100,"aling":4101,"Ġchair":4102,"ryption":4103,"Ġcontract":4104,"Ġimpact":4105,"Down":4106,"tamil":4107,"Ġhope":4108,"istrict":4109,"198":4110,"Ġliter":4111,"Ġburnt":4112,"Hide":4113,"Ġcinem":4114,"ĠBJP":4115,"Ġstrategic":4116,"List":4117,"orry":4118,"illa":4119,"ĠError":4120,"mbols":4121,"ĠON":4122,"Ġimperialist":4123,"NOME":4124,"Next":4125,"Ġsplit":4126,"Ġdirection":4127,"ledge":4128,"ĠHindu":4129,"Ġtwent":4130,"ĠWSWS":4131,"oor":4132,"ĠGroup":4133,"ĠAssoci":4134,"âĻ":4135,"Ġ*":4136,"Ġpal":4137,"Ġdrag":4138,"vement":4139,"istory":4140,"ĠCourt":4141,"ushar":4142,"ossible":4143,"Ġrefug":4144,"Ġriver":4145,"Ġgir":4146,"ĠGeorg":4147,"Ġvictory":4148,"Ġfriends":4149,"comm":4150,"his":4151,"Ġtensions":4152,"Ġwages":4153,"Ġet":4154,"imately":4155,"Ġ2006":4156,"Ġheaven":4157,"ept":4158,"gment":4159,"Ġtree":4160,"Ġwall":4161,"aterial":4162,"coming":4163,"Ġcandidates":4164,"Ġlimited":4165,"Ġunemployment":4166,"First":4167,"pid":4168,"ocol":4169,"oke":4170,"Ġpropos":4171,"Ġmoved":4172,"Ġapplications":4173,"Ġseparate":4174,"Current":4175,"date":4176,"ogg":4177,"Ġwarning":4178,"Ġscript":4179,"Hel":4180,"Mar":4181,"ĠOpen":4182,"Ġcontent":4183,"ribution":4184,"orkers":4185,"Black":4186,"Ġwithdraw":4187,"rif":4188,"Ġkingdom":4189,"Ġlaws":4190,"ĠKorea":4191,"Ġcriminal":4192,"Type":4193,"ĠIM":4194,"ĠBhar":4195,"Ġgovern":4196,"Ġenabled":4197,"ĠAustralian":4198,"Hey":4199,"edd":4200,"ctors":4201,"Ġemail":4202,"Ġquestions":4203,"usharraf":4204,"14":4205,"Two":4206,"rang":4207,"About":4208,"Ġdrink":4209,"ĠSunday":4210,"ĠLondon":4211,"Ġcurs":4212,"Colour":4213,"Ġalmost":4214,"Ġorganisations":4215,"ĠMonday":4216,"Ph":4217,"ection":4218,"Ġsle":4219,"Ġmouse":4220,"Ġelement":4221,"elt":4222,"Ġsoftware":4223,"Ġdrawn":4224,"Ġlegis":4225,"Ġresearch":4226,"Ġprinc":4227,"atures":4228,"ĠPublic":4229,"ounded":4230,"isco":4231,"ĠHindi":4232,"Constellation":4233,"oned":4234,"atal":4235,"rain":4236,"chie":4237,"ĠTal":4238,"Ġsection":4239,"ignment":4240,"Ġindustrial":4241,"Ġprices":4242,"anguages":4243,"Ġstrikes":4244,"Ġfreedom":4245,"arily":4246,"ĠST":4247,"ĠSw":4248,"Ġgoes":4249,"Ġfathers":4250,"Ġorganisation":4251,"Ġprobably":4252,"Ġopinion":4253,"ners":4254,"Ġmap":4255,"Ġreb":4256,"Ġprec":4257,"Ġintervention":4258,"ĠRajini":4259,"Direct":4260,"Sub":4261,"Ġsk":4262,"Ġmur":4263,"ĠBut":4264,"Ġclearly":4265,"Ġcalcul":4266,"pecially":4267,"ussein":4268,"tr":4269,"Ġaf":4270,"ĠStreet":4271,"197":4272,"atunga":4273,"iment":4274,"ĠID":4275,"una":4276,"Ġdisp":4277,"Ġreceive":4278,"Ġremoved":4279,"Ġresponsibility":4280,"Look":4281,"lay":4282,"Ġpen":4283,"ader":4284,"acle":4285,"aith":4286,"ister":4287,"Ġlayers":4288,"rolled":4289,"ĠGree":4290,"ipboard":4291,"Ġcentre":4292,"Ġdeveloped":4293,"ĠPakistani":4294,"Clear":4295,"ĠSat":4296,"Ġassault":4297,"Ġvotes":4298,"Ġelements":4299,"ĠCH":4300,"Ġscale":4301,"ATION":4302,"Ġwindows":4303,"symbols":4304,"Ġmethods":4305,"Ġnatural":4306,"ague":4307,"Ġshut":4308,"ivity":4309,"ĠJew":4310,"Ġcorporate":4311,"ATE":4312,"Off":4313,"orrow":4314,"see":4315,"Ġessential":4316,"uf":4317,"Ġtried":4318,"ili":4319,"Ġlies":4320,"ĠColor":4321,"ĠNATO":4322,"cers":4323,"ux":4324,"ĠMod":4325,"Ġaccused":4326,"Ġcrimes":4327,"pected":4328,"Ġproducer":4329,"force":4330,"Ġlaun":4331,"Most":4332,"Ġcode":4333,"Ġste":4334,"ĠDel":4335,"Ġroom":4336,"Ġparam":4337,"18":4338,"ores":4339,"Ġfast":4340,"Those":4341,"Ġtechnology":4342,"MB":4343,"ĠCity":4344,"Ġpray":4345,"Att":4346,"Ġnegotiations":4347,"Ġcitiz":4348,"cell":4349,"ĠMr":4350,"aji":4351,"Ġrules":4352,"Ġdipl":4353,"Ġterrit":4354,"Ġsafe":4355,"Ġgames":4356,"Ġdele":4357,"Ġ22":4358,"Ġimmigr":4359,"Follow":4360,"map":4361,"Ġtill":4362,"Ġmaintain":4363,"Ġsecure":4364,"âĻª":4365,"oud":4366,"oding":4367,"osen":4368,"ĠFilter":4369,"Because":4370,"Fl":4371,"gin":4372,"Ġachie":4373,"Ġpict":4374,"Ġstated":4375,"Ġproceed":4376,"ĠUp":4377,"ĠInformation":4378,"Ġraised":4379,"aters":4380,"alai":4381,"Ġpaper":4382,"Ġmatch":4383,"Ġreach":4384,"agar":4385,"oreign":4386,"thern":4387,"ountry":4388,"Ġwants":4389,"Ġtruth":4390,"Ġdepart":4391,"mall":4392,"Ġbelong":4393,"Ġ\\":4394,"Ġhon":4395,"ĠTigers":4396,"Ġkept":4397,"Ġregular":4398,"Asia":4399,"Ġrevolutionary":4400,"mir":4401,"rase":4402,"Ġsac":4403,"left":4404,"entagon":4405,"sec":4406,"Ġintens":4407,"Ġseems":4408,"15":4409,"ĠAtt":4410,"Ġclosed":4411,"overed":4412,"ĠTamilnadu":4413,"Ġprograms":4414,"Ġaccepted":4415,"Like":4416,"PE":4417,"atha":4418,"Ġfoundation":4419,"Ġedit":4420,"Act":4421,"xy":4422,"Ġ26":4423,"Ġ60":4424,"Ġlooking":4425,"Ġdenoun":4426,"ĠEditor":4427,"yr":4428,"ĠHussein":4429,"Ġstrength":4430,"Game":4431,"Ġpract":4432,"Ġresol":4433,"Ġbroken":4434,"Ġstatements":4435,"Ġmarkets":4436,"Ġlayout":4437,"Ob":4438,"va":4439,"Ġsolution":4440,"Ġmention":4441,"Ġdaily":4442,"ache":4443,"Ġ21":4444,"iction":4445,"Ġlower":4446,"dad":4447,"Ġcases":4448,"ĠAg":4449,"Ġwars":4450,"Ġautomatically":4451,"ĠGreens":4452,"Rep":4453,"Split":4454,"\\.":4455,"Ġtri":4456,"olly":4457,"Ġcondem":4458,"Ġvirt":4459,"Ġperman":4460,"Ġspending":4461,"Ġindependence":4462,"Ġemergency":4463,"ĠIslamic":4464,"DI":4465,"oring":4466,"icit":4467,"Ġhar":4468,"olid":4469,"ĠAng":4470,"Ġstood":4471,"ĠHTML":4472,"lication":4473,"Ġpresence":4474,"Ġconcerned":4475,"Comm":4476,"can":4477,"pan":4478,"estival":4479,"ĠFin":4480,"Ġvari":4481,"ĠInternet":4482,"aza":4483,"aghdad":4484,"OS":4485,"nel":4486,"Ġill":4487,"ĠÃ¢":4488,"Ġstation":4489,"akh":4490,"Ġknew":4491,"White":4492,"che":4493,"ille":4494,"Ġalle":4495,"Ġpotential":4496,"CE":4497,"rim":4498,"sing":4499,"ĠKamal":4500,"Ġarch":4501,"Ne":4502,"Reg":4503,"Ġnet":4504,"Ġ23":4505,"Ġetc":4506,"LY":4507,"Red":4508,"Ġpane":4509,"Ġmid":4510,"erson":4511,"ĠHar":4512,"cles":4513,"Ġencoura":4514,"ĠDesktop":4515,"sembly":4516,"'d":4517,"Ġmoving":4518,"Ġadditional":4519,"Ġstarting":4520,"Ġpages":4521,"ĠLic":4522,"Ġkings":4523,"\",":4524,"wood":4525,"Ġlabour":4526,"Despite":4527,"Ġdefeat":4528,"IME":4529,"where":4530,"Ġswe":4531,"lex":4532,"iled":4533,"ums":4534,"Ġorg":4535,"Ġcenter":4536,"Ġlevels":4537,"Ġdebt":4538,"Ġpackage":4539,"Ġscenes":4540,"ĠTe":4541,"Ġunknown":4542,"Ġarri":4543,"Ġ1990":4544,"Ġinsisted":4545,"Right":4546,"ayalam":4547,"Ġrock":4548,"Who":4549,"Ġcoordin":4550,"Ġdemonstrations":4551,"Both":4552,"tp":4553,"Ġfederal":4554,"Ġbill":4555,"Ġextreme":4556,"Ġvoters":4557,"Ġcommittee":4558,"Ġcompletely":4559,"Ġdoubt":4560,"onial":4561,"esp":4562,"ĠRem":4563,"que":4564,"ATH":4565,"Ġresults":4566,"Ġregional":4567,"Custom":4568,"Ġple":4569,"Ġ2005":4570,"IST":4571,"Ġvictim":4572,".,":4573,"Rest":4574,"going":4575,"Ġeditorial":4576,"alysis":4577,"Ġtou":4578,"olas":4579,"andhi":4580,"cluded":4581,"Any":4582,"ĠLiberation":4583,"och":4584,"ashed":4585,"ĠSize":4586,"ĠCar":4587,"ankar":4588,"Ġprice":4589,"ART":4590,"Ġplayer":4591,"Ġservants":4592,"Ġheader":4593,"Ġdescribed":4594,"Ġenvironment":4595,"BAR":4596,"None":4597,"Ġi":4598,"Ġmouth":4599,"icip":4600,"ĠAL":4601,"Ġstore":4602,"ĠBab":4603,"Ġunable":4604,"ĠSelection":4605,"Ġfigures":4606,"Load":4607,"body":4608,"onents":4609,"ĠPentagon":4610,"Bo":4611,"May":4612,"Ġtag":4613,"held":4614,"Ġwatch":4615,"Ġbread":4616,"oto":4617,"ĠAh":4618,"hold":4619,"Ġfigure":4620,"antly":4621,"Ġdisk":4622,"Ġregions":4623,"Ġkilling":4624,"Ġlimit":4625,"ĠServer":4626,"Come":4627,"ĠBaghdad":4628,"Ġusers":4629,"Ġscient":4630,"Ġsettle":4631,"evice":4632,"Ġpaid":4633,"ayan":4634,"Ġpoliticians":4635,"Ġwritable":4636,"Ġburned":4637,"Ġrupe":4638,"Ġrejected":4639,"Ġlaunched":4640,"pi":4641,"Ġmaterial":4642,"Ġweak":4643,"Ġannounce":4644,"Ġplaced":4645,"Ġpixels":4646,"Accessible":4647,"Pe":4648,"Size":4649,"sun":4650,"inite":4651,"atist":4652,"Ġnorthern":4653,"ĠMusharraf":4654,"aces":4655,"ormat":4656,"ĠTamils":4657,"Ġfinance":4658,"Ġwriting":4659,"Ġdemonstration":4660,"Moreover":4661,"lies":4662,"Ġmis":4663,"ĠSite":4664,"enda":4665,"Ġresistance":4666,"Ġattacked":4667,"Ġseconds":4668,"ris":4669,"Ġvert":4670,"Ġameric":4671,"rog":4672,"Ġrepl":4673,"Ġpros":4674,"Ġchau":4675,"inton":4676,"Ġfucking":4677,"kar":4678,"Ġoffensive":4679,"Ġscheme":4680,"Ġwond":4681,"ĠTime":4682,"ivered":4683,"Ġfoot":4684,"Ġholy":4685,"oday":4686,"Close":4687,"Par":4688,"Ġoffered":4689,"ijing":4690,"24":4691,"UT":4692,"Ġsell":4693,"esh":4694,"amm":4695,"ĠSiv":4696,"Ġinstit":4697,"Ġmemory":4698,"ifying":4699,"Indian":4700,"Ġhistorical":4701,"Ġillegal":4702,"arant":4703,"oked":4704,"Ġservant":4705,"Ġprivat":4706,"Be":4707,"Ã¶":4708,"ĠCIA":4709,"usband":4710,"ĠTaliban":4711,"Cent":4712,"Vertical":4713,"Ġwitness":4714,"ĠKey":4715,"Ġplanned":4716,"General":4717,"eting":4718,"Ġrich":4719,"Ġroad":4720,"Ġsoul":4721,"BC":4722,"User":4723,"page":4724,"Ġfamous":4725,"ald":4726,"ĠJay":4727,"Ġexpress":4728,"Ġcompleted":4729,"Ġcriticism":4730,"Such":4731,"Ġsword":4732,"Ġdatabase":4733,"Therefore":4734,"ĠProperties":4735,"Group":4736,"Of":4737,"rich":4738,"wide":4739,"Ġdocuments":4740,"raft":4741,"aste":4742,"Ġforms":4743,"Ġwidesp":4744,"Ġespecially":4745,"Ġceasefire":4746,"Ġwidespread":4747,"AME":4748,"nic":4749,"Ġwest":4750,"ĠFour":4751,"ĠAddress":4752,"ĠBerlin":4753,"Keep":4754,"rec":4755,"ster":4756,"estic":4757,"Ġbless":4758,"Chile":4759,"Ġdelivered":4760,"Ġbooks":4761,"Burning":4762,"Ġreligious":4763,"Ġways":4764,"Ġhop":4765,"Ġhref":4766,"enth":4767,"ĠWall":4768,"Ġinjured":4769,"iB":4770,"Ã¼":4771,"Ġreached":4772,"Ġcomments":4773,"Ġcharacters":4774,"ĠGeorge":4775,"Ġmobil":4776,"Make":4777,"Ġlibrary":4778,"ids":4779,"aine":4780,"Ġ27":4781,"Ġarm":4782,"Maximum":4783,"inet":4784,"atory":4785,"Ġheat":4786,"ategy":4787,"quer":4788,"Its":4789,"Ġstrategy":4790,"ĠSelect":4791,"Ġrapid":4792,"Ġgiving":4793,"Ġtransport":4794,"Ġdemanded":4795,"Ġappeal":4796,"Ġconsequences":4797,"Ġpain":4798,"iven":4799,"ĠOut":4800,"Ġpointed":4801,"Ġbureaucracy":4802,"lege":4803,"ĠPen":4804,"ĠKing":4805,"assword":4806,"Ġdoor":4807,"AMIL":4808,"Ġaverage":4809,"ouble":4810,"ett":4811,"quest":4812,"Ġlaid":4813,"elfare":4814,"Ġchairman":4815,"bit":4816,"jith":4817,"screen":4818,"Ġwish":4819,"ĠSub":4820,"Ġserve":4821,"ĠDepartment":4822,"AK":4823,"Ġbann":4824,"ĠSu":4825,"ander":4826,"Ġrespect":4827,"Ġsocialism":4828,"Ġpowerful":4829,"Ġiniti":4830,"Ġflow":4831,"Ġborn":4832,"Ġdrop":4833,"uram":4834,"http":4835,"Ġrelationship":4836,"using":4837,"Ġpoll":4838,"Ġitems":4839,"Ġcollabor":4840,"ĠComp":4841,"Ġargument":4842,"Ġsenior":4843,"Af":4844,"Mark":4845,"Ġbirth":4846,"ĠPL":4847,"ĠBen":4848,"unk":4849,"ĠRev":4850,"Ġmurder":4851,"yond":4852,"Ġeth":4853,"ĠTrans":4854,"Ġwaste":4855,"Ġrisk":4856,"Ġchosen":4857,"Ġmodel":4858,"Ġincome":4859,"Ġstrengthen":4860,"EX":4861,"Rec":4862,"uzz":4863,"Ġmanner":4864,"Ġenable":4865,"Ġdescription":4866,"199":4867,"Ġcaptured":4868,"amy":4869,"raz":4870,"ĠTable":4871,"ĠEl":4872,"Ġreligion":4873,"ERS":4874,"Cisco":4875,"OK":4876,"Part":4877,"oe":4878,"anish":4879,"Ġdig":4880,"ĠAct":4881,"ĠMe":4882,"Ġ193":4883,"Ġformed":4884,"Ġgives":4885,"oggle":4886,"Ġcursor":4887,"End":4888,"book":4889,"Ġfully":4890,"change":4891,"ĠMon":4892,"Ġchance":4893,"ĠThir":4894,"ENT":4895,"riday":4896,"Ġdiscussion":4897,"Horizontal":4898,"mm":4899,"Ġtrial":4900,"ables":4901,"ultural":4902,"Ġteacher":4903,"Ġspokesman":4904,"ÂĢ":4905,"enge":4906,"Ġhour":4907,"ĠJose":4908,"ĠChar":4909,"Ġdespite":4910,"Another":4911,"Ġdepartment":4912,"Ġkeys":4913,"ological":4914,"Ġelected":4915,"ĠNations":4916,"Ġminutes":4917,"Ġspoken":4918,"Ġencrypt":4919,"ĠLebanon":4920,"ÂĢÂ":4921,"Ġslow":4922,"eline":4923,"Ġallies":4924,"Ġattach":4925,"Export":4926,"Ġtelevision":4927,"label":4928,"Ġfif":4929,"Ġbeyond":4930,"Imp":4931,"Ġlargely":4932,"Ġaffected":4933,"ĠKumaratunga":4934,"Ġrupees":4935,"Cance":4936,"Ġsens":4937,"Ġfocus":4938,"Ġlie":4939,"ĠIT":4940,"Ġult":4941,"Ġrequire":4942,"Ġhighlight":4943,"Ġarrested":4944,"athered":4945,"Mod":4946,"Raj":4947,"Ġpan":4948,"Ġoppose":4949,"Ġremote":4950,"menu":4951,"ributed":4952,"aire":4953,"item":4954,"Ġlik":4955,"Ġuns":4956,"ĠAmericans":4957,"ĠSyria":4958,"Generic":4959,"ĠAssociation":4960,"Ġalleged":4961,"Where":4962,"but":4963,"Ġship":4964,"Ġprim":4965,"Ġaccom":4966,"Ġfeature":4967,"Ġrestrict":4968,"Ġsurround":4969,"IGH":4970,"Ġ#":4971,"Ġtim":4972,"Ġgun":4973,"ĠBudd":4974,"Ġmilitar":4975,"Ġreasons":4976,"Ġeuro":4977,"Ġsuitable":4978,"Ġmeasure":4979,"Ġestimated":4980,"ni":4981,"Ġ]":4982,"Ġhusband":4983,"imb":4984,"Ġrat":4985,"ĠDet":4986,"Ġwild":4987,"Ġgathered":4988,"Ġperform":4989,"Spec":4990,"LTTE":4991,"Video":4992,"Ġclean":4993,"ĠPage":4994,"Ġspirit":4995,"Ġcoast":4996,"Ġspecific":4997,"Ġhouses":4998,"hentication":4999,"den":5000,"yper":5001,"ica":5002,"ĠSury":5003,"ĠBack":5004,"iforn":5005,"essages":5006,"ĠKon":5007,"Ġcommanded":5008,"ĠUNP":5009,"gram":5010,"Ġtort":5011,"Ġinput":5012,"Their":5013,"Ġrelated":5014,"Ġeverything":5015,"Ġguarant":5016,"Ġthreatened":5017,"17":5018,"eous":5019,"Ġ:":5020,"ĠAz":5021,"agan":5022,"Ġrange":5023,"Ġjack":5024,"Ġindia":5025,"IF":5026,"TP":5027,"rust":5028,"Ġlanguages":5029,"igration":5030,"Ġstars":5031,"ulated":5032,"resents":5033,"osite":5034,"Stock":5035,"ĠAsian":5036,"Ġdoesn":5037,"Color":5038,"Ġsymbolic":5039,"Ġtypes":5040,"CL":5041,"eda":5042,"riv":5043,"ĠMove":5044,"Ġdeploy":5045,"ĠLayer":5046,"ĠFound":5047,"lief":5048,"Ġplaying":5049,"MENT":5050,"Ġ1999":5051,"Ġopportunity":5052,"Message":5053,"omon":5054,"riage":5055,"andom":5056,"oph":5057,"Ġsurv":5058,"Ġcalendar":5059,"Ġmedical":5060,"Okay":5061,"ception":5062,"ĠAre":5063,"ifies":5064,"ĠForeign":5065,"ĠVal":5066,"Ġacted":5067,"Ġroot":5068,"Ġinstance":5069,"Ġofficers":5070,"Ġdemanding":5071,"Ġsummit":5072,"Ġreactionary":5073,"itz":5074,"itha":5075,"Ġconcess":5076,"Ġattention":5077,"rence":5078,"Ġorganization":5079,"ĠGovernment":5080,"www":5081,"Ġassociated":5082,"LD":5083,"ĠUse":5084,"Ġworth":5085,"uster":5086,"Ġanyone":5087,"Ġremark":5088,"ĠSharon":5089,"uesday":5090,"Ġproposed":5091,"Copying":5092,"Read":5093,"jo":5094,"joy":5095,"van":5096,"onia":5097,"ĠMo":5098,"ĠBrasero":5099,"Ġrising":5100,"Ġunit":5101,"Ġquar":5102,"Ġcharges":5103,"Ġholding":5104,"Ġcommitted":5105,"Ġdomestic":5106,"Ġfarmers":5107,"Siv":5108,"efore":5109,"Ġbacked":5110,"Ġrelative":5111,"Ġexplos":5112,"Ġvoted":5113,"Ġministers":5114,"Help":5115,"Ag":5116,"state":5117,"ĠSH":5118,"eters":5119,"ĠAS":5120,"ubb":5121,"ertificate":5122,"Ġobt":5123,"Ġcaused":5124,"Ġvisible":5125,"Ġsacrif":5126,"80":5127,"Log":5128,"ÃĹ":5129,"aging":5130,"ortcut":5131,"ĠUniversity":5132,"Ġdownload":5133,"Ġdenied":5134,"Port":5135,"Ġtrou":5136,"Ġcamera":5137,"Following":5138,"ifornia":5139,"ĠMa":5140,"tection":5141,"Ġconfir":5142,"Ġblank":5143,"Ġhappen":5144,"Ġconcerns":5145,"):":5146,"Ġsn":5147,"aman":5148,"ĠFree":5149,"apore":5150,"Ġopening":5151,"wards":5152,"Ġbrut":5153,"ĠPalestinians":5154,"yan":5155,"Ġfaction":5156,"ason":5157,"ĠFont":5158,"Ġexam":5159,"rican":5160,"India":5161,"Ġradio":5162,"ĠMer":5163,"Ġcontrad":5164,"Ġstudent":5165,"radient":5166,"ĠSpain":5167,"Ġhighest":5168,"NAME":5169,"Ġcitizens":5170,"Draw":5171,"Ge":5172,"pa":5173,"Ġ=":5174,"Ġsir":5175,"Ġcop":5176,"Ġdro":5177,"ĠNote":5178,"Ġcorrupt":5179,"Ġfacilities":5180,"Ġexperience":5181,"ĠJacob":5182,"German":5183,"Ġmom":5184,"Ġ195":5185,"Ġgets":5186,"Ġruled":5187,"ILL":5188,"ĠWindows":5189,"Ġprisoners":5190,"Install":5191,"rees":5192,"Ġagenda":5193,"ĠOff":5194,"Ġcompared":5195,"Ġprinci":5196,"Ġstopped":5197,"Ġsubstant":5198,"pg":5199,"sum":5200,"arge":5201,"Ġhidden":5202,"ĠTV":5203,"ĠMoh":5204,"obo":5205,"Ġpolitically":5206,"Ġconstit":5207,"Ġwebsite":5208,"gressive":5209,"Simulation":5210,"ufact":5211,"Data":5212,"riya":5213,"ĠJos":5214,"Ġinternal":5215,"Ġrepor":5216,"Ġactors":5217,"Ġscene":5218,"Stop":5219,"Ġended":5220,"Ġrepresents":5221,"Ġfactor":5222,"Ġterm":5223,"Ġequals":5224,"ĠDown":5225,"ĠIranian":5226,"CF":5227,"GL":5228,"Ġir":5229,"Ġcross":5230,"oured":5231,"Ġimplic":5232,"ervative":5233,"Ġquickly":5234,"itial":5235,"ednes":5236,"aras":5237,"rak":5238,"rie":5239,"Ġinvalid":5240,"Ġconsum":5241,"Ġadvanced":5242,"Ġtraditional":5243,"ednesday":5244,"cient":5245,"iot":5246,"Ġaware":5247,"aka":5248,"Ġ29":5249,"Ġpersonnel":5250,"Ġorganiz":5251,"Ġcorporations":5252,"Ġescal":5253,"ITH":5254,"ĠGNOME":5255,"Ġdeliver":5256,"Ġpriests":5257,"Ġcreating":5258,"that":5259,"Ġcontext":5260,"Ġknowledge":5261,"Ġcharge":5262,"minent":5263,"Ġcommunity":5264,"regation":5265,"Ġbottom":5266,"Ġlif":5267,"Ġgra":5268,"Ġchoice":5269,"Ġremains":5270,"Ġopenly":5271,"Ġsignature":5272,"ĠBeijing":5273,"Ġliterature":5274,"PG":5275,"Ġfigh":5276,"entation":5277,"ĠFriday":5278,"ĠWith":5279,"Ġdisapp":5280,"ashmir":5281,"pha":5282,"Exp":5283,"Ġdeleted":5284,"Our":5285,"unction":5286,"Ġagree":5287,"Ġyourself":5288,"Ġextension":5289,"ĠAlliance":5290,"write":5291,"Gu":5292,"has":5293,"Ġcir":5294,"ĠAT":5295,"ocks":5296,"Ġinsur":5297,"Ġexpand":5298,"Ġrefer":5299,"Ġcivilian":5300,"Ġmultiple":5301,"Ġcinema":5302,"High":5303,"Ġreality":5304,"ĠSaul":5305,"celer":5306,"ĠPaul":5307,"Thir":5308,"Never":5309,"Ġsort":5310,"ulations":5311,"Ġ28":5312,"ĠImport":5313,"Ġpreviously":5314,"Ġinvestigation":5315,"Ġpurpose":5316,"Date":5317,"from":5318,"Ġbail":5319,"ishing":5320,"Ġrequested":5321,"affna":5322,"Ġsouthern":5323,"40":5324,"cious":5325,"orders":5326,"Ġshell":5327,"Ġdecline":5328,"ĠItaly":5329,"standing":5330,"ĠControl":5331,"Page":5332,"pad":5333,"paper":5334,"Ġtru":5335,"Ġsight":5336,"Ġnormal":5337,"Ġstaff":5338,"ills":5339,"ĠTuesday":5340,"ĠDPI":5341,"ĠClinton":5342,"Ġdise":5343,"Ġoutl":5344,"class":5345,"Ġeveryone":5346,"Ġadvance":5347,"Ġbiggest":5348,"Ġsearching":5349,"queror":5350,"ico":5351,"Ġeld":5352,"ender":5353,"ANG":5354,"Ġprogramme":5355,"Ġfeed":5356,"Ġfeet":5357,"Ġpattern":5358,"ĠRevolution":5359,"lied":5360,"Ġsending":5361,"Ġcas":5362,"Ġpush":5363,"ĠMc":5364,"ĠWednesday":5365,"ERE":5366,"ESS":5367,"Ġobjects":5368,"Ġcosts":5369,"GT":5370,"bon":5371,"run":5372,"Ġfaith":5373,"Ġbattle":5374,"Ġgather":5375,"iff":5376,"Ġscience":5377,"Ġassistance":5378,"Ġtracks":5379,"Ġrepresentatives":5380,"SSP":5381,"under":5382,"erc":5383,"Ġcab":5384,"anna":5385,"Ġquite":5386,"lesh":5387,"Ġsheet":5388,"Ġcrime":5389,"Ġcrash":5390,"Ġcooper":5391,"Ġcorresp":5392,"Ġallows":5393,"osphere":5394,"Ġcouncil":5395,"Auto":5396,"Ġgrand":5397,"Ġenemies":5398,"SO":5399,"Take":5400,"mary":5401,"Ġwel":5402,"ĠARE":5403,"ĠMich":5404,"ĠGreen":5405,"ĠURI":5406,"ogl":5407,"Ġpermission":5408,"Ġrighteous":5409,"GH":5410,"Ġsab":5411,"Ġwelfare":5412,"Ġcub":5413,"Ġoften":5414,"olute":5415,"owed":5416,"ĠGNU":5417,"Ġplug":5418,"Ġassass":5419,"Ġcircles":5420,"ĠPath":5421,"Ġnotify":5422,"rief":5423,"Ġrural":5424,"Ġcontinuing":5425,"ĠCalifornia":5426,"Ġgirl":5427,"fect":5428,"sid":5429,"Ġfra":5430,"Ġfirm":5431,"abad":5432,"ĠDay":5433,"ends":5434,"Ġactress":5435,"ĠInst":5436,"Art":5437,"Ġparticipated":5438,"addam":5439,"Ġeru":5440,"Ġinstitutions":5441,"icient":5442,"Ġnar":5443,"Ġnature":5444,"oming":5445,"raj":5446,"ela":5447,"ĠPort":5448,"Ġwhatever":5449,"ALL":5450,"Ġreforms":5451,"Ġrefugees":5452,"CC":5453,"MS":5454,"Sl":5455,"Ġhot":5456,"iger":5457,"ĠWestern":5458,"quir":5459,"Thus":5460,"Ġcollect":5461,"aching":5462,"Ġadding":5463,"Ġcamps":5464,"Ġspecify":5465,"Ġdelay":5466,"Ġlegit":5467,"Ġindicated":5468,"enuine":5469,"Tool":5470,"rd":5471,"alt":5472,"Ġbeaut":5473,"ĠSup":5474,"terror":5475,"ĠGaza":5476,"Ġclipboard":5477,"Ġpriority":5478,"Ġshowed":5479,"Ġavoid":5480,"mitted":5481,"Ġappeared":5482,"Audio":5483,"isher":5484,"Ġban":5485,"icial":5486,"urday":5487,"Ġdeleg":5488,"Ġarms":5489,"ruit":5490,"Ġletters":5491,"Em":5492,"Ġmach":5493,"icro":5494,"emb":5495,"Ġagg":5496,"Ġaband":5497,"ateral":5498,"Deal":5499,"Ġdebate":5500,"Ġauto":5501,"ĠSolomon":5502,"Sign":5503,"ĠCON":5504,"ĠPhar":5505,"ĠReg":5506,"connect":5507,"Ġarg":5508,"Ġarrang":5509,"Ġfinally":5510,"Ġcontinues":5511,"Ġrequires":5512,"eader":5513,"adesh":5514,"ĠManager":5515,"Ġgeneration":5516,"Ġcritical":5517,"Ġbombing":5518,"Ġdouble":5519,"Ġordinary":5520,"Ġrevealed":5521,"GenericName":5522,"Rot":5523,"spe":5524,"abil":5525,"ĠEd":5526,"Ġwilling":5527,"nections":5528,"Ġfacing":5529,"Ġbelieved":5530,"after":5531,"iam":5532,"Ġsides":5533,"Ġgraph":5534,"ĠLink":5535,"Ġdisaster":5536,"conomic":5537,"Ġaddition":5538,"Ġdeclaring":5539,"Ġnationalist":5540,"Ġbusy":5541,"Ġminimum":5542,"Ġdifferences":5543,"Ġappears":5544,"Ġoriginal":5545,"Ġfuel":5546,"ĠII":5547,"Ġ2009":5548,"Ġdivisions":5549,"sunami":5550,"Ġwave":5551,"cean":5552,"ĠLog":5553,"Ġdiss":5554,"Ġenjoy":5555,".)":5556,"FP":5557,"card":5558,"Ġfle":5559,"Ġdream":5560,"ĠServ":5561,"ĠChand":5562,"Ġfunds":5563,"Filter":5564,"ĠFourth":5565,"Having":5566,"Script":5567,"Toggle":5568,"Ġwiki":5569,"olk":5570,"ette":5571,"ĠCheck":5572,"Ġpled":5573,"Ġadop":5574,"ruption":5575,"Ġserved":5576,"Ġevening":5577,"Ġmeaning":5578,"Ġcredit":5579,"Ġaltar":5580,"Ġtwenty":5581,"ĠInter":5582,"Ġprovince":5583,"Ġinstru":5584,"Ġsurpr":5585,"Ġhostility":5586,"Ġproperly":5587,"Ġtranslate":5588,"Ġrepeatedly":5589,"Ġfans":5590,"Ġseats":5591,"Ġspeaking":5592,"Ġobser":5593,"Ġstruggles":5594,"Network":5595,"Ġbul":5596,"urt":5597,"ĠAcc":5598,"ĠPoint":5599,"aven":5600,"Ġregist":5601,"Ġbacking":5602,"Ġassert":5603,"Ġfactory":5604,"Ġconstruction":5605,"Ġ1980":5606,"Ġensure":5607,"ooth":5608,"Ġap":5609,"Ġdance":5610,"ador":5611,"ĠFrom":5612,"ĠRed":5613,"ĠJaffna":5614,"Should":5615,"Ġdevast":5616,"ropri":5617,"ĠExp":5618,"Ġbenefits":5619,"EMA":5620,"inent":5621,"arat":5622,"ĠSL":5623,"Ġsyn":5624,"Ġconducted":5625,"Switch":5626,"Mer":5627,"uit":5628,"ĠSystem":5629,"Ġphotos":5630,"Ġcircum":5631,"cow":5632,"itarian":5633,"Ġfir":5634,"Ġinhab":5635,"vere":5636,"apital":5637,"Ġcontaining":5638,"Ġmanufact":5639,"Ġimposed":5640,"olitical":5641,"ĠDelhi":5642,"Val":5643,"ship":5644,"Ġsources":5645,"Ġflesh":5646,"Ġgen":5647,"ĠBa":5648,"ĠJo":5649,"Ġdismiss":5650,"Ġsomeone":5651,"Ġphone":5652,"Ġbankrupt":5653,"American":5654,"Ġjudge":5655,"Ġmissing":5656,"Ġvictims":5657,"MAN":5658,"isf":5659,"agu":5660,"ĠPrab":5661,"Ġcond":5662,"sels":5663,"Ġtravel":5664,"Ġpromised":5665,"ĠJapanese":5666,"Download":5667,"lobal":5668,"rand":5669,"Ġseed":5670,"Ġkil":5671,"Ġacts":5672,"TED":5673,"pects":5674,"Ġproduce":5675,"Ġthreats":5676,"Ġtableau":5677,"Ġdetermined":5678,"Location":5679,"eal":5680,"erves":5681,"Ġcat":5682,"Ġmaximum":5683,"Ġdark":5684,"ĠLine":5685,"thumb":5686,"Ġtemper":5687,"Ġkeyboard":5688,"ĠAfrican":5689,"Class":5690,"Ġintroduced":5691,"ĠSupreme":5692,"-%":5693,";)":5694,"Ġtens":5695,"term":5696,"ĠKashmir":5697,"mercial":5698,"ahoo":5699,"ansion":5700,"Ġbetray":5701,"Ġincludes":5702,"Ġadvoc":5703,"Ġheavy":5704,"Ġschools":5705,"?'":5706,"Tem":5707,"aeda":5708,"hood":5709,"Ġgenuine":5710,"Ġupper":5711,"ught":5712,"cknow":5713,"ĠViet":5714,"Ġjustify":5715,"Ġknows":5716,"Ġtransfer":5717,"Ġdeaths":5718,"Ġattempts":5719,"Ġactivity":5720,"Ġcongregation":5721,"Ġethnic":5722,"Ġconv":5723,"ĠDefault":5724,"anted":5725,"archy":5726,"Ġtraining":5727,"racted":5728,"Ġpresented":5729,"Ġemployees":5730,"ĠChristian":5731,"Ġfavor":5732,"Instead":5733,"Ġorigin":5734,"Ġsharp":5735,"Ġsubstantial":5736,"Ġast":5737,"amin":5738,"ĠLa":5739,"See":5740,"ĠCommission":5741,"Replace":5742,"Ġfields":5743,"ĠObject":5744,"ederation":5745,"Ġstreets":5746,"Ġrotation":5747,"Ġwithdrawal":5748,"Cancel":5749,"Category":5750,"PF":5751,"des":5752,"Ġcro":5753,"sthis":5754,"Ġgar":5755,"Ġgate":5756,"ushed":5757,"ĠKh":5758,"ĠIsland":5759,"marks":5760,"Ġsusp":5761,"ĠJoseph":5762,"IP":5763,"ĠSaddam":5764,"Ġrout":5765,"Ġplain":5766,"Normal":5767,"vey":5768,"Ġshift":5769,"ĠEN":5770,"antic":5771,"ĠWrit":5772,"Ġrail":5773,"Ġrepression":5774,"minal":5775,"ĠIMF":5776,"Line":5777,"Ġbal":5778,"Ġones":5779,"abul":5780,"Ġremaining":5781,"Ġwhatsthis":5782,"Ġextrem":5783,"Enc":5784,"Ġsuccessful":5785,"Ġmarried":5786,"Ġimmigrants":5787,"Left":5788,"SU":5789,"named":5790,"Ġsense":5791,"Ġreact":5792,"ĠAaron":5793,"pping":5794,"aksh":5795,"ĠJeh":5796,"Initial":5797,"Ġapply":5798,"Ġremained":5799,"Ġelectoral":5800,"Ġvillage":5801,"Ġexecutive":5802,"Ġconfirmed":5803,"Double":5804,"MK":5805,"Ġthir":5806,"image":5807,"ĠCP":5808,"Ġsequ":5809,"Ġdefense":5810,"Ġsupporting":5811,"Ġcreation":5812,"Ġpersons":5813,"ography":5814,"Server":5815,"Ref":5816,"more":5817,"Ġcru":5818,"Ġmere":5819,"iling":5820,"Ġstored":5821,"Ġlearn":5822,"Ġcolonial":5823,"Although":5824,"Ġsurface":5825,"Ġconflicts":5826,"ollywood":5827,"Serv":5828,"tons":5829,"Ġwicked":5830,"ĠME":5831,"Ġshape":5832,"Ġbras":5833,"ĠNews":5834,"Ġlawy":5835,"Ġparticipate":5836,"Africa":5837,"zb":5838,"Ġsky":5839,"asi":5840,"herit":5841,"Ġinternationally":5842,"Ġequal":5843,"Ġloading":5844,"LO":5845,"nan":5846,"Ġdram":5847,"sets":5848,"opular":5849,"Ġrecomm":5850,"Ġresponded":5851,"oman":5852,"ĠScreen":5853,"ĠAut":5854,"Ġstructure":5855,"ulate":5856,"ĠBel":5857,"ups":5858,"Ġprovides":5859,"ĠShi":5860,"Ġreflect":5861,"Ġprofits":5862,"ĠSenate":5863,"Ġbrasero":5864,"':":5865,"hand":5866,"rity":5867,"Ġacknow":5868,"rel":5869,"edy":5870,"Ġhomes":5871,"adurai":5872,"ceived":5873,"iri":5874,"Ġmeant":5875,"ĠColumn":5876,"Ġdriver":5877,"ĠSaturday":5878,"ĠĠ":5879,"angle":5880,"inder":5881,"Ġspent":5882,"Ġremember":5883,"Ġarticles":5884,"Ġhosts":5885,"Mon":5886,"mal":5887,"Â¬":5888,"Ġtheat":5889,"Ġnomin":5890,"Ġisol":5891,"raight":5892,"aken":5893,"ĠHam":5894,"ikram":5895,"Ġdisci":5896,"oyal":5897,"azine":5898,"Ġ1998":5899,"Ġminority":5900,"Ġlabor":5901,"Ġrival":5902,"IMP":5903,"Ã¨":5904,"Ġokay":5905,"Ġinev":5906,"Ġhor":5907,"ĠAir":5908,"ĠNaz":5909,"Ġopponents":5910,"Ġextent":5911,"rilankan":5912,"ĠConfiguration":5913,"System":5914,"Today":5915,"count":5916,"ÂĤ":5917,"erb":5918,"itt":5919,"inger":5920,"astern":5921,"ĠMos":5922,"ordan":5923,"ĠDVDs":5924,"ÂĤÂ¬":5925,"Ġid":5926,"Ġwis":5927,"Ġfought":5928,"ĠAjith":5929,"ĠHigh":5930,"anges":5931,"ĠThat":5932,"Ġconscious":5933,"Ġdistance":5934,"ursday":5935,"Ġmulti":5936,"ĠToolbar":5937,"king":5938,"orial":5939,"ilot":5940,"Ġbear":5941,"ĠLCR":5942,"aked":5943,"Ġroles":5944,"Ġdesigned":5945,"Ġexpansion":5946,"Ġbroke":5947,"ĠQaeda":5948,"Ġeffects":5949,"Ġpackages":5950,"Ġeastern":5951,"Ġaud":5952,"aration":5953,"Ġlived":5954,"Ġdecade":5955,"Recent":5956,"Ġmarriage":5957,"Ġtabern":5958,"Ġwidely":5959,"Ġpositions":5960,"Ġtorture":5961,"riev":5962,"Ġanalysis":5963,"Ġworker":5964,"Ġresident":5965,"Ġcollection":5966,"Ġhighly":5967,"Ġzone":5968,"CP":5969,"RA":5970,"\\@":5971,"hra":5972,"illed":5973,"ĠBas":5974,"ĠBehold":5975,"html":5976,"Ġraise":5977,"Ġglory":5978,"ĠArt":5979,"Ġsimple":5980,"Ġordered":5981,"Ġlegislation":5982,"Web":5983,"Ġlord":5984,"Ġuniversity":5985,"Ġoutcome":5986,"ĠThere":5987,"Ġveh":5988,"Ġcorrectly":5989,"ban":5990,"Ġfort":5991,"ĠTab":5992,"conf":5993,"Ġquality":5994,"dden":5995,"Ġlosses":5996,"Ġmoment":5997,"sl":5998,"wan":5999,"Ġfestival":6000,"aria":6001,"icide":6002,"ĠSE":6003,"Ġalignment":6004,"ĠTim":6005,"Ġprotection":6006,"ĠData":6007,"crease":6008,"Mult":6009,"Ġsorry":6010,"atin":6011,"Ġpun":6012,"opp":6013,"Ġatm":6014,"Ġneo":6015,"Ġofficer":6016,"Ext":6017,"Ġconcessions":6018,"EMAIL":6019,"Language":6020,"ĠSud":6021,"ques":6022,"clus":6023,"ĠStart":6024,"Ġconsist":6025,"Ġheads":6026,"Ġemerged":6027,"Ġprinciples":6028,"hag":6029,"ius":6030,"olf":6031,"odies":6032,"Ġrates":6033,"Ġsuppress":6034,"ĠThey":6035,"Ġprivile":6036,"Ġimprove":6037,"Ġterritory":6038,"Ġaggression":6039,"Zoom":6040,"ael":6041,"key":6042,"Ġwaters":6043,"Ġfine":6044,"chan":6045,"Inter":6046,"Ġcabinet":6047,"500":6048,"Rename":6049,"ĠAnt":6050,"ĠMed":6051,"ĠGOD":6052,"ĠWH":6053,"eping":6054,"ibly":6055,"Ġpretext":6056,"annels":6057,"engal":6058,"Ġtranslation":6059,"ĠStalin":6060,"Minimum":6061,"ĠCO":6062,"Ġlear":6063,"cons":6064,"Ġseeing":6065,"Ġtoolbar":6066,"hemical":6067,"Ġsilver":6068,"Run":6069,"aan":6070,"Ġinn":6071,"Ġweight":6072,"Ġattend":6073,"ĠThursday":6074,"Ġsets":6075,"Ġprovin":6076,"Ġdetect":6077,"Ġ90":6078,"Ġsuffered":6079,"Ġflags":6080,"Ġreduce":6081,"Background":6082,"Ġchallenge":6083,"Ac":6084,"Ġmurd":6085,"adow":6086,"aker":6087,"pted":6088,"Ġencryption":6089,"Ġutter":6090,"ĠKerry":6091,"ĠJews":6092,"Sri":6093,"reci":6094,"Ġbeast":6095,"ĠLet":6096,"Ġconservative":6097,"government":6098,"Ġsanctions":6099,"Ret":6100,"Width":6101,"help":6102,"Ġbes":6103,"ila":6104,"ĠPA":6105,"ĠKann":6106,"llor":6107,"Ġemails":6108,"they":6109,"Ġreading":6110,"Blank":6111,"Ġauthority":6112,"Ġenemy":6113,"(\"":6114,"Fin":6115,"itted":6116,"Ġhun":6117,"ĠPE":6118,"ĠLev":6119,"Ġdirectors":6120,"Ġcontinent":6121,"ĠMarx":6122,"Ġparents":6123,"fel":6124,"jan":6125,"link":6126,"requ":6127,"Ġine":6128,"asure":6129,"Ġabroad":6130,"Ġresign":6131,"Ġactually":6132,"Printer":6133,"Ġdiscussions":6134,"Ġradical":6135,"Ġfilled":6136,"Ġannouncement":6137,"Ġace":6138,"Ġpension":6139,"Ġhide":6140,"uls":6141,"Ġexerc":6142,"ifications":6143,"Ġphys":6144,"Ġ80":6145,"Ġemployers":6146,"ELL":6147,"Ang":6148,"yg":6149,"Ġahead":6150,"ĠPat":6151,"rientation":6152,"ĠDirect":6153,"Though":6154,"Status":6155,"Ġ70":6156,"ĠâĢĶ":6157,"23":6158,"Green":6159,"trans":6160,"ĠMail":6161,"claim":6162,"Ġbuff":6163,"Ġpropag":6164,"Ġdivided":6165,"unchpad":6166,"Ġentirely":6167,"Ġdollar":6168,"Ġassistant":6169,"People":6170,"Brit":6171,"hat":6172,"national":6173,"itler":6174,"ndo":6175,"ĠSpe":6176,"Ġnotes":6177,"Ġ'.":6178,"ĠUK":6179,"elling":6180,"Ġrain":6181,"ĠZion":6182,"Ġpossess":6183,"Ġnumer":6184,"Ġphoto":6185,"Ġplanning":6186,"ĠDefence":6187,"Ġvertical":6188,"IK":6189,"mine":6190,"ena":6191,"Ġbran":6192,"roc":6193,"ĠConst":6194,"ĠPeter":6195,"Ġsupply":6196,"Ġshowing":6197,"Ġhelped":6198,"Scale":6199,"ĠGeorgia":6200,"ĠLicence":6201,"Ġmilitarism":6202,"Ġinhabit":6203,"SH":6204,"oil":6205,"Ġcry":6206,"Ġprominent":6207,"Ġsevere":6208,"ĠEm":6209,"Ġobvious":6210,"Ġstudy":6211,"Ġidea":6212,"Free":6213,"Ġcd":6214,"ĠSearch":6215,"ĠCor":6216,"emory":6217,"Ġplays":6218,"rowd":6219,"Ġtemplate":6220,"ONE":6221,"Ġimportance":6222,"ITY":6223,"Ġeasy":6224,"Ġpiece":6225,"Ġcontradict":6226,"long":6227,"Ġinherit":6228,"Ġmal":6229,"Ġforg":6230,"ĠCurrent":6231,"Ġseized":6232,"Ġvia":6233,"ĠKurd":6234,"ĠJordan":6235,"clude":6236,"Ġforest":6237,"Ġdistribution":6238,"13":6239,"Options":6240,"Pol":6241,"Ġfixed":6242,"Ġpip":6243,"secut":6244,"ĠGulf":6245,"apers":6246,"Ġimpossible":6247,"Ġsystems":6248,"Ġpublicly":6249,"colm":6250,"ylon":6251,"Ġappointed":6252,"ĠHoward":6253,"ĠTurkey":6254,"Ġtreatment":6255,"Ġdenounced":6256,"Ġtabernacle":6257,"Det":6258,"Try":6259,"Ġmission":6260,"ĠClick":6261,"ĠFirst":6262,"ĠWhen":6263,"Ġdesper":6264,"othing":6265,"Ġrecip":6266,"erness":6267,"Ġprotocol":6268,"Ġ500":6269,"Ġlocated":6270,"Ġoperating":6271,"ĠArmy":6272,"Ġmoon":6273,"ĠMalayalam":6274,"Ġunders":6275,"Ġsanct":6276,"rs":6277,"star":6278,"urch":6279,"Ġunited":6280,"Ġunits":6281,"Ġscore":6282,"28":6283,"CO":6284,"Four":6285,"Path":6286,"inc":6287,"Ġfan":6288,"Ġbrief":6289,"Ġmort":6290,"ilateral":6291,"raid":6292,"ĠLaw":6293,"ĠRich":6294,"ĠNadu":6295,"sole":6296,"Ġtexture":6297,"Also":6298,"Ġmarked":6299,"Ġdeliber":6300,"missions":6301,"Ġdiplomatic":6302,"quiry":6303,"La":6304,"burn":6305,"orida":6306,"Ġthr":6307,"Ġcommercial":6308,"Ġ(#":6309,"Ġmeat":6310,"Ġprior":6311,"Ġlooks":6312,"Ġmountain":6313,"Ġpicture":6314,"host":6315,"kel":6316,"Ġsaving":6317,"ĠSel":6318,"Ġ300":6319,"Allow":6320,"ukk":6321,"Ġmagazine":6322,"Ġparameter":6323,"uzzle":6324,"iram":6325,"ĠDistrict":6326,"Ġworst":6327,"Ġusage":6328,"Ġcommission":6329,"Ġconfig":6330,"Ġtrig":6331,"Ġinvolvement":6332,"Ġsignificance":6333,"Ġidentity":6334,"Ġbitter":6335,"hib":6336,"Ġduration":6337,"verse":6338,"raham":6339,"osure":6340,"Ġcontrast":6341,"ĠPlugin":6342,"Ġfavour":6343,"Ġbrowser":6344,"Ġorganizations":6345,"Device":6346,"Ġfled":6347,"Ġlose":6348,"ĠInt":6349,"Ġshit":6350,"ĠWAR":6351,"ĠWorkers":6352,"const":6353,"aysia":6354,"Ġpercentage":6355,"Ġsuburb":6356,"Ġmostly":6357,"Ġdepth":6358,"Ġ1997":6359,"Ġtalking":6360,"ustralia":6361,"Ġtrees":6362,"Ġquarter":6363,"War":6364,"Word":6365,"ps":6366,"ride":6367,"Ġconnections":6368,"Ġexcept":6369,"Ġproviding":6370,"Ġmodern":6371,"Ġlooked":6372,"Ġvisited":6373,"Ġjudgment":6374,"Ġtal":6375,"Ġties":6376,"anc":6377,"Ġwounded":6378,"Ġborders":6379,"Ġlakh":6380,"Ġnote":6381,"ĠNep":6382,"Ġdisabled":6383,"Ġunf":6384,"Ġbuttons":6385,"Ġhappy":6386,"ĠBoard":6387,"VCD":6388,"gent":6389,"had":6390,"inue":6391,"Ġpick":6392,"Ġdu":6393,"Ġalleg":6394,"ĠBurn":6395,"Ġability":6396,"Ġcorruption":6397,"OUNT":6398,"aught":6399,"ĠSpanish":6400,"Ġrapidly":6401,"ĠKonqueror":6402,"Ġfighters":6403,"Bus":6404,"Rel":6405,"erning":6406,"alian":6407,"ĠMinist":6408,"ĠOs":6409,"Ġenorm":6410,"Ġproducers":6411,"umbai":6412,"Israel":6413,"Ġcommented":6414,"Ġcarrying":6415,"Ġcheap":6416,"Int":6417,"group":6418,"yth":6419,"isible":6420,"Ġcle":6421,"Ġrally":6422,"Ġleaving":6423,"Ġagencies":6424,"berg":6425,"Ġwarn":6426,"Ġconfigure":6427,"Ġjustice":6428,"Ġobjective":6429,"Ġdemonstrated":6430,"Ġinstallation":6431,"Ġballot":6432,"Ġbailout":6433,"Full":6434,"equ":6435,"sub":6436,"table":6437,"only":6438,"reak":6439,"Ġiniqu":6440,"Ġhorizontal":6441,"ĠCGT":6442,"Ġhearing":6443,"ĠHE":6444,"cession":6445,"Ġpressing":6446,"Ġmassac":6447,"THE":6448,"ĠCDs":6449,"ĠBabylon":6450,"Top":6451,"Ġapart":6452,"atform":6453,"Ġves":6454,"theless":6455,"Ġcapacity":6456,"Ġafraid":6457,"Ġcorrespond":6458,"vals":6459,"Ġfelt":6460,"ams":6461,"ĠChe":6462,"Ġhell":6463,"ĠEarth":6464,"pload":6465,"ĠHait":6466,"Ġappend":6467,"tool":6468,"Ġsubsid":6469,"Ġfinished":6470,"Ġdetain":6471,"ĠExport":6472,"Ġheavily":6473,"Ġproposal":6474,"Sing":6475,"uj":6476,"Ġtsunami":6477,"rep":6478,"ret":6479,"Ġbodies":6480,"Ġcongress":6481,"ĠWITH":6482,"ĠHel":6483,"Ġrose":6484,"Ġconcerning":6485,"Ġloaded":6486,"Writing":6487,"Ġpreparing":6488,"Ġsacrifice":6489,"URE":6490,"iant":6491,"pol":6492,"iful":6493,"Ġsudden":6494,"Ġexact":6495,"Ġagency":6496,"Ġaggressive":6497,"Ġopposite":6498,"ĠTHAT":6499,"Ġvoting":6500,"untu":6501,"Ġapproach":6502,"Ġreduced":6503,"Ġunderstanding":6504,"grade":6505,"uous":6506,"Ġsister":6507,"idget":6508,"Ġalthough":6509,"ĠDE":6510,"ĠJack":6511,"Ġclot":6512,"ANT":6513,"Ġcharged":6514,"Ġlisten":6515,"ofs":6516,"Ġpossibility":6517,"Ġgenerally":6518,"ropriate":6519,"Ġhom":6520,"ĠSon":6521,"agram":6522,"erem":6523,"ĠRE":6524,"Ġagric":6525,"ORE":6526,"Ġdefined":6527,"Ġimpose":6528,"Ġbuy":6529,"Ġstanding":6530,"Ġliberal":6531,"Ġbrutal":6532,"Ġder":6533,"ĠDan":6534,"aped":6535,"pense":6536,"Ġplayers":6537,"Ġfunctions":6538,"Ġterrorists":6539,"Ġdivision":6540,"Ġconstitutional":6541,"Among":6542,"AGE":6543,"Def":6544,"Max":6545,"Ġtend":6546,"organ":6547,"Ġstone":6548,"uled":6549,"ifier":6550,"ivate":6551,"ugal":6552,"Ġpret":6553,"Ġcollege":6554,"conds":6555,"ursor":6556,"ĠBlack":6557,"Kar":6558,"LES":6559,"vest":6560,"Ġmist":6561,"ĠAuthor":6562,"ĠGa":6563,"ĠKhan":6564,"Ġpartners":6565,"aiy":6566,"Ġassum":6567,"Ġacceler":6568,"Ġweekend":6569,"Ġguy":6570,"Ġadvis":6571,"Ġattempted":6572,"Ġattempting":6573,"Ġdollars":6574,"Ġwilderness":6575,"Her":6576,"cle":6577,"mi":6578,"orrect":6579,"itute":6580,"asan":6581,"ĠSO":6582,"eles":6583,"ĠBur":6584,"osl":6585,"Ġcolours":6586,"Ġretrie":6587,"ynam":6588,"Ġbehalf":6589,"Column":6590,"EAR":6591,"iCal":6592,"anes":6593,"Ġwestern":6594,"also":6595,"Ġmaster":6596,"ota":6597,"utter":6598,"Ġsuicide":6599,"ĠNumber":6600,"ĠOne":6601,"ername":6602,"Ġprojects":6603,"Ġmodule":6604,"Ġprepare":6605,"Ġintegrity":6606,"Ġmotion":6607,"59":6608,"Med":6609,"eer":6610,"pay":6611,"rant":6612,"ancing":6613,"Ġwind":6614,"Ġhum":6615,"ether":6616,"Ġconcluded":6617,"Ġsevent":6618,"Ġran":6619,"isha":6620,"Ġcomprom":6621,"rency":6622,"awn":6623,"Ġplanet":6624,"RUE":6625,"Ġcoordinate":6626,"ĠFoundation":6627,"600":6628,"Title":6629,"vanced":6630,"Ġgrid":6631,"ĠTer":6632,"Ġappar":6633,"reates":6634,"Ġdesign":6635,"uthu":6636,"Ġvillages":6637,"feld":6638,"Light":6639,"Total":6640,"UCK":6641,"ximately":6642,"ĠDocument":6643,"Ġexceed":6644,"quare":6645,"Ġclient":6646,"Ġcontroll":6647,"ipal":6648,"Ġdrawing":6649,"ĠRepublicans":6650,"Ġcombined":6651,"Ġvolume":6652,"Ġtouch":6653,"North":6654,"Pal":6655,"hak":6656,"Ġ...":6657,"Ġreview":6658,"etch":6659,"Ġconcent":6660,"angam":6661,"ugs":6662,"ĠSee":6663,"Ġdebugg":6664,"Blue":6665,"Ġangle":6666,"\\\\{":6667,"rastructure":6668,"Ġdegree":6669,"IDE":6670,"Sort":6671,"aoh":6672,"social":6673,"Ġtear":6674,"ati":6675,"Ġcook":6676,"icy":6677,"imid":6678,"Ġuk":6679,"ĠFather":6680,"ivision":6681,"ĠIslands":6682,"Ġdesire":6683,"ĠFrank":6684,"Ġdeveloping":6685,"OUT":6686,"Ġconstruct":6687,"Ġdifference":6688,"Ġfaces":6689,"Ġgods":6690,"Ġpraise":6691,"Ġatmosphere":6692,"Ġapparatus":6693,"Drag":6694,"Local":6695,"Pix":6696,"ny":6697,"Ġwear":6698,"Ġfasc":6699,"aming":6700,"Ġlad":6701,"ura":6702,"ĠOp":6703,"Ġunderst":6704,"Ġprovoc":6705,"Ġinterven":6706,"ipped":6707,"ĠFilm":6708,"Ġtargets":6709,"Ġcombat":6710,"Ġabsolute":6711,"Ġcondition":6712,"Del":6713,"President":6714,"bas":6715,"lot":6716,"west":6717,"arms":6718,"Ġstreet":6719,"ĠGandhi":6720,"Ġvir":6721,"ANS":6722,"Ġcareer":6723,"Ġsolid":6724,"Ġconnected":6725,"ĠVietnam":6726,"Document":6727,"SS":6728,"rian":6729,"ĠNeb":6730,"Ġcontest":6731,"clusion":6732,"Ġrestruct":6733,"Ġaccounts":6734,"ĠEnc":6735,"Previous":6736,"Ġfonts":6737,"Ġwaiting":6738,"Ġarguments":6739,"ĠFlorida":6740,"Yet":6741,"math":6742,"vinist":6743,"will":6744,"ĠJust":6745,"ĠJournal":6746,"Ġsupplies":6747,"Ġadministrat":6748,"Ġdeclaration":6749,"Ġturning":6750,"Ġcatast":6751,"Ant":6752,"Bar":6753,"Bush":6754,"she":6755,"tip":6756,"oric":6757,"arity":6758,"alle":6759,"ayout":6760,"ĠMP":6761,"Ġkid":6762,"Ġfiled":6763,"Ġrepublic":6764,"Ġsentiment":6765,"Ġminute":6766,"Ġchecked":6767,"Ġinvestors":6768,"ROM":6769,"ĠShiite":6770,"Before":6771,"Ġwise":6772,"emale":6773,"Ġproxy":6774,"ĠDis":6775,"Ġdoz":6776,"Ġsched":6777,"Ġmovements":6778,"Ġdetention":6779,"ĠSerb":6780,"ĠSingh":6781,"ĠSurya":6782,"uted":6783,"ules":6784,"ogle":6785,"Ġprev":6786,"Ġbecoming":6787,"OUN":6788,"Ġclaiming":6789,"Ġdeeply":6790,"Ġcaste":6791,"Ġ1970":6792,"hua":6793,"Ġsettlement":6794,"AI":6795,"Ġsack":6796,"ĠMadh":6797,"ĠMiB":6798,"ĠMessages":6799,"ĠGen":6800,"ĠGreat":6801,"ĠStyle":6802,"Ġquit":6803,"Several":6804,"Ġcoven":6805,"Ġlarger":6806,"Ġbases":6807,"Ġviews":6808,"ĠQue":6809,"Ġdangerous":6810,"ĠPharaoh":6811,"Ġtemperature":6812,"21":6813,"Base":6814,"VER":6815,"cal":6816,"great":6817,"pet":6818,"Ġbab":6819,"ĠSal":6820,"Ġdism":6821,"ĠIndones":6822,"ussia":6823,"Ġ1991":6824,"Ġsteps":6825,"Ġnavy":6826,"Ġmerely":6827,"French":6828,"Main":6829,"Pacific":6830,"Ġtact":6831,"inam":6832,"edit":6833,"Ġrej":6834,"Ġshock":6835,"umer":6836,"Ġvide":6837,"ĠRad":6838,"ĠRober":6839,"Three":6840,"Ġconfidence":6841,"Ġblast":6842,"Ġheaded":6843,"Ġmounting":6844,"Ġfears":6845,"/~":6846,"DU":6847,"etary":6848,"ĠOther":6849,"vie":6850,"rating":6851,"Ġmodified":6852,"Ġimmigration":6853,"Ġministry":6854,"Ġ*.":6855,"Ġcasual":6856,"rc":6857,"Ġbow":6858,"ersion":6859,"akanth":6860,"ĠDr":6861,"anka":6862,"Ġbecomes":6863,"Ġdeficit":6864,"ICE":6865,"ĠForce":6866,"Ġdaughters":6867,"layers":6868,"Ġvirtually":6869,"Ġchauvinist":6870,"Ġinsurance":6871,"Ġinequality":6872,"Ġpropaganda":6873,"El":6874,"RY":6875,"field":6876,"mod":6877,"inst":6878,"Ġstones":6879,"raint":6880,"ems":6881,"Ġfilename":6882,"expected":6883,"Ġreserves":6884,"ĠChief":6885,"Ġmeetings":6886,"Ġinfrastructure":6887,"Ġrepresented":6888,"Ġemployed":6889,"ippines":6890,"while":6891,"ylum":6892,"Ġinhabitants":6893,"iCalImp":6894,"Ġcovenant":6895,"AIN":6896,"pir":6897,"river":6898,"ĠRavi":6899,"anta":6900,"Ġintimid":6901,"Ġactual":6902,"apped":6903,"Ġmainly":6904,"Ġolder":6905,"araja":6906,"Ġsatisf":6907,"Ġhttps":6908,"Ġjournalists":6909,"Ġaudience":6910,"300":6911,"Ka":6912,"rection":6913,"Ġfruit":6914,"asse":6915,"aded":6916,"akers":6917,"ĠEnd":6918,"Ġexternal":6919,"Ġunpre":6920,"acter":6921,"Ġotherwise":6922,"Ġmighty":6923,"Ġcompetition":6924,"Ġframework":6925,"Country":6926,"Id":6927,"Password":6928,"Su":6929,"atically":6930,"utt":6931,"Ġstands":6932,"ĠBy":6933,"oker":6934,"Ġguard":6935,"Ġorganised":6936,"ĠContact":6937,"Ġeye":6938,"Ġregarding":6939,"Ġpredict":6940,"umsfeld":6941,"Ġamerica":6942,"Ġcollaboration":6943,"Folder":6944,"atched":6945,"Ġcrowd":6946,"ĠMy":6947,"ĠMil":6948,"ĠDO":6949,"angal":6950,"angers":6951,"Ġunless":6952,"Ġpeas":6953,"Ġmyself":6954,"Ġroll":6955,"Ġunderlying":6956,"Ġ31":6957,"Ġformal":6958,"ĠCDU":6959,"Ġclicking":6960,"Ġbroader":6961,"Ġtowns":6962,"Ġprinciple":6963,"Ġpermanent":6964,"Ġbuffer":6965,"Ġlakhs":6966,"vation":6967,"amber":6968,"ĠSl":6969,"ĠAR":6970,"ĠMao":6971,"soft":6972,"Ġbackend":6973,"Ġproducing":6974,"Ġedge":6975,"Ġacqu":6976,"Ġcomplex":6977,"launchpad":6978,"Ġpieces":6979,"Empty":6980,"Ġcircumst":6981,"Te":6982,"di":6983,"two":6984,"omas":6985,"istics":6986,"active":6987,"teen":6988,"Ġowners":6989,"Ġofferings":6990,"ĠPhilist":6991,"22":6992,"cam":6993,"lib":6994,"rÃ¶":6995,"Ġvers":6996,"lets":6997,"otion":6998,"imin":6999,"ĠMB":7000,"ĠDev":7001,"ĠNic":7002,"ĠKen":7003,"ĠVikram":7004,"Ġdraft":7005,"value":7006,"Ġpromises":7007,"Ġappointment":7008,"ĠTemplate":7009,"Ġrestructuring":7010,"CON":7011,"Sets":7012,"ario":7013,"Ġrect":7014,"style":7015,"raine":7016,"agn":7017,"anning":7018,"Ġfourth":7019,"Ġengaged":7020,"democratic":7021,"ĠMadurai":7022,"tes":7023,"ĠSathy":7024,"Ġongoing":7025,"alling":7026,"ĠRel":7027,"Ġjoy":7028,"ĠTHIS":7029,"ACK":7030,"Preview":7031,"aviour":7032,"Discard":7033,"Post":7034,"Paste":7035,"anam":7036,"Ġrecession":7037,"ĠLocation":7038,"ĠKal":7039,"inda":7040,"Ġ35":7041,"phone":7042,"Ġhandle":7043,"Ġexplain":7044,"Ġchecksum":7045,"2009":7046,"Ġmountains":7047,"ĠGuard":7048,"ĠMinistry":7049,"Ġthread":7050,"Ġep":7051,"ellect":7052,"ĠPress":7053,"alls":7054,"ĠFreedom":7055,"ĠEli":7056,"Ġplants":7057,"Ġintention":7058,"Shortcut":7059,"Ġsubsequ":7060,"Once":7061,"Ġprophet":7062,"Ġsmaller":7063,"ĠPlay":7064,"Ġlatter":7065,"Ġrows":7066,"Op":7067,"Washington":7068,"dep":7069,"shtml":7070,"Ġtigers":7071,"adian":7072,"Ġassembly":7073,"indi":7074,"peration":7075,"cedented":7076,"Ġplaylist":7077,"iyan":7078,"Player":7079,"Ġinvolving":7080,"Ġproposals":7081,"Ġratio":7082,"EA":7083,"GB":7084,"PL":7085,"etween":7086,"ĠChen":7087,"astic":7088,"anged":7089,"Ġmanually":7090,"Ġresc":7091,"Ġoffers":7092,"Ġaccident":7093,"Ġsomew":7094,"ĠISO":7095,"Ġhousing":7096,"Ġignored":7097,"Ġanimation":7098,"Ġguarantee":7099,"ĠMoscow":7100,"dis":7101,"rations":7102,"Ġwing":7103,"iced":7104,"idency":7105,"igan":7106,"andard":7107,"ifest":7108,"ĠRef":7109,"ĠReh":7110,"ĠNa":7111,"Ġexit":7112,"Ġimpl":7113,"Ġviolent":7114,"plicate":7115,"ĠMuslims":7116,"Good":7117,"lon":7118,"var":7119,"orious":7120,"level":7121,"Ġforget":7122,"ĠCard":7123,"ĠNav":7124,"Ġpolls":7125,"China":7126,"Ġadvant":7127,"ĠPoland":7128,"Ġenormous":7129,"Bug":7130,"Find":7131,"burg":7132,"Ġcited":7133,"Ġrefere":7134,"Ġasylum":7135,"ĠBug":7136,"ĠLex":7137,"ĠEastern":7138,"Ġcancell":7139,"ounds":7140,"ĠChannel":7141,"Align":7142,"Ġdistributed":7143,"Ġrepresentative":7144,"Ġarrived":7145,"Ġreporters":7146,"Tr":7147,"mad":7148,"atible":7149,"Ġinternet":7150,"Ġanaly":7151,"ĠTAMIL":7152,"Ġproclaim":7153,"ĠKMail":7154,"anging":7155,"Ġdetained":7156,"ffects":7157,"print":7158,"Ġencoding":7159,"Ġeffectively":7160,"ĠCenter":7161,"Ġdeepening":7162,"Ġeasily":7163,"initely":7164,"Ġprivatisation":7165,"*.":7166,"Social":7167,"Ġbi":7168,"Ġblow":7169,"Ġally":7170,"ocent":7171,"Ġcurrency":7172,"Ġdecide":7173,"Ġholds":7174,"Ġfallen":7175,"upport":7176,"Ġregarded":7177,"Ġdefeated":7178,"Ġtribe":7179,"Ġdictators":7180,"Ġdisease":7181,"Sk":7182,"first":7183,"Ġmask":7184,"ĠSpecial":7185,"ĠMumbai":7186,"Ġships":7187,"Ġleaf":7188,"Ġuses":7189,"rank":7190,"Ġreserve":7191,"Ġbackup":7192,"ĠLevel":7193,"Quit":7194,"Write":7195,"Ġdisciples":7196,"Ġiniquity":7197,"96":7198,"Due":7199,"France":7200,"Ġfulf":7201,"Ġpure":7202,"Ġreven":7203,"Ġexchange":7204,"ĠKa":7205,"Ġunity":7206,"ISH":7207,"Ġdebug":7208,"Ġprinces":7209,"Ġshortcut":7210,"Ġimplemented":7211,"27":7212,"TY":7213,"Uri":7214,"uri":7215,"ĠCub":7216,"unan":7217,"Ġclimate":7218,"Thank":7219,"izer":7220,"Ġ\"-":7221,"ĠIraqis":7222,"Ġdeputy":7223,"ehran":7224,"Ġaims":7225,"ributes":7226,"backed":7227,"Ġcircle":7228,"Restore":7229,"ĠLevites":7230,"Ġunprecedented":7231,"Eng":7232,"World":7233,"haps":7234,"ipe":7235,"whel":7236,"oul":7237,"ilk":7238,"ima":7239,"ĠGM":7240,"ĠSecond":7241,"ĠAbraham":7242,"Ġfaced":7243,"onseka":7244,"\\\\\\\\{":7245,"ĠJean":7246,"rakash":7247,"Ġinheritance":7248,"Ġcircumstances":7249,"Ġpit":7250,"ĠWidth":7251,"Selection":7252,"EST":7253,"Ġannual":7254,"Ġbombs":7255,"Contents":7256,"ĠLabor":7257,"Ġaffairs":7258,"Adjust":7259,"Ġcontacts":7260,"Ġconsiderable":7261,"edding":7262,"ĠGreece":7263,"Command":7264,"Format":7265,"MD":7266,"how":7267,"rink":7268,"oration":7269,"iginal":7270,"iran":7271,"cho":7272,"Ġcomedy":7273,"Ġrhet":7274,"ĠHuman":7275,"ĠHitler":7276,"Ġmanual":7277,"liber":7278,"Ġprovoked":7279,"Ġstarts":7280,"Ġrac":7281,"Ġincreases":7282,"Ġsurre":7283,"Ġresulted":7284,"ĠWhy":7285,"Ġthinking":7286,"Ġpurch":7287,"Ġlogin":7288,"Ġcertainly":7289,"Application":7290,"ĠKerala":7291,"Ġcouple":7292,"Ġteachers":7293,"ĠRichard":7294,"26":7295,"360":7296,"Ġcrack":7297,"Ġmand":7298,"Ġrelief":7299,"start":7300,"ĠMet":7301,"ĠLin":7302,"ĠUk":7303,"owned":7304,"Ġpreced":7305,"obe":7306,"Ġentering":7307,"Ġtrain":7308,"ollah":7309,"Ġelectric":7310,"Ġparticipation":7311,"ĠDescription":7312,"Ġseriously":7313,"Ġmercy":7314,"Ġnarrow":7315,"AW":7316,"ney":7317,"Ġchemical":7318,"Ġfate":7319,"rose":7320,"ĠMat":7321,"Ġassets":7322,"ĠRumsfeld":7323,"ĠNay":7324,"Ġcho":7325,"Ġunivers":7326,"Ġattitude":7327,"Ġinvitation":7328,"Ġjustified":7329,"Ġbrush":7330,"Ġcorner":7331,"Ġrestart":7332,"Ġdivide":7333,"ĠTrade":7334,"CategoryName":7335,"Home":7336,"vell":7337,"ĠMin":7338,"ĠBBC":7339,"aches":7340,"ĠNO":7341,"ĠNAME":7342,"izes":7343,"Ġdiscard":7344,"Ġque":7345,"Ġconfirm":7346,"Ġclosely":7347,"Ġoccupied":7348,"Ġportion":7349,"ĠGreek":7350,"Ġachieve":7351,"Ġmentioned":7352,"Ġsequence":7353,"Ġacknowled":7354,"Ġmassacre":7355,"AU":7356,"BS":7357,"GR":7358,"South":7359,"sal":7360,"isofs":7361,"Ġcyn":7362,"Ġbed":7363,"elly":7364,"aga":7365,"Ġalive":7366,"Ġdirecting":7367,"ificates":7368,"Ġgoods":7369,"Ġprophe":7370,"ungary":7371,"Ġsurely":7372,"arajan":7373,"ĠFinancial":7374,"Ġcooperation":7375,"Ġregistered":7376,"Ġvideos":7377,"ĠLexUri":7378,"ĠLexUriServ":7379,"iny":7380,"Ġbind":7381,"ils":7382,"Ġbeat":7383,"ĠAction":7384,"rah":7385,"ĠTrack":7386,"ĠMur":7387,"Ġseat":7388,"anti":7389,"Ġusually":7390,"ĠTheme":7391,"Ġmaintained":7392,"Ġtestim":7393,"Ġtasks":7394,"Ġdamage":7395,"Level":7396,"ĠTurkish":7397,"OVER":7398,"Ġadopted":7399,"ĠWritten":7400,"ellectual":7401,"Cop":7402,"bath":7403,"iar":7404,"met":7405,"vince":7406,"Ġtitled":7407,"ancy":7408,"Ġgreen":7409,"ĠPacific":7410,"ĠFolders":7411,"ĠHer":7412,"Ġcontrolled":7413,"Ġmanifest":7414,"Ġprefer":7415,"Ġoppressed":7416,"Ġopposing":7417,"Ġoblig":7418,"UST":7419,"Ġrivals":7420,"Ġexistence":7421,"ĠTrisha":7422,"Ġpractice":7423,"Ġpermanently":7424,"Book":7425,"SEP":7426,"ox":7427,"px":7428,"vas":7429,"Ġwood":7430,"Ġcy":7431,"Ġinmenu":7432,"Ġgang":7433,"ĠCount":7434,"agog":7435,"ĠDon":7436,"ĠRat":7437,"ĠHome":7438,"ongal":7439,"ailing":7440,"Ġinterpre":7441,"ĠProdu":7442,"Ġdevices":7443,"Ġprofile":7444,"Ġhappening":7445,"Ġtradition":7446,"ĠSarath":7447,"ĠSingapore":7448,"gnore":7449,"Sivaji":7450,"rÃ¶der":7451,"UM":7452,"Work":7453,"ĠPART":7454,"rip":7455,"Ġkde":7456,"oking":7457,"Ġoverwhel":7458,"ertain":7459,"phas":7460,"serv":7461,"Ġunemployed":7462,"Ġcoup":7463,"Ġflee":7464,"Ġdictatorship":7465,"Creating":7466,"Hyper":7467,"TO":7468,"gen":7469,"kanth":7470,"Ġreference":7471,"osit":7472,"Ġworse":7473,"ĠNor":7474,"Ġresource":7475,"Height":7476,"Ġsymp":7477,"Ġdriven":7478,"ipping":7479,"Reset":7480,"Ġtaxes":7481,"Ġdependent":7482,"Ġdeparted":7483,"Behold":7484,"RW":7485,"Trace":7486,"uh":7487,"Ġsick":7488,"oms":7489,"agers":7490,"ĠMA":7491,"ĠWE":7492,"ĠHistory":7493,"ocket":7494,"arsh":7495,"ĠDelete":7496,"Ġsummer":7497,"Starting":7498,"Ġsales":7499,"Ġplugins":7500,"fix":7501,"jarat":7502,"Ġreign":7503,"Ġliqu":7504,"igation":7505,"ĠBengal":7506,"ouring":7507,"ĠKos":7508,"ĠShankar":7509,"hess":7510,"Ġmodify":7511,"Ġdebut":7512,"olean":7513,"Ġsounds":7514,"rishna":7515,"Object":7516,"Ġcondemned":7517,"Ġwonder":7518,"Ġdropped":7519,"%%":7520,"Card":7521,"win":7522,"Ġton":7523,"ita":7524,"Ġpull":7525,"ĠSign":7526,"raction":7527,"emon":7528,"ĠPand":7529,"ĠOh":7530,"Ġ75":7531,"Ġbegun":7532,"controlled":7533,"Ġprinting":7534,"Ġidentified":7535,"ĠRights":7536,"Co":7537,"Japan":7538,"Mr":7539,"Tab":7540,"uz":7541,"itect":7542,"Ġbought":7543,"Ġinquiry":7544,"Ġrenew":7545,"olved":7546,"Ġstead":7547,"Ġconver":7548,"Ġclosing":7549,"Ġunp":7550,"Ġpermissions":7551,"Ġoverth":7552,"Ġappropriate":7553,"Ġsett":7554,"rible":7555,"Connect":7556,"Ġprincipal":7557,"ĠService":7558,"Das":7559,"uan":7560,"Ġstraight":7561,"ĠMun":7562,"ĠBon":7563,"Ġcompens":7564,"Ġindeed":7565,"Ġmonitor":7566,"Always":7567,"Ġswitch":7568,"build":7569,"ÂĢÂ¦":7570,"usterity":7571,"ĠKurdish":7572,"Az":7573,"Pri":7574,"URI":7575,"bum":7576,"fe":7577,"lantic":7578,"ĠâĻª":7579,"Ġwine":7580,"Ġwikipedia":7581,"Ġmarch":7582,"asury":7583,"ambar":7584,"ĠSum":7585,"Ġancient":7586,"Ġproced":7587,"ĠLast":7588,"osh":7589,"ĠFormat":7590,"ĠWick":7591,"quar":7592,"ibet":7593,"Ġtherein":7594,"ĠVish":7595,"achment":7596,"rators":7597,"Ġsupports":7598,"Ġinvited":7599,"Ġflood":7600,"ĠPrinter":7601,"ĠAbd":7602,"Ġlessons":7603,"Ġseparatist":7604,"Ġkeeping":7605,"ĠCentre":7606,"Ġmultitude":7607,"Brow":7608,"PN":7609,"cape":7610,"there":7611,"uated":7612,"Ġwake":7613,"icate":7614,"elve":7615,"ĠPers":7616,"ĠBrow":7617,"plates":7618,"Ġpartner":7619,"ĠVas":7620,"Ġsigns":7621,"Ġfeatures":7622,"Ġhappens":7623,"ĠOnly":7624,"ĠAccount":7625,"Ġreferend":7626,"Sm":7627,"bed":7628,"atter":7629,"ĠMark":7630,"Ġshared":7631,"Ġcomposed":7632,"Ġblind":7633,"Ġentries":7634,"Ġrelation":7635,"ovo":7636,"parts":7637,"Construct":7638,"Ġgovernor":7639,"Ġtrouble":7640,"ĠJoshua":7641,"Ġbalance":7642,"Email":7643,"jack":7644,"sk":7645,"Ġausterity":7646,"itably":7647,"eless":7648,"ĠGDP":7649,"ĠGIMP":7650,"ivek":7651,"Ġchose":7652,"Ġdispl":7653,"overe":7654,"Ġextended":7655,"Ġreaders":7656,"Ġinitially":7657,"ĠCommand":7658,"Ġbuildings":7659,"Ġprocesses":7660,"hanush":7661,"Ġsafety":7662,"Ġescape":7663,"reshold":7664,"Ġnaval":7665,"Ġscientific":7666,"Ġremarks":7667,"Ġmachine":7668,"Ġfirms":7669,"ĠPEOP":7670,"Chennai":7671,"Small":7672,"Wait":7673,"human":7674,"rum":7675,"isen":7676,"allet":7677,"otic":7678,"ĠSave":7679,"igar":7680,"ĠCogl":7681,"emen":7682,"agraph":7683,"ewise":7684,"ports":7685,"Ġapparent":7686,"uality":7687,"Ġdiff":7688,"Ġprofound":7689,"Ġappearance":7690,"Ġdwelled":7691,"Ġrighteousness":7692,"ĠPhilistines":7693,"check":7694,"uru":7695,"Ġshadow":7696,"ellow":7697,"izh":7698,"Ġ\")":7699,"Ġquery":7700,"Ġnationalism":7701,"Ġboost":7702,"oval":7703,"mination":7704,"Ġbringing":7705,"amba":7706,"Ġtooltip":7707,"continent":7708,"Ġdomination":7709,"ĠSunni":7710,"Ġlegitim":7711,"Ġbankruptcy":7712,"Ġkilomet":7713,"Ġcontradictions":7714,"88":7715,"Bel":7716,"Ġcultural":7717,"ications":7718,"Ġhyp":7719,"utto":7720,"ĠAc":7721,"earance":7722,"ĠVad":7723,"Ġprem":7724,"ĠRaja":7725,"Ġearn":7726,"Ġaddresses":7727,"Control":7728,"Ġindication":7729,"ĠPeoples":7730,"Deb":7731,"Test":7732,"night":7733,"Ġbin":7734,"Ġplatform":7735,"Ġundert":7736,"Ġaftermath":7737,"Ġretire":7738,"Ġstartup":7739,"Ġcapable":7740,"ĠAssembly":7741,"Ġlisted":7742,"Ġminor":7743,"ĠItalian":7744,"Ġmembership":7745,"Ġindustries":7746,"Ġexecute":7747,"Ġcolumns":7748,"Ġsuffering":7749,"upported":7750,"Ġangel":7751,"Ġplantation":7752,"Ġpipeline":7753,"100":7754,"Pilot":7755,"bles":7756,"nu":7757,"Ġarose":7758,"enger":7759,"Ġcovered":7760,"Ġthanks":7761,"Ġgrad":7762,"uries":7763,"rage":7764,"ĠMor":7765,"ĠDi":7766,"Ġgoal":7767,"Ġcloser":7768,"izard":7769,"ilitary":7770,"Whatever":7771,"Ġdeclare":7772,"Ġartist":7773,"Ġdrivers":7774,"Ġseparated":7775,"Ġemployment":7776,"Ġfalling":7777,"Ġsquare":7778,"Ġprogressive":7779,"Ġreplaced":7780,"Ġprimary":7781,"icrosoft":7782,"Ġadvantage":7783,"some":7784,"orage":7785,"Ġpill":7786,"chi":7787,"ustria":7788,"Ġimag":7789,"ailand":7790,"Ġintellectual":7791,"Ġpresidency":7792,"ĠInfo":7793,"ĠYour":7794,"ĠYeah":7795,"Ġcommander":7796,"Ġcourts":7797,"Ġenterpr":7798,"Ġtelling":7799,"Ġbureaucrat":7800,"Ġsuggested":7801,"Ġdetermine":7802,"Output":7803,"ĠSimbu":7804,"Specify":7805,"Sar":7806,"Source":7807,"Workers":7808,"ieth":7809,"Â£":7810,"Ġocean":7811,"ales":7812,"Ġlands":7813,"adem":7814,"ĠTehran":7815,"heran":7816,"ĠFull":7817,"Ġunle":7818,"Ġarrow":7819,"ĠVer":7820,"IND":7821,"Ġexposed":7822,"iyam":7823,"Ġ1995":7824,"Ġ1996":7825,"Ġgotta":7826,"ĠSoftware":7827,"Ġsilence":7828,"Ġpositive":7829,"Neither":7830,"ĠMohan":7831,"Ġprophets":7832,"%.":7833,"Australia":7834,"Dark":7835,"Far":7836,"def":7837,"rath":7838,"range":7839,"ville":7840,"Ġsrilanka":7841,"omp":7842,"Ġstance":7843,"ĠDate":7844,"ĠFonseka":7845,"ĠWAS":7846,"Ġunrest":7847,"ishment":7848,"Ġ1930":7849,"Ġapplied":7850,"Ġadmitted":7851,"ĠXML":7852,"irds":7853,"adding":7854,"Ġimplications":7855,"Ġunderstood":7856,"AG":7857,"gal":7858,"Ġtour":7859,"Ġcens":7860,"Ġfat":7861,"omic":7862,"iller":7863,"ĠWill":7864,"ĠWork":7865,"ipse":7866,"Ġovert":7867,"Ġ1960":7868,"Ġ400":7869,"Ġsmote":7870,"ialogs":7871,"rafat":7872,"Ġpetition":7873,"Photo":7874,"Ġassassination":7875,"ygon":7876,"Ġrhetoric":7877,"Icon":7878,"Will":7879,"non":7880,"uw":7881,"cel":7882,"ĠCome":7883,"ĠPan":7884,"ĠBY":7885,"ĠUs":7886,"ĠNOT":7887,"ashion":7888,"ĠSea":7889,"Ġworldwide":7890,"ischer":7891,"Ġelites":7892,"ĠMalaysia":7893,"Advanced":7894,"Ġdominated":7895,"which":7896,"ĠKorean":7897,"Ġinserted":7898,"ĠDefense":7899,"Ġabandoned":7900,"Ġlawyer":7901,"Present":7902,"overy":7903,"Ġaw":7904,"Ġbull":7905,"Ġrede":7906,"ĠId":7907,"ags":7908,"ĠMenu":7909,"ĠLSSP":7910,"Ġatroc":7911,"ĠFederal":7912,"Ġsuc":7913,"Ġsust":7914,"arya":7915,"ĠJob":7916,"ruck":7917,"Ġrob":7918,"Ask":7919,"Ġrestore":7920,"Ġburden":7921,"Contact":7922,"Ġbloody":7923,"Ġlifted":7924,"Ġexercise":7925,"35":7926,"Av":7927,"sur":7928,"anim":7929,"alese":7930,"Ġpensions":7931,"sex":7932,"select":7933,"ĠAk":7934,"ĠMart":7935,"ĠGames":7936,"Ġrum":7937,"ĠFill":7938,"ĠOver":7939,"Ġupd":7940,"Ġwriter":7941,"ĠPrint":7942,"Ġauthentication":7943,"Ġproperties":7944,"ĠEngland":7945,"Ġloans":7946,"Ġangry":7947,"secution":7948,"Ġsweet":7949,"Ġencrypted":7950,"Ġsurrounding":7951,"SA":7952,"Sir":7953,"UPS":7954,"bus":7955,"district":7956,"hon":7957,"Ġfair":7958,"ician":7959,"icated":7960,"Ġgain":7961,"Ġstories":7962,"ĠPaper":7963,"ĠTop":7964,"Ġshif":7965,"Ġexception":7966,"duc":7967,"ĠStatus":7968,"icks":7969,"Address":7970,"Ġsites":7971,"Ġbombings":7972,"Ġassociation":7973,"Ġawards":7974,"ĠSchrÃ¶der":7975,"Ġindividuals":7976,"Again":7977,"Ġresidents":7978,"Ġsucceed":7979,"Dec":7980,"Pack":7981,"Pause":7982,"oting":7983,"oles":7984,"agam":7985,"andar":7986,"andal":7987,"ĠUser":7988,"Ġnewly":7989,"icket":7990,"ĠThus":7991,"Second":7992,"Ġsheep":7993,"THER":7994,"Ġjoining":7995,"Ġnegative":7996,"ravity":7997,"Ġnatur":7998,"Ġprecise":7999,"ĠRobert":8000,"70":8001,"otes":8002,"chor":8003,"ĠWord":8004,"ĠOR":8005,"Ġspot":8006,"Ġentitled":8007,"these":8008,"Ġends":8009,"Ġdecisions":8010,"Ġestate":8011,"Ġgreatest":8012,"Ġreportedly":8013,"Ġweapon":8014,"ĠPeople":8015,"Ġpursued":8016,"Ġlegisl":8017,"zbollah":8018,"Ġdebugging":8019,"Ġscre":8020,"enk":8021,"Ġwhe":8022,"Ġpawn":8023,"Ġmix":8024,"asth":8025,"amar":8026,"ĠSil":8027,"Ġnotice":8028,"andh":8029,"Ġdeals":8030,"essions":8031,"people":8032,"ĠRow":8033,"ĠJon":8034,"roud":8035,"india":8036,"Ġcompar":8037,"Ġregimes":8038,"State":8039,"ĠThese":8040,"Ġbackward":8041,"cycl":8042,"Ġrace":8043,"Ġparse":8044,"Ġslog":8045,"Ġbegat":8046,"ĠPreferences":8047,"Ġbelongs":8048,"Loading":8049,"ĠBackground":8050,"Ġdetainees":8051,"FOR":8052,"Undo":8053,"WE":8054,"aik":8055,"brit":8056,"hist":8057,"vo":8058,"reland":8059,"Ġsav":8060,"esing":8061,"asp":8062,"idhi":8063,"ĠBay":8064,"Ġintended":8065,"ressive":8066,"ĠVin":8067,"Ġanyway":8068,"Which":8069,"Char":8070,"Ġsignal":8071,"ONG":8072,"Ġediting":8073,"Ġflight":8074,"Connection":8075,"Ġdestabil":8076,"iversary":8077,"Ġsufficient":8078,"Ġstret":8079,"ĠBharath":8080,"Region":8081,"PFA":8082,"ĠSudan":8083,"History":8084,"Link":8085,"gg":8086,"Ġtiles":8087,"Ġsovere":8088,"atural":8089,"Ġorientation":8090,"itary":8091,"Ġaside":8092,"apuram":8093,"Ġadjust":8094,"Ġspaces":8095,"versation":8096,"Ġmemo":8097,"Ġhanded":8098,"Ġpoet":8099,"Ġlinked":8100,"ACE":8101,"Ġhardly":8102,"Ġgrounds":8103,"Ġincidents":8104,"Reply":8105,"Ġsensitive":8106,"Ġcubits":8107,"Ġinevitably":8108,"29":8109,"bel":8110,"make":8111,"zone":8112,"orough":8113,"Ġinformed":8114,"ĠSP":8115,"Ġstability":8116,"ĠTRUE":8117,"ĠBala":8118,"unicip":8119,"Ġasking":8120,"Ġpromise":8121,"Ġorganized":8122,"Within":8123,"atistics":8124,"IGHT":8125,"Ġfraud":8126,"Ġargued":8127,"esinghe":8128,"las":8129,"law":8130,"ading":8131,"rawing":8132,"three":8133,"ainer":8134,"Ġric":8135,"assador":8136,"Ġattended":8137,"Ġapproximately":8138,"chess":8139,"Organ":8140,"Ġexports":8141,"ĠGeorgian":8142,"ĠDetails":8143,"Ġtheatre":8144,"rieving":8145,"Ġoverwhelming":8146,"Dem":8147,"Track":8148,"ca":8149,"oja":8150,"Ġwedding":8151,"utch":8152,"igal":8153,"ĠAM":8154,"ĠPRO":8155,"ĠEph":8156,"ĠRec":8157,"rous":8158,"cluding":8159,"Ġimpover":8160,"Ass":8161,"Ġbright":8162,"ĠDevelop":8163,"Ġequip":8164,"ĠPlayer":8165,"vinism":8166,"Ġclothes":8167,"Car":8168,"Certificate":8169,"DB":8170,"KS":8171,"vis":8172,"Ġcried":8173,"editor":8174,"Ġbore":8175,"Ġbare":8176,"Ġrend":8177,"ĠSource":8178,"owell":8179,"ĠCre":8180,"email":8181,"Ġprove":8182,"ango":8183,"aja":8184,"rames":8185,"Ġtransform":8186,"Ġexplan":8187,"ovies":8188,"Ġposts":8189,"ĠExt":8190,"uvar":8191,"Ġapproval":8192,"ĠMahinda":8193,"Ġboyc":8194,"Ġchauvinism":8195,"ĠValue":8196,"Ġsuburbs":8197,"oslav":8198,"Ġdismant":8199,"mas":8200,"Ġtit":8201,"ashes":8202,"Ġhur":8203,"Ġhall":8204,"omen":8205,"ĠSU":8206,"peace":8207,"udh":8208,"ORT":8209,"Ġdiscs":8210,"Ġ45":8211,"ĠProgram":8212,"Ġcaught":8213,"OUR":8214,"Speaking":8215,"Ġorders":8216,"Ġmedic":8217,"vinces":8218,"ĠSaudi":8219,"Ġcasualties":8220,"=\\\\\\\\{":8221,"Cong":8222,"Long":8223,"Rather":8224,"Sat":8225,"gence":8226,"gments":8227,"nar":8228,"yes":8229,"Ġ`":8230,"Ġsrc":8231,"ouch":8232,"room":8233,"ĠCertificate":8234,"Ġstressed":8235,"Ġ($":8236,"ĠWikipedia":8237,"Ġquoted":8238,"Selected":8239,"Ġfollows":8240,"Exec":8241,"Ġterminal":8242,"Ġhostile":8243,"Ġgenerated":8244,"2001":8245,"Ġdialogues":8246,"party":8247,"Ġportray":8248,"remesinghe":8249,"AVE":8250,"ĠBharat":8251,"Ġparameters":8252,"Nor":8253,"UE":8254,"minist":8255,"Ġpul":8256,"ĠAV":8257,"ĠCOUNT":8258,"ĠTibet":8259,"Ġcomposer":8260,"Ġhousehold":8261,"Ġcauses":8262,"Ġcontrols":8263,"anium":8264,"ĠJanatha":8265,"adhal":8266,"Ġpublish":8267,"Ġblocks":8268,"Ġtribes":8269,"Ġpraised":8270,"ĠPSG":8271,"Office":8272,"Ġnumerous":8273,"Press":8274,"Sun":8275,"UI":8276,"last":8277,"parent":8278,"sites":8279,"Ġox":8280,"Ġdpi":8281,"amaraj":8282,"Ġreck":8283,"ĠBol":8284,"Ġrandom":8285,"avali":8286,"INE":8287,"Ġterrible":8288,"Ġburst":8289,"Automatic":8290,"aughter":8291,"Ġrecorded":8292,"Ġconfrontation":8293,"Ġstarring":8294,"Used":8295,"Ġpanel":8296,"Ġdesperate":8297,"Ġmortg":8298,"Ġscheduled":8299}