#version: 0.2 - Trained by `huggingface/tokenizers`
à ®
à ¯
à¯ į
Ġ à®
à¯ ģ
à® ķ
à® ¿
à® ¤
à® ¾
à® Ł
à® °
à® ª
à® ©
à® ®
à® ²
à¯ Ī
à® ¯
à® ±
à® ³
à® µ
à¯ ĩ
à¯ Ĩ
Ġà® ª
à®ķ à®³
à® ļ
Ġà® ķ
à® ¨
Ġà® ®
Ġà® ħ
Ġà® µ
à® £
Ġà® ¤
Ġà® ļ
Ġà® ĩ
Ġà® ¨
à® Ļ
Ġà® İ
à®ª à®Ł
à® ´
à¯ Ģ
à¯į .
Ġà® ī
à¯ ĭ
à¯ Ĥ
à¯Ĩ à®¾
à¯ĩ à®¾
à®µ à®°
à¯ Ĭ
Ġà®İ à®©
Ġà® Ĩ
à¯į ,
à¯ģ .
Ġà® Ĵ
à® ¸
Ġà®ĩ à®°
à® ĩ
à®Ł à®¤
à® ħ
à®ª à®¤
à®µ à®¤
à®¤ à®²
à®ķ à®ª
à®± à®¤
Ġà®ħ à®¤
à®Ł à®©
Ġà®® à®±
Ġà®Ĵ à®°
à®ķ à®®
à®¤ à®¤
Ġà®ķ à®Ł
à®¯ à®²
à®ķ à®µ
Ġà®ħ à®®
à®ķ à®¤
à®© à®°
à®° à®ļ
Ġ (
à®ķ à®°
Ġà®µ à®°
à®Ł à®®
à®° à®®
à® ľ
Ġà®ī à®³
à®¯ à®¤
Ġà® ı
o n
Ġà®ħ à®µà®°
à¯ģ ,
à®³ à®°
à®¯ à®°
à®¤ à®®
à® ·
Ġ 1
Ġà® ľ
à®³ à®¤
à®¯ à®©
à®µ à®©
à®¤ à®°
Ġà®ħ à®Ł
m e
Ġà®¨ à®Ł
Ġà®ª à®Ł
t i
Ġà®ĩ à®²
à®¤ à®©
à® İ
Ġà®ħ à®°à®ļ
à®¯ à®®
à®° à®¤
Ġà®İ à®¤
à®² à®¤
Ġà®ĩ à®¨
à®Ł à®°
à®© à®¤
Ġà®ī à®°
à® Ĩ
à®¤ à®µ
à®¤ à®ª
a n
ti on
Ġà® °
. .
0 0
à®¯ à®ķ
à® ī
Ġ "
Ġ n
Ġà®ħ à®©
à®ķ à®Ł
à®ķ à®²
à®¯ à®µ
Ġà®ķ à®°
a me
à®³ à®µ
Ġà®ļ à®®
Ġ t
e r
Ġà®ħ à®²
à¯Ī .
i n
Ġà® Ĳ
Ġà®ĩ à®¤
Ġà®ķ à®£
Ġà®ı à®±
Ġà® ¯
Ġ 2
Ġà®Ĩ à®ķ
Ġà®ħ à®±
à®ĩ à®¨
à®° à®£
à® ŀ
à®² à®®
à®ª à®°
Ġà®¤ à®²
Ġà® Ł
Ġà®¤ à®©
à¯į ;
a l
Ġà®ª à®ķ
à®Ł à®Ļ
à®® à®¤
e s
à®µ à®Ł
Ġà®İ à®´
à®Ł à®ª
Ġà®® à®ķ
Ġà®ª à®²
à® Ĵ
Ġà®ª à®¯à®©
i t
à®ļ à®®
o r
Ġà®µ à®´
Ġ '
à®¿ ,
Ġà®µ à®Ł
Ġà®ª à®¤
à®¯ à®ª
à¯į :
à®µ à®®
Ġà®ª à®±
à®ļ à®²
Ġà®ī à®±
à®² à®ķ
à®¤ à®ķ
l a
à®ļ à®°
à®µà®¤ à®±
Ġà®ĩ à®©
à®® à®©
Ġà®ħ à®´
Ġà®Ĩ à®£
Ġà®ļ à®°
Ġ -
à®¯ à®±
Ġ k
à®® à®²
Ġà®Ĵ à®©
Ġà®ľ à®©
à®± à®ª
à®Ł à®ķ
Ġà®ª à®£
à®ĩ à®¤
Ġà®µ à®ķ
à®ķ à®ķ
Ġà®İ à®Ł
à®µ à®ķ
Ġ a
à®± à®©
Ġà®ī à®£
Ġà®ħ à®µ
Ġà® Ī
e d
à®Ł à®²
g m
N ame
à®¯ à®Ļ
Ġk gm
Ġà®ħ à®³à®µ
Ġà®® à®¤
Ġà®µ à®¨
r o
à®° à®µ
e n
Ġà® ²
à®± à®ķ
à®± à®®
à¯ģ :
Ġà® Ĭ
Ġ d
à®³ à®®
Ġ %
Ġà®ħ à®¨
Ġà®¨ à®ķà®°
à®¿ .
à®¤à®° à®µ
à®° à®ª
Ġà®® à®©
à®ħ à®¤
a r
o p
Ġ p
Ġà®ĩ à®¯à®ķ
à®ª à®ķ
à®© à®®
Ġà®ĩ à®£
Ġà® ¸
Ġà®ĩ à®Ł
Ġ s
Ġà®ķ à®²
Ġà®® à®Ł
Ġà®ī à®Ļ
Ġà®İ à®£
Ġà®¤ à®®
à¯Ī ,
à®ļ à®¤
à®Ł à®µ
à®ķ à®Ļ
à®Ĵ à®°
Ġà®µ à®²
o t
r an
Ġà®ħ à®ª
h e
à®° à®Ļ
Ġn ame
à®ķ à®´
à®ķ à®£
Ġà® ¹
à®µ à®±
à¯į "
Ġà®ħ à®µà®©
à® ¹
Ġ( _
à®ª à®®
Ġà®ª à®°
à®© à®µ
à®ħ à®µà®°
o m
a t
à®µ à®²
l e
Ġà®İ à®²
Ġà®¤ à®Ļ
r e
à®¤ à®Ļ
Ġ C
Ġà®¤ à®Ł
Ġà® ĵ
tion al
Ġà®ĩà®° à®£
Ġà®ļ à®¨
à®ħ à®Ł
à®² à®µ
Ġà®ī à®Ł
Ġà®ħà®¤ à®©
i s
Ġà®¨à®Ł à®µà®Ł
à®ª à®£
Ġà®Ĩ à®¤à®°à®µ
it y
Ġà®ħ à®ļ
à®ª à®²
à®ħ à®®
Ġà®Ī à®°
à®ªà®¤ à®±
ran s
à®İ à®©
à®³ à®©
op tional
à®ķà®µ à®²
Ġt rans
Ġtrans la
i c
a b
n t
Ġà®ħ à®£
Ġ c
Ġà®Ĵ à®ª
Ġ1 9
à®° à®°
à®° à®Ł
l y
Ġà®Ĩ à®Ł
à®ļ à®©
Ġà®¨ à®Łà®¤
à®£ à®®
Ġà®ĩ à®ª
Ġ S
C ity
à¯į )
Ġà®ļ à®Ł
o u
à® Ĳ
à®± à®µ
.. .
à®´ à®ķ
Ġà®Ĩ à®¯
à¯ģ ;
Ġp ro
Ġ in
Ġà®¨ à®®
à®° à®²
i l
à®¾ ?
Ġà®ī à®Łà®©
Ġ 3
Ġà®İ à®¨
Ġà®ī à®©
Ġà®¤ à®ķà®µà®²
à¯į '
a c
à® ı
à®° à®ķ
Ġn e
à®± à®©à®°
Ġn ot
à®² à®©
Ġd o
à®± à®¨
Ġà®ª à®Ļ
à®ª à®©
Ġ2 00
à®¤ à®©à®°
Ġà®ī à®¯à®°
Ġtransla tion
à®³ à®ª
Ġà®ļ à®ķ
o l
Ġà®ľà®© à®¨
Ġà®¤ à®¯
Ġà®ª à®Łà®¤
Ġà®ħ à®ķ
Ġne ed
Ġà®ī à®¤à®µ
Ġà®ĩ à®¸
Ġà®Ĩ à®©
( _
à¯Ī :
b ab
à®² à®°
à®Ĩ à®©
Ġà®ĩ à®Łà®®
à®¤ à®µà®°
Ġà®Ĩ à®°
à®± à®Ļ
e l
à®ª à®µà®°
Ġdo es
à®ķ à®©
Ġpro bab
à®°à®£ à®®
Ġprobab ly
1 9
à®ª à®¨
Ġà®Ĳ à®°
Ġà®ĩ à®Łà®¤
Ġà®ħ à®°
s t
Ġt he
à®® à®±
à®¤ à®±
Ġ b
à®² à®Ļ
à®° à®©
me nt
Ġà®İà®© à®ķ
Ġà®Ĩ à®ļ
à¯ĩ ,
à®µ à®£
Ġà®¤ à®±
à®ļ à®Ļ
à®ª à®±
u n
Ġà®ħ à®Ļ
Ġ f
ĥ à®ª
à¯į ?
à®³ à®©à®°
Ġà®µà®´ à®Ļ
Ġà®¤ à®°
à®ªà®Ł à®µ
à®² à®ª
Ġà®¤ à®©à®¤
Ġ M
Ġà®ī à®²à®ķ
Ġà®İ à®Ļ
à®ħ à®©
à®ħ à®ª
Ġ T
à®¤ à®¨
Ġà®ĩ à®¯à®²
r i
Ġà®µ à®£
à®© à®£
à®® à®ķ
à®ķ à®ļ
Ġ 4
e t
à®µ à®¨
à®ĩ à®°
Ġà®ª à®¯
à®¾ ,
Ġ P
à®ª à®µ
à®ī à®°
Ġà®¨à®Ł à®¨
Ġà®İ à®ª
à¯į -
Ġ A
Ġà®ĩ à®´
à®ķà®³ à®¤
Ġà®ļ à®¤à®µ
à®³ à®ķ
Ġ w
Ġ 5
à®ª à®Ļ
à®Łà®© à®°
Ġà®µ à®³à®°
à®® à®°
00 0
à®¿ :
Ġà®Ĵ à®¤
Ġà®ī à®²
à¯ĩ .
Ġà®® à®£
à®ĩ à®ª
à®¾ .
à® ĥà®ª
à®¤ à®Ł
à®ľ à®©
Ġà®¤ à®³
Ġà®ĩ à®Ļ
à®® à®£
om ment
Ġà®Ĩ à®²
a d
Ġà®ī à®¯
a g
Ġ L
Ġà®ī à®¤
à¯ģ "
' '
e c
Ġ D
Ġà®ı à®©
t h
i a
Ġà®ª à®Łà®®
Ġ' '
C omment
o f
in g
Ġà®ĩ à®µà®°
u s
Ġà®ķà®Ł à®¨
Ġà® ·
a s
à®ķ à®µà®°
à®´ à®®
à¯į. ..
à®Ł à®³
m b
à®£ à®¤
Ġà®ķ à®¤
u r
Ġà®Ĩ à®±
ac tion
Ġà®ħ à®³
Ġ I
à®£ à®ª
Ġà®ĩ à®±
Ġ h
Ġà®Ĩ à®¤
à®ī à®³
Ġ F
Ġà®Ĩ à®ª
à®¯ à®Ł
u t
Ġ B
Ġà®ĩ à®µ
à®Ł à®µà®°
Ġà®İ à®°
Ġà®Ĩ à®°à®®
Ġà®Ĵ à®Ł
Ġà®¤ à®µ
à®· à®©
2 00
Ġà®ħà®¤ à®±
à®ħ à®¨
à¯ģ. ..
à®± à®µà®°
Ġà®ļ à®¤
Ġ 6
Ġ .
à®ªà®Ł à®¤
Ġà®ķà®£ à®ķ
à®³ à®Ļ
Ġ m
à®ª à®ª
Ġà®ĩà®² à®ķ
Ġt o
Ġ of
Ġà®ĩà®² à®Ļ
à®İ à®²
à®´ à®°
à®ķ à®±
Ġ G
à®ĩ à®©
Ġà®® à®°
an d
Ġà®Ĩ à®®
à¯į !
à® Ī
Ġà®¤ à®µà®±
à®´ à®²
Ġà®ĩ à®ļ
à®® à®Ł
Ġà®Ĩ à®³
Ġà®Ī à®Ł
Ġà®Ĵ à®´
à®¨ à®Ł
à®¤ à®ªà®Ł
Ġ O
Ġà®ķ à®®
à®´ à®¨
Ġà®ı à®¤
à®ī à®Ļ
Ġ 7
à®ŀ à®°
Ġà®īà®£ à®°
à®ĩ à®²
Ġ N
à®¯à®µ à®±
à®Ĩ à®°
c h
Ġ R
à®µ à®Ļ
à®µ à®´
à¯ģ )
à®ħ à®°à®ļ
à®µ à®ļ
à®µ à®ª
Ġ x
à®ª à®¯à®©
Ġà®µà®´ à®ķ
Ġà®¨ à®²à®©
Ġà®¨ à®©
à®ķà®£ à®ķ
à®ĩ à®£
à®Ł à®£
à®İ à®´
Ġà®¤ à®°à®µ
Ġà®µà®° à®²
à®ļ à®Ł
a m
Ġà®ª à®´
Ġà®µ à®²à®¤
Ġà®® à®¨
à®± à®²
Ġà®Ĵ à®µ
à®ķà®° à®®
Ġà®ļ à®Ļ
à¯į. "
Ġà®ªà®Ł à®Ļ
y p
à®ķ à®©à®µ
à®© à®µà®°
à®ª à®¯
Ġà®İ à®ļ
à®¯ à®µà®°
à® ĵ
Ġà®Ĵ à®²
à®µà®© à®Ļ
\ \
Ġà®¨ à®²
Ġà®µ à®Ļ
à¯Ī "
- -
Ġ 0
d e
Ġ K
Ġà®¨ à®ķà®²
Ġà®ª à®¤à®µ
Ġà®ħà®µà®° à®¤
Ġ 8
à®ļ à®ª
Ġà®Ĳ à®ķ
à®ªà®Ł à®®
à®© à®Ļ
Ġ U
à®³ à®Łà®ķ
à®ĩ à®¤à®©
à®ķà®° à®µ
à®µà®© à®®
t e
à®¾ /
A N
Ġà®ķ à®©
Ġ l
Ġà®® à®²
à®¤à®© à®®
Ġ &
Ġà®¤ à®£
Ġ E
à®© à®ŀ
Ġà®ķ à®³
o c
à®ļ à®ķ
Ġ H
Ġà®µà®° à®µ
à®© à®ª
à®¤ à®´
o w
ag e
Ġ e
Ġà®ĩ à®±à®ķ
à®¯à®ķ à®ķ
à®ķà®Ł à®¨
Ġà®ĵ à®Ł
a p
Ġ' %
à®¯ à®°à®ļ
à®ħ à®ļ
à®° à®¸
e w
er s
à®° à®¤à®®
à®µ à®³
Ġà®ķ à®±
Ġà®ı à®´
Ġà®Ĳ à®¨
Ġà®ķà®² à®¨
Ġ1 0
Ġà®ĩ à®³
c e
Ġà®ĩ à®¤à®©
à®ħ à®£
Ġà®ĵ à®°
i g
à®Ĩ à®®
Ġà®ī à®®
Ġà®¤ à®¨
Ġà®¨à®Ł à®ķ
Ġà®ħà®µ à®±
à®Ī à®°
l d
â Ģ
à®ħ à®²
Ġà®µ à®³
Ġà®ªà®° à®¨
à®İ à®¤
Ġà®ª à®¯à®Ļ
S t
Ġà®ļ à®ª
is t
Ġ /
Ġà®Ĩ à®µ
a y
à¯į' '
Ġà®Ĭ à®Ł
à®İ à®¸
Ġ2 0
Ġ 9
à®£ à®°
à®ļ à®¨
e m
à®¨ à®ķà®°
à®¿ '
à®ĩ à®µà®°
à®¤ à®°à®®
Ġ W
Ġà®İ à®µ
Ġà®Ĩ à®¤à®°
Ġs t
à®³à®° à®¤
h t
en t
à®Ĩ à®ķ
es s
Ġà®µà®Ł à®ķ
A T
Ġ19 9
à®ĩ à®µ
a il
Ġà®Ĩ à®µà®£
ol or
Ġà®ª à®ļ
Ġà®īà®± à®µ
a tion
Ġà®Ĩ à®¸
u mb
Ġà®İ à®ķ
Ġà®¤ à®ķ
Ġ1 2
f o
: %
à®ĩ à®°à®£
à®Łà®µ à®£
à®² à®¸
à®´ à®±
at e
Ġ y
Ġà®ħà®µ à®³
" %
à®¤ à®³
à¯ģ ?
à¯ĭ ,
S L
Ġà®ķ à®Łà®©
Ġà®µ à®¯à®¤
à®µà®© à®¤
Ġt h
Ġà®ķ à®´
Ġà®ļà®® à®¤
en c
Ġà®µ à®©
Ġà®ı à®ķ
s s
à®ħ à®±
à®ª à®ļ
Ġà®¤ à®®à®¤
Ġà®ĩ à®Łà®Ļ
Ġ re
= "
yp e
à¯Ī ;
q u
Ġà®° à®·
Ġin fo
à®µà®° à®Ļ
5 0
or t
à®© à®²
à®· à®°
Ġ ~
Ġà®Ĭ à®´
à®ªà®° à®ª
i m
O R
à®£ à®Ļ
Ġà®ľà®© à®Ļ
un it
à®ķà®² à®®
an g
i on
v i
Ġ( %
à®¯ à®ķà®¤
à®Ĳ à®°
Ġc om
à®ī à®£
Ġ g
à®£ à®µà®°
à®¯ à®¨
Ġà®ĩà®¤ à®±
à®¤à®© à®¤
i z
Ġ" %
D E
Ġ [
Ġà®µ à®±
Ġà®Ĵ à®³
u l
Ġà®Ĭ à®¤
à®± à®ļ
à®ĩ à®²à®Ļ
e x
o o
à®ħ à®³à®µ
à®ĩà®¤ à®±
v er
à¯į /
) ,
Ġà®ı à®°
Ġà®ª à®°à®µ
ec t
Ġb e
à®° à®´
à®İ à®ª
Ġà®ķ à®µà®²
Ġ la
ti n
on t
à®İ à®®
in d
à®´ à®ª
Ġà®ħ à®ŀ
Ġà®ķà®Ł à®µ
Ġà®ªà®¯ à®©à®°
Ġà®µ à®ļ
Ġà®ĩà®¯à®² à®µ
c olor
Ġà®ĩ à®¯à®Ļ
Ġà®ī à®´
Ġà®Ĩ à®ªà®¤
à®© à®Ł
à®ı à®±
Ġ it
t p
i d
à®¤ à®ļ
à®ħ à®¤à®©
Ġà®¤ à®³à®¤
) :
k e
u b
il s
Ġà®ħà®Ł à®ķ
v e
r a
Ġ1 5
Ġà®Ĭ à®Łà®ķ
p p
Ġà®īà®Łà®© à®Ł
Ġà®ħà®ķ à®±
Ġ- -
Ġà®ķà®Ł à®²
¿ ½
ï ¿½
Ġ ï¿½
Ġà®īà®© à®ķ
enc ils
s e
o g
ĠT R
à®¤ à®ķà®®
à®ĩ à®Ļ
à®ħà®¤ à®±
i f
Ġ <
à®µà®° à®¤
à®ħ à®µ
à®ļ à®¯à®®
à®¸ à®°
Ġ ...
t er
19 9
à®Ĩ à®ļ
à®¤ à®¯à®µ
Ġà®ª à®©
à®µà®¤ à®©
à®¯ à®³
Ġà®ķ à®ª
à®¿ )
Ġï¿½ \
Ġà®ķà®Ł à®±
à®ħ à®µà®©
Ġ1 1
Ġà®¤ à®ª
à®£ à®µ
à®ī à®²à®ķ
à®¨ à®Łà®ª
à®¨ à®°
th umb
à¯ģ !
w or
Ġà®ľ à®ª
à®® à®®
b el
Ġà®ĵ à®¯
Ġà®ļ à®²
AT OR
Ġà®ĩ à®¯à®±
à®ĩ à®Ł
Ġà®ķ à®µ
à®Łà®© à®®
AN SL
ĠO F
Ġ is
ĠTR ANSL
ATOR S
ĠTRANSL ATORS
iz e
en er
un d
Ġf or
à®¯ à®ķà®®
Ġà®ī à®ļ
à®µà®° à®®
Ġà®ĩ à®µà®±
Ġ ,
à®¤ à®ķà®¤
Ġà®Ĭ à®ķ
ar t
Ġà®ª à®³
à®Ĩ à®¯
Ġ r
à®¯ à®ļ
Ġà®ĩà®° à®¤
M L
à®ª à®²à®ķ
à®² à®¨
Ġ or
à®°à®¤à®® à®°
Ġ J
à®¿ -
Ġà®¤ à®¤
1 0
Ġà®ħà®Ł à®Ļ
M A
Ġ me
f or
Ġà®¨à®Ł à®ª
ar d
à®Ĵ à®²
Ġà®ļ à®µ
à®ªà®Ł à®Ļ
à®© à®ķ
M E
Ġ and
à®ĩ à®¸
Ġà®ªà®² à®°
à¯Ī )
C on
à®ħ à®ķ
Ġà®¤ à®³à®®
à¯ĩà®¾ ,
Ġà®İà®© à®µ
2 0
Ġ1 8
Ġà®Ĭ à®°
à®¤ à®³à®®
Ġà®µ à®ļà®¤
à®µ à®³à®µ
la tion
i r
Ġ3 0
Ġ Y
Ġà®ħà®® à®°
à®Ł à®±
Ġà®ħ à®ķà®²à®®
a in
Ġla bel
St encils
à¯ģ -
à®Ĩ à®ª
Ġà®ļ à®ķà®²
Ġà®īà®£ à®µ
à¯į %
Ġà®ħà®µ à®ļ
Ġà®İ à®®
i le
à¯ Į
à¯į (
Ġà® ŀ
à®ľ à®ªà®ķ
c k
6 0
à®ķ à®ªà®Ł
st el
à®® à®³à®µ
à¯ģ. "
e p
stel lation
à¯ģ %
t ype
A R
à®° à®¨
à®ĩ à®Łà®¤
à®ķà®Ł à®µ
u p
à®¤ à®³à®¤
Ġà®ĩà®´ à®¨
à® Ĭ
à®ľ à®°
à®°à®£ à®¤
Ġ Name
" >
as e
à®ī à®²
Ġà®ªà®Ł à®ª
s p
à®Ĵ à®©
Con stellation
i al
à®³ à®°à®®
à®± à®µà®©
à®ĩ à®¯à®ķ
à®İ à®¨
à®° à®³
à®ªà®Ł à®²
Ġà®ĩà®´ à®ª
19 8
Ġ >
à®Ĩ à®£
Ġà®Ĩ à®´
à®ª à®³
à®İ à®Ļ
Ġà®®à®ķ à®©
à®ªà®Ł à®ķ
ad a
u m
e g
à®Ĵ à®µ
Ġà®īà®² à®ķà®ª
` `
Ġà®İ à®¸
à®Ĩ à®Ł
à®ħ à®´
ou r
Ġa c
ri p
Ġ X
Ġà®Ĩ à®Ļ
t le
Ġ ti
Ġà®İ à®³
à®· à®®
Ġà®ªà®² à®ķ
Ġw h
Ġ2 5
Ġ on
u e
Ġà®ĩ à®±à®Ļ
a h
à®³ à®µà®°
an ada
I L
à®² à®Ł
à®ħ à®ŀ
Ġà®ĩà®° à®Ł
' %
Ġ1 7
Ġs ize
à®£ à®¯
ener ic
à®ħ à®°
à®¤à®µ à®±
à¯ģ '
à®© à®©
à®ª à®´
I N
c rip
à®£ à®©
Ġà®ĩ à®±à®¨
à®ľ à®¯
à®ħ à®Ļ
Ġà®¤ à®°à®ª
1 1
t ed
à®® à®Ļ
Ġà®Ĩ à®´à®®
Ġ V
Ġà®ªà®£ à®®
Ġà®ĩ à®ķ
ou nt
Ġà®īà®¯ à®°à®®
à®Ł à®ļ
Ġ ..
à¯ĩà®¾ .
Ġ le
Ġ1 6
ou n
à®® à®¨
Ġ1 3
à®ī à®±
à®¤ à®µà®©
à®ĩ à®ļ
à®¨ à®®
Ġà®¨ à®£
Ġà®ļ à®£
ĠC anada
r ic
à®ı à®©
Ġà®® à®°à®ª
Ġ1 4
à®İ à®Ł
19 7
b o
Ġs h
Ġà®° à®¤
à®ī à®¤
) .
h is
Ġà®¤ à®¯à®µ
Ġà®ı à®ª
Ġà®¨à®ķà®° à®¤
Ġà®ī à®ªà®¯
Ġà® ĥà®ª
tin g
it h
Ġà®Ĭà®Łà®ķ à®Ļ
o b
Ġh t
Ġà®° à®ļ
eneric Name
à®° à®µà®°
à®İ à®©à®µ
la y
und o
3 0
à®°à®£ à®Ļ
à®İà®© à®ķ
à®¤ à®ķà®µà®²
G enericName
à® ĥ
er t
à®İ à®£
oc k
Ġà®İ à®µà®°
à®ªà®¯ à®©à®°
Ġà®¤ à®ļ
n u
Ġà®¤à®© à®ķ
Ġà®ĩ à®¯
ac k
e e
Ġà®Ĵ à®±
Ġà®īà®² à®ķà®®
r y
à®¨ à®²
à®ļ à®ķà®°
Ġb ut
à¯ģ ''
Ġ/ /
in e
u g
à®ĩ à®±
T ML
Ġà®ī à®ķ
en d
a i
à®ī à®¤à®µ
Ġ1 00
à®ķà®Ł à®²
Ġ us
er e
ri g
for m
in t
à®¤à®° à®°
Ġ19 8
à®ī à®©
I S
à®¾ '
à®ļ à®µ
w w
y mb
à®µ à®²à®¤
Ġà®İà®© à®ª
ymb ol
ĠS t
Ġ v
Ġà®¤ à®ķà®ª
R L
à®ª à®¯à®Ļ
Ġ al
ti c
à®µà®ķ à®©
à®¯à®² à®®
Ġ5 0
Ġà®¨ à®ªà®°
Ġà®ĩà®° à®µ
l ic
Ġà®ĩà®° à®ķà®ļ
Ġ( )
o d
Ġ $
Ġ4 0
m p
Ġht tp
Ġà®ī à®Łà®²
o s
Ġà®ĩ à®®
c t
Ġà®Ĩà®µà®£ à®¤
ap er
es crip
Ġà®İà®© à®¤
à®ªà®¤ à®©
Ġà®Ĩà®µ à®£à®®
1 2
Ġà®ļà®® à®®
er v
il l
wor ld
à®¤ à®¯
Ġà®¨ à®µ
à®° à®¯
à®µ à®µ
p h
à®³ à®²
Ġà®ī à®®à®¤
Ġà®ľ à®©à®¤
escrip tion
Ġ @
e y
ou ld
Ġà®¨à®ķà®° à®Ļ
à®Ĩ à®¸
1 8
j ect
Ġà®ª à®²à®®
à®µà®Ł à®ķ
vi ew
à®¿ ...
Ġ :
Ġ _
à®ĩ à®ķ
Ġà®ªà®² à®µ
Ġà®ª à®µ
Ġà®¤à®³ à®ªà®¤
rig ht
à¯Ī '
Ġ19 7
à®¨ à®ķà®²
Ġth is
Ġà®ªà®°à®µ à®²
i an
à®¿ "
à®ĩ à®Łà®®
à®£ à®ķ
g r
Ġà®µà®° à®®
Ġà®īà®³ à®µ
i b
à®Ĵ à®ª
p x
Ġà®ļ à®±
à¯Ģ .
Ġ2 4
Ġà®ĩà®© à®µ
à®¯ à®³à®µ
à®¤ à®³à®µ
A ME
t on
à®Ĩ à®µà®£
Ġà®Ĩà®µà®£ à®Ļ
MA IL
Ġà®ķ à®µà®©
Ġ200 2
Ġà®¨à®ķà®° à®®
Ġà®® à®©à®¤
à®¯à®ķ à®©
Ġà®ª à®°à®ª
Ġà®ĩ à®¤à®°
on g
à®ķà®³ à®µ
Ġà®ħ à®°à®Ļ
Ġà®° à®ľ
ĠC D
u st
à¯Ĥ .
Ġà®ľà®© à®µà®°
à®İ à®µà®²
Ġà®¨ à®µà®®
ran ce
e f
Ġti tle
T he
Ġit em
à®Ĩ à®²
à®±à®¤ à®±
g re
à®Ł à®²à®¤
Ġ19 4
Ġà®ĩ à®¯à®¨
à®® à®ª
à®ķà®¤ à®°
à®İ à®µ
i x
Ġ *
à®ªà®µ à®Ļ
C D
Ġà®ħ à®ķà®¤
c om
Ġà®ļ à®©
à®¤à®¤ à®±
à®² à®ļ
à®² à®µà®°
V D
n s
t s
à®® à®¤à®®
à¯Ī !
Ġà®ķ à®µà®©à®®
Ġ200 7
à®ī à®Ł
à®ī à®¯
à®ĩ à®¯à®²
Ġtransla te
Ġ op
ex t
ang u
Ġ âĢ
Ġà®ķà®© à®Ł
v in
re f
S h
Ġà®¤ à®ķà®°
à®µà®° à®µ
à®µà®² à®°
o st
s h
ti es
Ġà®ħà®´ à®ķ
Ġà®¨ à®ķà®±
à¯Ī ...
es t
à®µà®° à®ª
E MAIL
à®ı à®ª
Ġx A
r it
Ġà® ©
à®ª à®ķà®¤
Ġ an
0 2
Ġ200 8
Ġà®Ĩà®² à®¯à®¤
à®® à®£à®®
à®² à®³
/ %
Ġ2 2
Ġà®ªà®£ à®¤
à®ħ à®µà®³
u d
Ġà®² à®Ł
à®ķà®° à®©
ar e
P D
P A
à¯ģ /
a k
Ġ Z
Ġà®¨ à®ļ
u ck
à®Ł à®µà®©
Ġ200 4
angu age
e le
Ġà®ĩ à®µà®©
ou t
Ġ2 3
à®Ĩ à®°à®®
N ew
à®Ĩ à®Ļ
Ġy ou
Ġà®ķ à®Łà®¤
à®Łà®¤ à®±
Ġà®ı à®µ
Ġ200 0
e v
à®· à®¤
à¯ģ: %
S E
Ġc on
P I
à¯Ī ''
Ġà®µ à®®
à®ļ à®©à®®
à®¯à®® à®Ł
Ġac tion
Ġà®¤ à®°à®®
ig n
1 6
o me
Ġ200 1
à®ĩ à®²à®ķ
à®ķ à®¨
à®ª à®µà®®
al l
) ...
à¯į ]
à®ī à®¯à®°
Ġà®Ĩà®ķ à®¸
à®Ĳ à®ķ
à®¤à®° à®¤
Ġà®ķ à®µà®°
à®ľà®© à®¨
Ġà®¤ à®Łà®®
à¯Ī %
à®¨ à®µà®®
à®©à®° à®²
f ic
or y
Ġa re
t ur
à®İ à®ķ
le ase
200 1
1 4
o de
L E
T T
à®¤ à®¯à®¤
à®ļà®© à®Ļ
à®Łà®£ à®Ļ
C R
Ġà®ª à®²à®¤
p r
à®ļ à®©à®¤
à®ĩ à®µà®±
à¯į: %
à®¾ -
à®Ł à®£à®¤
à®¯ à®¸
l and
Ġ2 6
Ġà®ķ à®µà®©à®¤
à®¿ ?
à®µà®° à®²
Ġ6 0
er ver
Ġ =
Ġà®ª à®¨
ar y
form at
Ġ2 1
s ymbol
Ġà®Ĭà®Ł à®ķà®¤
symbol s
ed it
Ġà®ķ à®®à®²
Ġà®ĩ à®´à®ķ
Ġ200 3
C O
à¯ĭ ?
.. ..
us s
E R
à®µ à®´à®ķ
Ġà®ħà®µ à®ļà®°
à¯Ī: %
à®´ à®©
ĠH TML
Ġà®µ à®³à®Ļ
à®Ĵ à®Ł
à®ħà®µà®° à®¤
w e
Ġst at
ul t
Ġs p
l l
x t
ah oo
à®ķ à®¸
à®¤à®° à®©
1 7
Ġà®¤ à®Łà®µ
Ġà®¨ à®ķ
à®ľ à®®
ĠS h
i p
Ġà®® à®´
à®¤à®© à®Ļ
on d
Ġà®Ĭ à®´à®²
m an
à®· à®¯à®®
à®Łà®ķ à®©
à®£ à®²
Ġ Ġ
Ġà®ī à®¨
Ġà®ªà®¯ à®£
S erv
I A
à®° à®°à®ļ
U ri
à®¤à®° à®ª
Ġe u
ind ow
Ġà®ļ à®°à®¤
Ġle x
p aper
à®ī à®Łà®©
ĠL ex
Uri Serv
ĠLex UriServ
à®ª à®µà®¤
i o
Ġà®İ à®®à®¤
in es
or g
à®¨ à®©
Ġà®ħ à®ľ
Ġà®ī à®ª
R I
Ġ ?
à¯į @
Ġ( "
ic h
s w
à®² à®°à®ļ
à®± à®µà®±
à®Ĩ à®±
à®ª à®ķà®®
1 5
N AME
Ġà®® à®ķà®¤
Ġà®ħ à®°à®ª
à®ľà®© à®µà®°
m ail
i me
Ġà®ħà®² à®Ļ
Ġ200 6
Ġà®® à®ķà®³
à®İ à®ļ
Ġà®İ à®±
à®µà®® à®©
à®Ĩà®ķ à®¸
Ġà®® à®ļ
Ġ2 7
t o
Ġ {
Ġà®¤à®³ à®Ļ
à®¤ à®³à®Ļ
à®ª à®°à®®
à¯Ī ?
Ġà®® à®Łà®Ļ
Ġà®ħ à®¸
ro p
Ġsh ould
W S
Ġà®ĩ à®±à®ª
Ġ19 6
Ġx E
ion s
/ /
Ġà®ª à®´à®®
_ :
n d
Ġd ist
à®ĵ à®°
C E
Ġà®ªà®¤ à®Ł
à®°à®ķ à®Łà®©à®®
D VD
M S
e b
â Ļ
à¯į" ,
u re
: //
Ġà®ļà®® à®°à®ļ
à®Ĵ à®¤
Ġtransla ted
m l
à¯ģ. .
Ġ2 8
à®ħà®® à®°
à¯Ī -
2 4
Ġà®µ à®¸
P S
h er
à®° à®µà®¤
2 5
tion s
Ġà®¨à®® à®ķ
ke y
p er
à®¤à®² à®¤
Ġà®ªà®´ à®Ļ
à¯ģ @
à®© à®¨
i re
à®¿ (
n et
la ss
Ġc h
P P
g er
Ġà®° à®µ
st ar
uss ia
ment s
à®ĩ à®®
Ġà®ı à®¸
Ġy ahoo
K DE
ĠU RL
l i
à®¤ à®ķà®°
à®® à®¸
Ġw ith
Ġ #
ĠK DE
ht tp
a z
f t
r or
ab le
D escription
Ġor g
f rance
à®Ł à®¨
Ġà®īà®² à®ķà®¤
c on
Ġà®ĩ à®³à®®
Ġà®ķà®Ł à®®
Ġ2 9
l o
Ġà®ķ à®¤à®µ
Ġà®ļà®® à®¯à®®
a ke
e ar
à®± à®ŀ
Ġà®¨ à®¤
Ġà®Ĳ à®¯
ac e
eg ion
Ġw ill
Ã ©
ial og
âĻ ª
5 9
i B
Ġ unit
à®° à®·
S S
à®· à®µ
ĠC h
D A
Ġà®ª à®ŀ
ol d
S T
Ġà®ī à®®à®ķ
Ġà®ı à®®
à¯į. .
à®Ĳ à®¨
a tional
à®ķà®³ à®®
à®ķà®³ à®ŀ
R O
Ġ he
à®Ĵ à®³
m age
et s
qu ot
ount ry
\ .
à®ĩ à®¯à®±
Ġà®ĩà®¤ à®´
N T
Ġà®īà®¯à®° à®Ł
à®¤ à®£
à®Ł à®ªà®Ł
à®²à®ķ à®Ļ
à¯į- -
ag es
e an
à¯ĩ ?
Ġc oun
Ġm on
c es
y le
à®© à®¸
oun d
ĠC O
à®Ł à®Ł
a v
à®Ł à®¯à®¤
c he
Ġf ile
Ġà®Ĭà®Ł à®ķà®®
Ġà®ħ à®ķà®°
à®ĩ à®°à®Ł
Ġà® ±
Ġà®¤ à®°à®¤
Ġà®· à®°
i v
à®Ł à®¯à®®
à®® à®¯
Ġw or
Ġà®² à®£
à®µà®² à®ķà®¤
à®ª à®¸
à®¯ à®£
Ġà®¤ à®Łà®Ļ
à®Ĩ à®¤
is c
à®Ł à®ķà®®
Ġà®° à®®
Ġme nu
Ġcoun ties
Ġth at
à®¿ /
in k
Ġà®Ĩà®¤à®°à®µ à®³
Ġbut ton
Ġà®ªà®Ł à®ķ
Ġwh at
M P
à¯ģ (
à®² à®£
Ġà®ĩà®° à®¯
à®· à®¯à®Ļ
ĠN ew
ate g
g e
t r
à®µ à®ķà®®
ic e
à¯Ģ -
ĠA l
og l
I mp
Ġ u
Ġà®ª à®¯à®ª
à®ľ à®ķ
Ġt ype
or s
C al
S A
Ġk ey
âĢ Ļ
lay ers
Ġl ist
I D
i pp
Ġ Q
à®°à®® à®ļ
à®ªà®° à®Ļ
Ġc an
Ġst ate
p ort
à®Łà®® à®©
it al
Ġstat us
G T
Ġ5 00
Ġmon th
Ġà®¨ à®®à®¤
à®´ à®¤
C ountry
Ġà®µà®° à®ª
it e
à¯į) .
ĠI n
Ġme ss
p i
à®Ł à®²à®®
Ġ200 5
à®ķà®© à®Ł
ĠT he
à®± à®ªà®Ł
à®ĩ à®±à®ķ
Ġ19 3
Ġb y
St ock
a f
l es
à®Łà®© à®ª
ĠY ou
4 0
Ġ Ã
à®® à®ķà®©
à®± à®°
Ġà®Ĩ à®¯à®¤
Ġh ow
S O
à¯ĩ !
à®ªà®Ł à®ª
- %
. "
à¯Ī. "
Ġ ``
à®ķà®Ł à®µà®©
re e
Ġà®ķ à®ļ
à®³à®° à®Ļ
Ġc lass
r ing
er y
Ġà®Ł à®ķ
ateg ory
à®¨ à®Łà®¤
. )
à®² à®²
or e
Ġk de
à¯į' ,
Ġà®ħ à®³à®ª
uck ing
Ġà®ħ à®µà®¤
Ġà®¤ à®ķà®©
P N
ro up
st his
à®µà®´ à®Ļ
Ġwhat sthis
à®® à®¯à®®
Ġà®® à®°à®£à®®
à®ı à®¤
Ġe x
à¯ģ --
à®¤ à®¯à®®
Ġà®Ĩ à®ķà®µ
à®ļà®° à®µ
à®ªà®² à®ª
B AR
19 6
Ġa s
Ġà®ļ à®°à®£
Ġà®ªà®Ł à®µ
er n
à¯ĩ ;
am il
o v
Ġà®ĩà®² à®µà®ļ
8 0
o x
Ġ Â
à®ī à®ª
ric ts
ic k
} "
à®² à®ķà®Ł
à®ľ à®ª
Ġà®ļà®® à®¯à®¤
rit ain
Ġdist ricts
à®ĩ à®¯
à®ı à®¯
Ġ |
ro m
Ġ8 0
gre at
Ġop tion
" )
à®°à®ª à®²à®®
Ġà®īà®² à®ķà®³
sp an
à®İ à®°
il ipp
à®© à®ªà®Ł
à®© à®µà®©
à®² à®ķà®®
Ġ3 00
Ġà®Ĩ à®©à®¤
ac h
ig ht
à®¤ à®Łà®®
à®Ĩ à®µ
Ġb ritain
ub lic
i e
Ġà®ķ à®©à®µ
h an
à®Ĵ à®´
Ġs ub
ur r
te xt
c ut
à®ª à®³à®®
à®ķà®³ à®©
Ġà®Ĩ à®µà®°
Ġà®µ à®³à®®
ort cut
R egion
b u
à®ľ à®¯à®ķ
à®¤à®ķ à®ķ
à®ķà®´ à®ķ
Ġ199 0
; )
A d
à®¿ !
à®° à®ķà®¤
à®µ à®³à®°
Ġà®¤ à®ŀ
D P
g ions
me d
bo x
ĠxA E
l u
à®£ à®±
Ġpro vin
Ġprovin ces
O P
à®¾ !
Ġ7 0
ilipp ines
G B
L anguage
Ġà®ª à®¸
Ġà®® à®°à®£à®¤
C T
P G
Ġ9 0
Ġà®ªà®² à®©
ĠS erver
umb er
ph ilippines
à®¤à®² à®®
à®¤à®¤ à®©
Ġt ext
Ġa b
Ġl ang
Ġc ont
a st
oo k
à®ļ à®¸
à®¯à®¤ à®°
2 000
E P
f ont
i Cal
M AN
v an
à®²à®ķ à®ķ
à®ľà®© à®Ļ
" ,
S I
er ror
D I
c ess
à®¤ à®¸
à®ļ à®£
a ult
on e
an s
, %
à®Ł à®ķà®¤
Ġ !
Ġ( #
Ġà®ªà®¯ à®¨
bo ard
à®² à®ķà®¤
ad i
am p
200 3
à®· à®Ļ
Ġà®Ł à®ª
he ck
at ed
ĠD PI
C P
Ġà®® à®°à®£
à®°à®® à®£
ut e
r ess
Ġà®ªà®² à®ª
à®¤ à®Łà®¤
Ġà®Ĩ à®ĥà®ª
ĠC IA
à®® à®ļ
à®¯ à®ªà®Ł
Ġà®ª à®¯à®®
à®¨ à®µ
un g
ĠI mage
200 6
m in
y n
à®°à®® à®©
Ġà®ı à®Ł
à¯į) ,
Ġt r
Ġà®ªà®¯ à®£à®®
200 2
f f
f ile
v el
à®¸ à®©
200 4
à¯į, "
me nu
Ġs ome
Ġin t
wor d
a mb
à®ķ à®¯
an n
Ġh ere
à®ª à®µà®©
à¯į. ...
ran k
à®ªà®£ à®®
s l
à®ļ à®¤à®µ
ic o
Ġthe m
iCal Imp
u k
à®© à®ļ
à®¯à®¤ à®±
ĠC om
ac t
Ġ200 9
Ġy our
Ġà®¤à®ķà®© à®ªà®²
C I
\ @
à®® à®°à®ª
à®İ à®³
1 3
i ve
Ġa pp
le ft
Ġà®īà®¯à®° à®¤
Ġf il
Ġ4 00
Ġw indow
r on
Sh ortcut
d ialog
Ġà®ħà®² à®ķ
Ġ3 1
el l
Q Shortcut
i k
à®ķà®³ à®ª
Ġà®® à®¹
or d
ob ject
p l
p ad
à®Łà®¤ à®©
à®¯à®° à®Ļ
p en
t k
à®³ à®ļ
Ġà®ħ à®°à®£
Ġà®ĩà®° à®ķ
à®ħ à®µà®±
la t
Ġw id
ent s
à¯į _
à®° à®ĥà®ª
à®Łà®© à®¤
à®µà®² à®ķà®®
Ġà®ķà®´ à®ķà®®
T S
Ġn o
IN G
dialog s
à®· à®¯à®¤
à®Ĩ à®³
à®ķà®© à®Ļ
Ġ7 5
ĠE N
% %
Ġà®Ĳ à®®
ar n
Ġin menu
Ġre gions
Ġà®ļ à®°à®®
as h
E N
Ġà®ªà®£ à®ķ
Ġp ref
qu es
l p
Ġà®İ à®ŀ
à®Łà®² à®Ļ
Ġf ind
B C
à®² à®±
Ġà®® à®Ļ
ar k
Ġp h
à¯į" .
Ġ3 5
ĠL e
ww w
à®ĩ à®³
ĠM iB
C ogl
à®¾ :
Ġà®ĩ à®©à®¤
ro w
ch ess
ject s
w at
à®¨ à®ªà®°
ti ve
A l
r ussia
t op
Ġà®ª à®°à®®
à®¤à®° à®Ļ
u nt
à®µà®° à®ķ
re ad
ur es
ist an
Ġs et
un ch
" .
3 00
H TML
Ġ im
Ġà®ħ à®¯à®°
ro on
en ce
ĠU n
Ġà®ĵà®° à®³à®µ
3 3
C h
à®Ł à®³à®µ
à®Ł à®£à®®
à®³ à®µà®©
Ġà®ļ à®ŀ
à®ī à®ļ
Ġ" {
ame roon
Ġt ake
Ġà®ª à®´à®ķ
à®ļ à®³
Ġà®¤ à®´
Ġà®¤ à®³à®°
Ġa t
Ġà®¹ à®®
à®ı à®´
ĠE n
ra w
à®ª à®µà®±
Ġà®ķ à®²à®ķ
A M
P lease
Ġ 00
à®ķà®µ à®©
à®¤à®ķ à®Ļ
à®±à®¨ à®ķà®°
Ġà®ķà®² à®Ļ
à®ĩ à®¯à®Ļ
à®ķà®´ à®ķà®¤
Ġ199 9
Ġti me
r c
Ġ j
Ġ un
à®ķ à®Łà®®
Ġà®¨ à®©à®µ
Ġà®Ĳ à®¸
" ;
M B
à®± à®´
Ġà®ª à®°à®¤
Ġà®®à®± à®¨
Ġ et
Ġà®Ĭ à®±
Ġà®ķà®´ à®ķà®¤
ee ting
c ameroon
o ss
at h
Ġà®ı à®±à®¤
Ġ19 5
à®Ĳ à®ļ
ĠâĢ Ķ
à®° à®ľ
Ġà®® à®°à®Ļ
à®ľ à®¤à®¨
ti p
an t
v en
Ġà®ħ à®°à®Ł
la r
g et
à®¨ à®ķà®°à®®
Ġs ele
Ġsub jects
à®Ł à®µà®Ł
Ġà®¹ à®°
ĠM B
Ġof fic
Ġà®¤à®Łà®® à®±
\\ \\
Ġst ring
LE X
Ġwor ld
ategory Name
T P
a x
ti v
à®İ à®©à®¤
à®ī à®©à®ķ
d d
à®µ à®ļà®®
à®ķà®² à®ª
Ġc heck
rop a
Ġà®¤ à®Łà®¤
à®Łà®© à®Ļ
ĠC ol
âĢ Ŀ
< /
s o
u de
Ġà®İ à®µà®²
à®İ à®¯
Ġto ol
Ġà®ħà®µà®ļà®° à®ķ
Ġunit s
Ġu ri
a ve
o ve
ĠT his
as k
Ġoffic ial
à®ķà®® à®²
00 59
Ġd ep
Ġ3 2001
Ġtranslation s
à®ĵ à®Ł
Ġe ur
Ġeu ropa
CE LEX
2 1
G L
Ġ if
à®° à®µà®©
Ġà®¤ à®°à®Ļ
re en
19 4
E A
Q u
à®ħ à®¯
Ġn umber
à®ķà®£ à®®
ec e
j ay
l ut
à®´ à®Ļ
à®ľ à®¯à®®
Ġf rom
r g
à®Ł à®¯à®Ļ
à¯ĩ '
Ġà®¨ à®²à®®
Ġà®İ à®µà®©
Ġ4 5
Ġà®µà®ļ à®©à®®
à®Ĩà®µà®£ à®¤
to ol
wat ers
S U
c tion
y st
à®ª à®©à®¤
if f
7 0
t or
à®³ à®Łà®Ļ
à¯ģ. ...
an ia
Ġ199 8
2 2
à®² à®¤à®©à®¤
à®± à®³
Ġà®ķ à®ļà®ª
Ġà®ļà®® à®°
ĠâĢ ĺ
edit or
j an
à®¿ %
à®ªà®® à®Ł
ow n
9 6
D isc
à®ª à®ķà®²
Ġà®ķà®£ à®µà®°
200 7
f ig
t amil
à®¿ ;
à®µ à®ŀ
Ġà®® à®°à®¤
Ġà®µ à®¯à®²
à®°à®® à®Ł
200 5
199 0
N O
à®ħ à®´à®ķ
ear ch
6 00
C K
C ategoryName
à®¸ à®²
Ġà®ĩà®² à®Ł
es k
Ġà®ĵ à®µ
Ġc olor
-- -
à®īà®² à®ķà®®
gre ece
Ġet c
yst em
Ġà®Ĩ à®ļà®°
Ġà®¤à®® à®ķ
ĠL CR
Ġ198 0
DA P
I M
a o
à®¿ à¯į
à®µ à®ķà®¤
à®Łà®ķ à®Ļ
is s
ag n
i de
er b
Ġs ymbol
ĠC on
3 60
à®² à®¨à®Ł
Ġà®ĩà®© à®Ļ
L A
d ay
à®ļ à®ķà®®
n ail
Ġà®ªà®² à®ķà®¤
lut ter
Ġ error
à®° à®ķà®Ļ
Ġà®ķ à®·
C F
J P
Ġà®ĩ à®Łà®ª
ĠC GT
* .
à®¯à®® à®±
an k
Ġp r
2 8
I ME
N E
U n
à®ķà®® à®±
Ġà®° à®ķà®ļ
5 00
à®¯ à®µà®©
Ġà®ª à®ª
Ġà®ıà®± à®ķ
à®³à®® à®¯à®®
ot her
ĠP S
à®µ à®¯à®¤
Ġne w
art ments
Ġdep artments
à®µ à®²à®®
Ġà®ħ à®¯à®²
Ġà®ī à®ªà®¤
Ġà®ħà®¤ à®©à®¤
ad er
C H
i ew
on es
key board
unch pad
Ġà®® à®°à®®
à®ķà®² à®©
à®Ĵ à®±
at a
ec ond
Ġ* .
ime s
T A
c ard
à®ª à®°à®¤
à®² à®ªà®®
Ġà®ķà®² à®µ
Ġr are
c ent
à®Łà®° à®µ
m ode
n n
p g
ro vin
wor k
Ġab out
2 6
I F
U N
o h
à®ļ à®ļ
à®ĩ à®²à®µ
al i
al s
thumb nail
rovin ce
U S
a u
à®ªà®Ł à®ļ
Ġà®µà®° à®ķ
Ġp er
Ġneed s
ĠI nt
yp rovince
ub unt
Ġrare ly
ubunt u
2 3
à®ķ à®ľ
à®² à®¯à®¤
à®°à®ª à®²
ay s
Ġg roup
ect ures
tr l
Y ou
g u
à®Ł à®¸
à®ª à®³à®¤
à®µ à®²à®ķà®Ļ
Ġà®ı à®ļ
Ġà®ħà®Ł à®°
in a
ro l
à®¨à®Ł à®µà®Ł
ital yprovince
Ġ ed
Ġà®ħ à®ªà®°
à®°à®® à®¤
à®¤à®° à®ķ
Ġà®° à®¯
Ġd ef
Ġà®®à®© à®¨
Ġw ww
Ġ6 00
' s
à®¾ ...
à®ª à®©à®µ
Ġà®®à®± à®ķ
à®ķà®° à®¤
Ġa m
Ġà®ªà®° à®ªà®°à®ª
ĠL ong
ĠSt encils
à¯Ī (
à®¯à®² à®°
Ġà®ĵ à®ª
of t
us a
as s
à®µà®° à®©
er l
Ġa r
esk top
K P
w are
à®® à®µ
Ġ1 000
à®ļà®® à®¯à®®
à®¹ à®°
Ġà®ĵ à®ļ
à®²à®µ à®´
old er
Ġpref ectures
= \\\\
v ect
à®ī à®£à®°
ĠC P
Ġà®ªà®¯ à®£à®¤
MA P
TT E
ĠSh ort
' ,
o int
Ġà®µ à®¯
Ġà®¨ à®°
à®¯à®¤ à®©
Ġà®ªà®± à®µ
à®¹ à®®
Ġal ign
Ġch ar
à®´ à®ķà®¤
à®ķà®Ł à®µà®°
Ġà®®à®© à®®
he lp
Ġb et
we en
Ġph p
L O
t y
Ġ )
Ġà®µ à®¤
19 5
vi et
Ġus ed
n am
Ġ1 50
à®ķà®² à®¨
Ġf ucking
Ġth ere
à®īà®Łà®© à®Ł
L DAP
à®Ł à®ķà®°
Ġà®Ĩ à®¨
Ġà®Ł à®ļ
Ġà®ľà®© à®®
% )
n e
à¯ģ ]
à®ļ à®¯
à®£ à®¯à®®
ĠC ont
Ġà®· à®Ļ
à®Ĩà®µ à®£à®®
C C
D B
à®³ à®±
or k
en g
en s
ĠD o
m s
à®° à®¯à®Ł
Ġà®¨ à®¯à®©
à®ī à®®
Ġ% (
ar io
ĠU S
Ġ197 0
Ġbet ween
3 5
H yp
c at
c ol
Ġà®ļà®® à®©
à®ŀ à®©
Ġf ace
ĠT h
3 6
@ }
e ut
Ġà®® à®¯à®®
à¯Ĥ !
Ġà®Ĩ à®µà®¤
ot e
Ġà®¹ à®µ
Ġh int
Ġ{ @}
viet nam
1 00
2 9
à®ķ à®Łà®©
à®° à®ŀ
Ġà®ħà®² à®Ł
ĠS c
ation s
Qu ery
à®° à®¹
Ġà®ħ à®ķà®ª
er o
ou th
ĠO nt
Ġr es
ric a
vect ors
p ublic
à®® à®´
à®² à®µà®±
à®¨ à®ķ
à®ķà®´ à®ķà®®
at or
ĠN ational
âĢ ĺ
2 7
a w
à¯į ``
im age
ĠOnt ario
7 20
m m
Ġ z
Ġà®ª à®ķà®²
Ġà®¨ à®·
> ,
C lutter
h ot
à®³ à®¸
Ġà®® à®¤à®¤
al ue
le ct
el s
Ġre tur
crip t
à®īà®¯ à®°à®®
amb ia
A S
b sp
la in
Ġ3 6
à®ı à®ķ
à®Ī à®Ł
à¯ģ) .
ht ml
Ġtool tip
à®ķ à®Łà®¤
ĠP lease
ur ity
ĠW S
Ġal l
I n
à®© à®±
à®ļ à®±
à®· à®ķ
Ġà®ħà®± à®ķ
ĠM ar
Ġmess age
E S
R W
` %
n ame
à®ª à®²à®®
Ġd escription
Ġb r
Ġ6 5
-- --
gr adi
' :
à®ķà®Ł à®µà®¤
p ut
Ġà®® à®ŀ
Ġà®µ à®³à®¤
Ġà®ªà®£ à®µ
ol u
Ġh ot
ĠF rance
à®ĩà®µà®° à®¤
à®¤ à®ŀ
Ġà®ķ à®³à®®
Ġà®µ à®Łà®®
Ġs ee
200 8
Ġ199 1
199 9
198 0
our ce
i es
p u
r ap
à®³ à®©à®®
Ġà®¨ à®Łà®©à®®
à¯Ĩà®¾ .
à®ĩ à®µà®©
Ġà®ķà®Ł à®ķ
à®İ à®ĥà®ª
Ġl oc
Ġed u
' .
a j
Ã Ĺ
Ġ up
à®ħ à®Łà®°
Ġà®ªà®² à®µà®±
Ġà®ĩà®© à®ª
Ġà®ĩà®£ à®Ļ
... )
à®°à®ķ à®Łà®©à®ª
2 50
s c
Ã ¨
Ġà®®à®© à®ª
Ġs c
el ix
à®µà®£ à®ķ
Ġh as
Ġl i
im med
Ġhot mail
S P
U T
U RL
à®© à®ļà®°
à®£ à®®à®²
Ġpro per
à®®à®£ à®¤
Ġ199 7
Ġmess ages
R E
à®Ł à®°à®ļ
à®¤à®© à®©
à®ķà®Ł à®±
om b
Ġpro gr
vi jay
Sh ow
urr ent
ĠWS WS
à¯ĩ -
us e
Ġus e
ĠxA F
Ġà®ħà®ķà®° à®µà®°
ĠCom m
G H
e z
à®ĩ à®´
al on
à®°à®µ à®²à®©
à®©à®® à®£
ĠS EP
ou s
Ġb ug
ĠM et
tur key
tk Hyp
8 8
C MS
M D
d om
Ġà®ķ à®³à®¤
à®ħ à®²à®Ļ
à®İ à®®à®¤
à®¹ à®Ļ
ai re
T his
i er
r d
à®¯ à®ķà®µ
Ġà®ĩà®° à®ļ
à®Ĩ à®¤à®²
an c
Ġ2 50
à®®à®² à®°
Ġh ref
Ġst yle
H A
k i
ĠP ro
à®¨à®ķà®° à®¤
R ep
V I
g le
à®® à®ķà®³
Ġà®Ĩà®© à®¨
Ġhttp s
Ġretur ns
E X
T D
o ice
à®· à®ļ
ec h
em ail
à®Ĭ à®°
z ambia
Ġa dd
ĠC omment
ĠR ussia
à®¨à®ķà®° à®Ļ
IS T
% .
/ ~
9 7
; {
U E
u al
à®ª à®©à®®
Ġà®® à®²à®°
Ġà®¤ à®¯à®ķ
Ġà®ľ à®®
Ġs u
ĠI D
am a
ul es
sl ot
alon ia
3 4
P r
h at
m a
p c
à®ļ à®°à®ļ
à®ĩ à®¯à®¨
Ġà®ªà®± à®ķ
ar ques
is p
Ġ19 30
un ic
as ude
ĠF or
Ġcom arques
ver y
cat alonia
asude van
S D
à®² à®¯
à¯Ī /
Ġà®ħ à®ķà®²
Ġà®µ à®ļà®®
Ġà®¨ à®±
à®°à®ļ à®©
Ġà®ħà®µà®° à®µà®°
ti sh
Ġà®ļà®® à®¨
th er
ĠR e
ener al
à®ĩà®²à®µ à®ļ
U RI
à¯į âĢĻ
à®ķ à®²à®¤
à®¿ ''
à®¯à®ķ à®Ļ
la unchpad
Ġd e
à®°à®ķ à®ļ
à®īà®£ à®µ
ai jan
ire ct
az erb
azerb aijan
" ),
* *
C L
r ed
t he
à®® à®°à®¤
er ation
Ġà®Ī à®ļ
Ġc ol
ĠU MP
Ġus er
à®µ à®ļà®¤
Ġà®¨ à®Łà®®
Ġà®İ à®ľà®®
à®´ à®©à®©
Ġà®ªà®¯à®© à®±
Ġs earch
à®¿: %
ert or
à®¤à®³à®µ à®®
Ġproper ly
z il
à¯Ī @
à®µ à®ķà®°
à®ħ à®ķà®²
à®Ĩ à®¤à®°à®µ
Ġà®ļà®® à®¯
Ġà®®à®© à®ļ
à®¹ à®µ
is h
ĠS PD
Ġà®ĩà®µà®° à®¤
tic les
N U
U R
i el
o ver
r al
à¯ĩà®¾ !
à®°à®® à®®
à®Ĩ à®ķà®µ
ic s
bab we
ap e
ess ive
im babwe
Ġle arn
à®ĥ à®ªà®°
ee k
olu tion
pu ertor
puertor ico
Ġ +
à®¤ à®ķà®Ł
Ġà®ı à®¨
à®¯à®° à®³à®µ
es tiv
Ġà®µà®´ à®®
for e
Ġwh ich
PG P
estiv al
b ert
Ġ i
Ġà®ħ à®°à®®à®©
Ġà®İà®¤ à®±
Ġà®¯ à®¤
à®ļà®® à®Ł
Ġtransla tor
ec tion
Ġwh en
ue b
Ġà®ļà®®à®°à®ļ à®®
Ġà®ļà®°à®£ à®Ł
V PN
n or
p ar
p age
à®ª à®²à®¤
Ġà®µ à®ļà®¨
à®ħ à®ķà®²à®®
re c
ĠS ch
ĠM an
ĠT imes
Ġdef ault
" -
. %
3 8
F or
P O
Ġà®ħà®® à®²
à®· à®ª
er g
Ġà®ªà®± à®¨
la ce
Ġk tur
Ġd ev
ar ticles
Ġà®ĵ à®°à®Ļ
Ġà®īà®Ł à®¨
th ail
Ġh ave
ĠU RI
Ġr ules
sp ain
ĠCO M
ĠLong Name
Ġktur tle
thail and
I nd
à®µà®° à®°
à®°à®® à®±
Ġà®ı à®ŀ
en se
ĠL anguage
art y
p ro
à®° à®ķà®®
à®¨ à®¤
Ġà®ħ à®¹
à®ªà®¤ à®µ
à®ķà®´ à®ķà®Ļ
ĠS te
Ġne t
ec urity
mb ox
Ġm ail
TT P
indow s
oice Name
isp lay
S PD
e ed
m and
à¯ĩ :
à®´ à®µ
Ġà®Ł à®©
Ġ7 00
à®īà®² à®ķà®³
à®ĥ à®ķ
ust om
I P
P oss
V oiceName
e it
à®¾ )
à®® à®¤à®¤
à®ļ à®ķà®¤
Ġà®ļ à®ļ
qu e
Ġbe fore
se lect
Ġà®ħà®µà®ļ à®°à®®
ack ets
estival VoiceName
Poss essive
H P
O f
S p
c ted
ti t
Ġà®ļà®® à®¯à®Ļ
à®ªà®° à®¨
ot h
Ġ3 7
Ġà®ħà®ķ à®²à®¤
ĠM on
ĠI SO
ap an
I ns
M M
z imbabwe
Ġà®ħ à®µà®®
an a
Ġà®° à®ķ
à®Ĭ à®Ł
MAN D
ĠCOM MAND
R es
U PS
o ol
à®ķ à®©à®®
à®¯ à®ķà®ª
à®¨ à®®à®¤
à¯Ģ ,
Ġà®² à®ķ
Ġà®ĩà®£ à®ķ
Ġs erver
Ġà®ªà®° à®²
ĠB ri
Ġ199 5
ra ine
à®ªà®´ à®Ļ
A L
I T
y s
Ã ¼
Ġn nn
Ġà®Ł à®ľà®©
à®Ĳ à®Ł
à®¿' ,
Ġà®īà®ķ à®¨
ĠQ ueb
Ad min
Ġbr ackets
ĠQueb ec
S SL
b ur
Ġà®® à®®
à¯į. ''
F I
M eeting
Ġà®ķ à®©à®®
Ġà®® à®¯
à®£ à®Ł
à¯į. '
à®ĩ à®¤à®°
Ġà®ı à®ķà®ª
in te
Ġà®ĩà®© à®ķ
Ġà®² à®Ļ
ur s
oc ial
oo d
IS O
ĠShort Name
C op
b le
s er
u v
w ard
à®ª à®²à®µ
à®¯ à®ķà®°
à®£ à®ļ
Ġà®ĩ à®ķà®´
at ab
= =
S M
T O
u th
Â ¢
à®° à®±
à®³ à®¯à®®
Ġà®¤ à®°à®ķ
à®°à®ļ à®Ļ
à®¤à®® à®Ł
à®¤à®® à®±
Ġà®ħà®°à®ļ à®°
tion ary
ro man
ad e
Ġ6 4
Ġcont ain
i op
o om
r es
Â ¨
à¯ĭ .
Ġà®ı à®²
à®Ĩ à®´
Ġà®ķà®° à®£
Ġà®Ĳ à®ª
al e
it z
ro ll
à®¹ à®²
ĠD VD
199 8
amp le
Ġfil es
oft ware
i tion
à®± à®ľ
à¯ĭ !
ĠI t
à®ĵ à®¯
ul l
ting s
Ġlist s
ĠServer Name
erl ink
inte ger
roman ia
S cript
a ti
j vijay
o la
Ġà® ĥ
à®® à®ŀ
Ġà®ī à®Łà®®
at ch
à®ı à®°
Ġ8 00
Ġ20 10
197 7
form ation
A tkHyp
V S
à®ļ à®¯à®Ļ
à®¨ à®£
à®¤à®² à®Ļ
Ġà®ĩà®© à®®
ar g
op tions
at ter
is m
à¯ģ" ,
à®Ĭ à®Łà®ķ
Ġv alue
Ġhe ad
Ġkey word
ĠServer Admin
Ins ert
AtkHyp erlink
D ate
I G
o y
à®ķ à®©à®¤
à®¯ à®´
à®¯à®® à®°
à®Ĩ à®´à®®
Ġà®Ĳ à®ļ
Ġà®ħà®µ à®¨à®®
ou se
Ġm in
ĠN AME
à®ĵ à®µ
âĢ ľ
Ġre m
ern ational
Ind ian
j apan
u ania
à®¿ @
Ġà®µà®° à®µà®´
Ġà®ļà®® à®ļà®®
al et
à¯į' .
Ġ5 1
ĠB JP
ith uania
vel op
9 0
I V
i ed
n ot
Â ¡
Ġà®ķ à®Ļ
à®ħ à®ķà®°
à®ľ à®©à®®
al se
Ġc urrent
200 9
Ġà®µà®ļ à®©à®¤
Ġsele cted
. ,
3 7
F ont
i hot
à®© à®ªà®²
à®³ à®³à®µ
Ġà®ķ à®¨
Ġà®İ à®¯
à®ħ à®°à®Ł
à®ķà®® à®¤
à®ī à®´
à®ªà®° à®µ
à®µà®ķ à®Ļ
Ġà®¹ à®Ł
Ġà®¹ à®Ļ
le an
Ġr ich
ĠAl bert
agn ihot
Ġam ount
I O
T ime
w sw
à®ª à®³à®µ
à®© à®µà®±
Ġà®ĵ à®ķ
pr es
ound ation
4 5
D O
l ist
Ġà®ħ à®µà®ķ
Ġà®¨ à®¨
à®· à®²
ti me
Ġà®ĩà®² à®¤
à®ī à®ªà®¯
Ġà®Ł à®¯à®¸
Ġà®Ĭ à®ļ
Ġd ate
ic al
Ġ19 60
ĠG u
Ġ199 6
Ġcom p
à®īà®² à®ķà®¤
4 8
Ġà®® à®¤à®°
Ġà®¤ à®¯à®Ļ
Ġb ack
ĠA n
Ġà®Ĩà®µà®£à®® à®±
A W
E x
à®³ à®ªà®Ł
Ġà®ı à®ľ
Ġà®° à®ª
ic tionary
ĠE x
Ġy es
ep aper
um n
Ġli ke
Ġprogr am
Ġ en
Ġà®ħ à®¯
Ġà®µ à®ŀ
Ġà®Ĳ à®¯à®¤
or n
Ġp lain
Ġ3 2
Ġ3 3
ĠP arty
ig h
Ġst art
198 9
9 8
H O
l ithuania
n bsp
Ġ enc
à®³ à®Ł
à¯ĩ ...
à®ķà®³ à®µà®°
à®ļ à®°à®£
Ġà®ķ à®¯
Ġà®¤ à®³à®µ
à®µà®° à®ļ
à®¤à®® à®¤
à®Łà®° à®ª
à®ī à®±à®µ
à®²à®® à®©
Ġà®ħà®µ à®®à®¤
gm ail
re et
Ġà®ĵ à®°à®®
Ġ4 8
Ġm unic
ind ones
Ġfor m
ĠZ eit
ip ali
Ġtr ue
oh n
Ġmunic ipali
indones ia
Ġmunicipali ties
A P
A n
b e
f er
g n
Ġ ent
à®© à®¤à®²
à®¯ à®£à®©
à®± à®±
à®µ à®²à®ķ
Ġà®ĩà®° à®Ļ
ri ver
à®ľà®© à®ªà®²
ag u
ĠD r
199 6
lic k
wsw s
D M
F L
u x
} '
à®± à®¯
Ġd pi
Ġp ar
à®ªà®² à®°
Ġ5 5
ad or
Ġe very
ĠJ ean
Ġà®ļà®®à®°à®ļ à®¤
ĠEn velop
Cop tic
atab ase
ĠAlbert a
à®ĩ à®°à®µ
à®ħ à®ķà®±
Ġà®Ĩà®ķ à®ķ
Ġà®ħà®µà®© à®µà®©
Ġà®ĵ à®°à®¤
Ġ3 8
ch ina
qu ery
CD U
c u
d pi
à®¿ +
à®³ à®¯à®¤
Ġà®µ à®²à®®
Ġ( *.
Ġ' {
Ġs ystem
Ġf alse
th iop
Ġm ove
ĠG iB
Ġe v
ers ion
Ġà®Ĩà®´ à®¤
sh ould
uk raine
ĠBri tish
thiop ian
C S
Q L
c ed
f ter
l ot
à¯Ĩ .
or ity
Ġà®ĩà®Ł à®µ
ĠG M
ĠO pen
AT H
Ġon ly
à®ĥ à®İà®ª
fic e
Ġsp ec
WS WS
Ġapp lic
pl ug
: :
E thiopian
g han
p alet
à®° à®ªà®Ł
à®ľ à®ļ
à¯ģ, "
ĠT r
ĠA r
ĠX ML
gradi ent
omb ia
ĠEnvelop epaper
7 5
A c
K ey
h y
h ere
à®¤ à®Łà®Ļ
Ġà®® à®¤à®ķ
à®ķà®¤ à®µ
me n
Ġd ir
IN T
lay er
ghan istan
9 5
D N
V iew
à®± à®Ł
Ġà®® à®¤à®®
à®ķà®® à®³
à®¯à®² à®±
Ġà®° à®¹
à®¯à®µ à®¨
Ġ4 2
Ġw eek
197 9
col ombia
Ġcol umn
J U
Ġ out
à®Ł à®ªà®¤
à®ĩà®¤ à®´
D ev
L L
c ustom
l in
m al
à®ª à®´à®®
à¯Ĥ (
at es
ĠC trl
ic ense
Ġx B
ind ia
af ghanistan
act ers
N ext
l ine
o op
Â ł
à®ļ à®°à®®
à®ļ à®°à®¤
à¯Ĥ -
à®ĩ à®°à®¤
à®ħ à®ľ
à®Łà®° à®²
Ġà®¹ à®©
ĠS p
ĠI P
de f
oo gle
Ġcon fig
Ġstat es
ĠCont rol
A r
I MAP
h a
à®² à®µà®©
à®² à®µà®°à®®
à¯Ī --
Ġd irect
à®ªà®© à®Ļ
oc u
oo lean
96 60
3 1
O E
O S
b r
e in
Ġà®µà®° à®¤
ĠB r
ow er
vi d
199 1
198 3
4 4
M Y
N eut
c o
d en
l ock
v ia
z oom
Â °
à®® à®°à®®
à®® à®Łà®Ļ
Ġà®Ĵ à®ļ
Ġà®ħà®°à®ļ à®©
Ġs ign
us h
ĠF rank
umb ia
ger ia
ron s
ĠCol umbia
Ġchar acters
Neut rons
G E
d i
g ets
r is
à®² à®¤à®©à®®
Ġà®ħ à®ªà®¤
Ġà®ı à®ķà®®
ĠM eeting
ri b
Ã¨ re
0 9
1 50
3 2
B oolean
I nt
m ark
r as
à®¾ ;
à®¯ à®¯
à®¨ à®¨
Ġà®Ĩ à®ļà®©à®Ļ
Ġà®ķà®² à®ª
he ader
ĠA b
ĠR em
em p
199 7
197 6
ef f
Pr int
O pen
X ML
Ġà®ĩ à®Łà®°
ti fic
à®ī à®ķ
ĠC ogl
à®ı à®ĵ
ri bu
ch ann
ir st
à®īà®² à®ķà®ª
rit e
ore a
D TS
b ar
z aire
me x
à®ī à®Łà®²
Ġn on
Ġt Boolean
al b
re al
Ġà®ħà®ļ à®Ł
Ġm ust
ĠG eneral
Ġ199 4
ĠName Meeting
pr ess
" :
E E
I mage
L S
R U
c ar
p tions
Ġà®ļ à®Łà®²à®Ļ
Ġà®Ĩ à®¤à®²
Ġà®ĩà®² à®µà®ļà®®
ĠM ess
ĠA s
ĠL TTE
ĠO uv
ĠR es
Ġà®ĩà®³ à®¨
ect s
Ġim p
ĠOuv ri
E n
F P
e h
k y
l er
n o
o se
p t
s html
à®° à®ķà®°
à®® à®©à®¤
à®² à®ķà®²
Ġà®Ĩ à®Łà®®
in ic
ed ia
Ġd esktop
Ġ19 50
il ot
am ount
if t
RO AN
Ġwid th
s che
Ġà®İ à®ĥà®ķ
à®ĩ à®°à®ķà®ļ
à®ªà®¤ à®®
à®ķà®® à®Ł
an e
Ġ" -
in ter
à®Ĵ à®ķ
ic a
st yle
à®µà®£ à®©
Ġf older
ĠA ll
ind er
198 7
Ġop en
Ġà®®à®°à®£à®® à®Ł
tamil pc
A C
b s
b ack
e al
i ran
m ap
r en
w an
à®² à®ķà®µ
à®¯ à®ŀ
à¯ĩ "
à®´ à®ķà®®
à®¯à®° à®°
Ġt y
Ġà®ĩà®¤ à®¯à®¤
al am
Ġà®ªà®² à®ķà®®
ot t
Ġc ategory
il d
ĠP ost
ur ation
ĠN PA
Ġre public
ĠSt reet
ud an
ĠQ u
IF Y
dom inic
Ġweek day
mex ico
dominic an
W M
a ro
b ra
à®¤ à®ķà®ª
à®¯ à®©à®°
à®ĩ à®³à®®
à®¯à®° à®¤
à®¤à®® à®²
à®µà®© à®µà®±
Ġà®° à®Ł
Ġà®ļà®® à®µ
it ed
Ġà®ĵ à®²
Ġà®ĵ à®ªà®©
Ġin list
à®°à®ķ à®Łà®©à®¤
ĠL a
Ġm od
de x
Ġà®ķà®³ à®ŀ
199 5
tic al
PP P
ST IFY
NT S
JU STIFY
M ail
m t
t ach
à®¾ "
à®¯ à®Łà®ķ
à®± à®³à®µ
Ġà®® à®¯à®ķ
Ġà®ī à®µà®®
à®¯à®® à®©à®®
Ġà®Ī à®´
ed en
Ġd isplay
re g
ac ter
Ġ5 4
ĠI I
ĠI f
Ġm ay
âĢ ł
à®¤à®³ à®ªà®¤
Ġv ar
Ġv ersion
Ġsp ac
ĠInt ernational
" --
6 6
W eb
m o
s à®Ĳ
Â ¸
Ġ `
Ġ ro
à¯į [
à¯Ī ]
Ġà®µ à®¤à®¨
à¯į. )
à®ħ à®µà®ļ
Ġà®ľ à®ķ
à®¤à®° à®ķà®¤
à®¯à®® à®²
à®±à®® à®Ł
à®¿. )
ad io
ĠF ran
Ġà®Ĩà®µà®£ à®ª
Ġinlist box
C om
O T
i od
o le
r yp
r ay
à®² à®Łà®Ļ
à®ĩ à®±à®¨
Ġà®Ī à®´à®¤
Ġà®² à®¤
Ġà®µà®£ à®Ļ
et work
ec u
ĠU PA
Ġla tin
pp p
Ġ198 9
Ġ* âĢł
urr page
Ġfil ter
Ġloc al
rec urrpage
L CR
m on
t oc
w ay
à¯Ī ..
Ġà®ī à®°à®¤
à®ħ à®¸
à®ķà®° à®Ļ
Ġà®ķà®° à®Ļ
or ld
à®µà®® à®±
Ġà®®à®¤ à®ļ
Ġd et
Ġd ata
re view
19 60
ĠM IME
ĠF oundation
à¯ģ) ,
LE S
red hat
F ree
F mt
P C
S ecurity
a Date
c l
m u
à®ķà®² à®ķ
he ther
à®Ĳ à®¯
Ġ3 4
Ġbe en
Ġcon n
ung ary
Ġwid gets
GH S
iel d
Ġspec if
ĠRem ote
aDate Fmt
à®² à®ļà®¨
à®ķà®³ à®°
me r
à®°à®£ à®ªà®²
Ġà®ļà®° à®ķ
ĠU N
pp ort
198 1
ĠCD U
CO P
ĠPS G
ĠCP M
toc ol
6 8
I R
à®ª à®ŀ
à®² à®¤à®©
Ġà®¨ à®°à®ķà®¤
Ġà®Ĵ à®ķ
Ġà®Ĵ à®¸
Ġà®ĩà®° à®¤à®Ļ
à®ĩ à®Łà®Ļ
à®°à®ļ à®ª
à®¤à®µ à®ķ
er m
al a
al geria
Ġà®ķà®² à®ķà®®
Ġà®µà®² à®ª
Ġ3 9
ut es
ĠE l
em oc
ue la
197 5
end ar
Ġ194 5
.... ....
ire land
ĠNew s
ven ez
Ġadd ress
chann els
bra zil
venez uela
( %
4 00
8 9
A SE
D L
h en
Ġ view
à®® à®°à®Ļ
Ġà®İ à®¤à®©
à®Ĩ à®¯à®¤
à®ī à®®à®¤
Ġà®Ĳ à®Ł
Ġ- %
à®ªà®ķ à®±
ic t
Ġc re
Ġà®µà®£ à®ķ
Ġ4 4
ĠA me
ĠF lo
Ġm ore
Ġà®®à®°à®ª à®£
3 9
C ai
P lay
f in
g ame
h ost
h ungary
r u
à®µ à®Łà®®
Ġà®ª à®¯à®¤
Ġà®® à®£à®®
Ġà®® à®°à®ķ
Ġà®ī à®¤à®Ł
à®µà®° à®£à®®
Ġà®Ĩ à®ķà®²
à®Łà®¤ à®²
à®ħ à®ķà®¤
Ġà®ļà®® à®ļ
à®Łà®µ à®ļà®®
he ll
le ment
ur l
ĠF O
te mp
em on
Cai ro
C GT
E D
G ROAN
I C
M F
M O
s ize
à¯į âĢĿ
Ġà®ķ à®®à®°
Ġà®® à®Łà®ķ
à®ļà®® à®®
ĠC ity
ĠS ocial
ĠS oftware
ĠP ar
Ġ5 9
à¯ģ" .
ut te
à®·à®© à®²
ow s
thumb right
197 0
7 2
N A
V P
s udan
Ġà®ķ à®ľ
Ġà®® à®µ
Ġà®¨ à®°à®®
Ġà®Ĩ à®ľà®°
à®¤à®² à®°
Ġà®° à®©
ran d
ĠM c
à®µà®ļ à®¨
Ġl ine
Ġcom EMAIL
ug al
sw eden
port ugal
Al t
other f
itz er
ĠZeit ung
4 9
R A
U CK
r t
à®ª à®ªà®Ł
Ġà®ª à®µà®²
à®¨ à®²à®©
Ġà®ī à®¤à®±
in i
la ck
Ġà®ħà®µ à®Ļ
ĠC ent
st an
th od
Ġh our
ap ital
Ġ198 3
av a
Ġwor d
7 4
c m
m all
p os
u c
Ġ âĻª
à®ķ à®¨à®²
à®® à®¤à®ª
à®µ à®¯
Ġà®ķ à®µà®ļ
à®¨ à®®à®ķ
Ġà®¤ à®ļà®®
Ġà®¨ à®ª
à®³à®¤ à®±
à®ķà®² à®µ
in s
ar ch
at che
à®µà®² à®©
à®ªà®£ à®¤
ĠS ask
Ġw as
Ġm ode
ĠR egion
Ġl og
Ġ199 2
ase e
ib b
25 6
itzer land
atche wan
ĠSask atchewan
C trl
D ay
N o
P ATH
o is
w n
Ġ 000
à¯į à¯į
à®Ł à®¯
à®ª à®ķà®°à®®
à®³ à®©à®¤
Ġà®µ à®Łà®ª
Ġà®İ à®®à®ķ
à®¯à®¤ à®³
Ġà®ı à®¯
à®¯à®© à®µ
Ġà®° à®£
al d
Ġin formation
un e
à®¾. )
Ġà®· à®ķ
Ġ8 5
ĠU SA
AR S
li ent
van ced
Ġsele ct
ĠMon de
Ġhead ers
Ġrem inder
1 30
7 7
A b
D F
F ile
T R
g t
l an
r ror
t es
à®® à®¹
à®² à®¯à®®
Ġà®Ĩ à®µà®²
à®ħ à®°à®ª
à®ľ à®©à®¤
ti f
à®¤à®µ à®®
Ġt ag
la s
Ġà®īà®£ à®°à®ª
le x
ĠO n
ĠR ep
oc ean
ĠH TTP
Ġ/ %
Ġà®ļà®ķà®² à®µ
Ġsh ort
sw itzerland
ĠURL s
iv ers
Ġform at
Ġspac es
ocean ia
: "
B S
V CD
d rd
d river
i um
l tr
à®³ à®¨
Ġà®ħ à®°à®µ
à®ľ à®¸
Ġd iff
ol ic
ri ority
ĠI A
ĠF ree
Ġm m
ĠG ame
à®¨à®Ł à®¨
ĠE U
âĢ ĵ
St yle
qu est
Ġg eneric
199 4
197 8
ib le
yn am
mm c
drd ao
0 6
T ype
o k
s ch
u z
Ġ end
Ġ ireland
à®ĩ à®±à®Ļ
Ġ- --
Ġs rc
Ġs econd
Ġ5 6
ĠL icense
ĠD a
Ġ9 5
198 2
Ġac cess
Ġwh ite
ah j
Ġle vel
Ġ194 0
Ġch ang
ocu ments
E nt
K A
P T
T M
V ER
s à®ķ
Ġà®Ĩ à®°à®µ
Ġà®Ł à®®
à®ļà®® à®°
à®¾? "
ol f
à¯į? "
Ġà®īà®²à®ķ à®¨
ĠI MAP
ut ton
Ġm an
Ġ8 8
Ġ9 00
if elix
ric e
nu PG
ong g
pi eg
CI O
NO ME
ĠIA EA
ahj ongg
; %
D r
F S
I f
N C
d ing
k n
p s
Ġà®ĩ à®³à®µ
Ġà®¨ à®Łà®©
à¯ĭ -
à®ľ à®¯à®¤
Ġà®Ĳ à®¤
à®ªà®° à®²
ac he
ol ia
ĠP ublic
ur ph
ĠI V
ĠI ns
ers on
up s
à®Ĭ à®¤
ĠV asudevan
yn c
urs or
eff ects
c al
r ame
u lar
à¯ģ _
à®£ à®¯à®¤
Ġà®ļ à®Łà®Ļ
Ġà®ĩ à®·
Ġ( -
à®ļà®° à®ķà®¤
à®©à®µ à®³
à®Ĳ à®ı
Ġ3 60
Ġ4 9
ĠI G
Ġ12 5
enc y
enc es
199 3
ob ert
ele te
ĠComm un
E d
I d
N S
P h
P OP
V AR
l ed
l ob
n er
o ch
s outh
à®¤ à®Łà®µ
à®Ł à®ļà®ª
Ġà®µ à®µ
Ġ1 60
à®¤à®µ à®³
à¯Ī. %
Ġà®Ī à®µ
Ġp age
at ur
re public
ĠC UPS
Ġc ode
ĠP T
ĠL ib
ĠF elix
ĠN or
yp t
à¯į'' .
ĠV er
197 4
à®ĩà®²à®µà®ļ à®ķà®³à®®
Res ult
alb ania
0 5
6 4
8 1
N on
U I
Ġ ubuntu
à® Ķ
Ġà®İà®© à®²
Ġa g
Ġa ss
Ġà®īà®Ł à®±
ĠM A
Ġà®īà®²à®ķ à®ļ
ĠD emoc
ia s
ĠR om
id get
Ġme thod
à¯Ī) .
Ġon e
ust ral
SS P
Ġhe ight
Ġapplic ation
ĠOuvri Ã¨re
7 00
B I
C VS
D atabase
E M
G o
Q Font
R AN
_ _
d ock
m ong
n a
w est
Ġ right
Ġà®® à®²à®®
Ġà®µ à®ļà®©à®Ļ
Ġà®Ĵ à®¯
à®¯à®² à®ķ
à®³à®° à®µà®®
Ġt ab
la te
Ġd es
Ġd ays
Ġp re
à®Łà®µ à®±
is e
Ġb as
Ġ5 2
à®ĩà®© à®Ļ
Ġus ing
Ġ194 7
af rica
ĠMet all
ecu ador
Ġ*âĢł #
fin land
Day Name
pieg el
QFont Database
N N
R est
S QL
a ul
i i
t a
Ġ `%
Ġà®ª à®ķà®Ł
à®ļ à®ķà®²
à®ļ à®²à®®
Ġà®ķ à®©à®°
Ġà®ķ à®°à®¤
à®°à®® à®Ļ
à®Ĩ à®¨
Ġà®ħà®² à®©
Ġà®ªà®£ à®ª
Ġp art
Ġc r
ĠS ee
Ġf irst
ĠT rans
AT E
Ġcom mand
DE C
Ġ18 0
AR T
198 6
Ġht ml
Ġ194 8
ref er
Ġ# %
à®Łà®¯à®® à®£
ĠIn c
196 7
8 5
G ame
M edia
t en
à®ª à®±à®µ
à®© à®Łà®®
Ġà®ķ à®¸
à¯ĩà®¾ -
à®ħ à®³
à®¹ à®©
om at
Ġdo wn
Ġb ox
ĠT O
ĠA c
Ġl anguage
ĠE d
ess on
Ġ12 0
ra v
Ġac cent
ix bu
ost on
ict ure
mong olia
ixbu f
% (
K W
d ir
e am
e ver
n ing
n ew
à ¤
à®¯ à®°à®®
Ġà®ľ à®²à®¤
er man
à®ªà®° à®µà®²
à®ļà®° à®ķ
Ġa fter
at ure
ab u
ĠS et
Ġ4 3
ĠP CF
ĠI s
ĠU AW
Ġ199 3
Ġy ear
thumb px
à®Ĩà®µà®£ à®Ļ
Ġan y
Ad vanced
rg an
à®ļà®°à®ļ à®¤
olic y
1 200
B ras
d k
d ocuments
t ab
Ġ ran
Ġà®® à®¤à®µ
à®£ à®µà®©
à¯ģ. ''
à®İ à®µà®°
à®ī à®Łà®±
Ġà®ķà®£ à®µà®©
Ġà®Ł à®¯à®°
Ġa d
à®ªà®² à®©
Ġ4 6
ĠA pp
Ġà®®à®£ à®²
ĠI nd
ĠF ucking
ĠF estivalVoiceName
ĠB oston
Ġe lement
ric an
lo ad
SI GHS
ĠLongName Possessive
B ack
D T
I MS
L TTE
L esson
V G
i ti
Ġ id
Ġà®ª à®®
Ġà®ķ à®°à®®
Ġà®ľ à®µ
à®µà®© à®µ
me ss
Ġà®¨à®Ł à®°
Ġà®° à®ĥà®ª
à®ī à®³à®µ
à¯į- ---
ĠW ork
ail ed
his s
ound land
Ġsu pport
à®ļà®°à®ļ à®®
ibb ean
ynam ics
kn own
Rest art
R T
l ow
Â ¾
à®© à®¤à®®
Ġà®¤ à®ķà®µ
à®¯à®² à®²
à®ķà®° à®ª
er ia
à®Ĵ à®¯
Ġà®ļà®° à®Ļ
Ġ% .
Ġc o
ĠB ar
Ġm ap
Ġm otherf
ĠG L
Ġ9 9
ss han
IL E
Ġv asee
Ġcon tin
Ġcon text
Ġlist box
Ġwid get
IO N
oop er
car ibbean
omat hiss
mess age
sshan mu
F ILE
M ar
O ptions
T h
U A
m i
à®µ à®¸
Ġà®ļ à®¯à®©
Ġ1 200
à®ķà®² à®Ļ
Ġt am
à®ļà®² à®ª
Ġs ound
Ġà®ħà®ª à®ķà®°
Ġin st
à®ı à®±à®¤
à®Ĩà®© à®¨
ĠP A
Ġh ost
Ġ7 50
Ġre ad
Ġre port
tic le
Ġà®®à®°à®£à®¤ à®£
adi tional
br ush
5 6
C RL
c el
d ynamics
e a
f oundland
à¯ĭ '
Ġà®Ĳ à®¯à®®
Ġà®ĩà®© à®µà®´
Ġà®ķà®² à®µà®°à®Ļ
Ġà®ªà®° à®¸
ĠC olor
ĠC apital
ri d
ĠF ile
Ġ8 2
AT O
Ġth an
Ġ[ %
199 2
198 5
um an
eg ypt
end Options
ian t
DA Y
ĠNew foundland
Ġex ample
Ġim port
ank a
ES endOptions
ĠShortName Possessive
def ault
) %
, "
L a
L e
à®Ł à®Łà®Ļ
à®ļ à®¯à®©
Ġà®ħ à®³à®ķ
Ġà®µ à®©à®ª
Ġà®ªà®Ł à®°
à®¤à®© à®ķ
Ġà®Ĳ à®µà®°
à®ķà®£ à®¤
Ġin ter
à®¤à®± à®Ł
ĠM ail
ĠT o
Ġ4 7
ag er
Ġ0 1
Ġe mail
âĢ Į
im g
Ġme ans
bo s
Ġ197 1
Ġ194 4
li es
Ġj ob
9 4
E C
S c
T ext
f m
s ort
x y
y e
Ġ o
Ġ und
Ġ over
à®° à®¤à®°
à®ª à®°à®ļ
à®² à®µà®°à®¤
à®ļ à®ªà®ķ
Ġà®ķ à®´à®ķ
Ġà®¨ à®²à®¤
à¯ĭ ;
à®µà®¤ à®Ļ
à®©à®¤ à®±
it or
à®¿. ,
ar u
Ġà®¹ à®ķ
ĠS mall
à¯į) :
Ġin to
il le
ol and
Ġf ull
Ġ4 1
ĠB BC
Ġà®ĩà®µ à®³
ĠK Mail
Ġg omathiss
Ġr ed
ĠV iew
erv ice
18 0
ak h
New New
SE P
pr int
Ġcont roll
eng al
nor way
atter ns
not ation
Ġconn ection
thumbright px
Bras ero
' d
E l
G O
P R
X X
c ount
r ont
s econd
à®° à®¤à®¤
à®° à®ªà®°
Ġà®¨ à®´
à®· à®©à®°
à®ķà®Ł à®Ļ
er ing
ro s
en tin
à®µà®² à®ª
le ction
Ġc ould
ĠM DI
Ġ5 8
Ġà®īà®² à®ķà®³à®µ
à¯į... ..
ĠG NU
Ġ0 21
Ġre c
Ġà®µà®± à®Ł
Ġà®Ĩà®´à®® à®Ł
ĠV PN
Ġ196 8
Of fice
ĠFrank lin
130 1
ĠIns tit
M TP
P F
W hether
b engal
g ar
l ish
m iss
t ers
Ġ qu
à®ķ à®ķà®³
Ġà®µ à®ľ
Ġà®ī à®ªà®µ
Ġà®Ĩ à®·
à®ĩ à®Łà®ª
on qu
Ġà®ļà®® à®ª
Ġà®ħà®² à®±
à®°à®£ à®ª
à®Łà®ª à®®
la ble
Ġà®Ĭ à®©à®®
à®ªà®ķ à®Ļ
Ġà®µà®² à®¯à®¤
ou tp
19 50
Ġf ont
ĠM or
Ġw ant
Ġw rap
ĠG e
à®ĵ à®ª
à¯Ī" ,
à®µà®³ à®µà®©
ex p
ver t
id es
ep ar
Ġ198 7
uck in
ord er
Ġset tings
CH UCK
pro cess
Ġnet work
Ġmin utes
palet tes
RU NTS
ĠFlo or
west bengal
D S
E L
P K
a use
r at
Ġ q
Ġà®ķ à®³à®ª
à¯ģ. %
à¯ģ: -
Ġs im
el op
ĠP PP
ĠL anka
ĠF if
ĠB ank
ĠG roup
à®Ĭ à®Łà®ķà®Ļ
Ġwh ile
ele ct
land s
Ġsp ace
Ġ196 9
so le
Ġchar acter
ms g
Of The
C SU
D ialog
E T
d raw
g h
i et
w indows
à®¿ ]
à®° à®µà®®
à®µ à®©à®°
à¯ĩ )
à®ķà®³ à®±
à®ļ à®ŀ
à¯į. %
à®ĩ à®©à®µ
Ġà®ķà®Ł à®ª
à®¯à®² à®µ
à®İ à®ŀ
à®¯à®® à®¯à®®
à®Ĩ à®ªà®¤
an ir
es e
à®ļà®® à®¯à®¤
Ġà®ķà®² à®µà®°à®¤
Ġà®ĵ à®Ļ
à®ªà®² à®ķà®®
à®±à®µ à®³
il es
st ein
Ġf un
ĠA d
ĠI MF
ĠF ig
ut o
ĠG tk
ĠR AM
Ġit s
ĠTR UE
à®µà®¤à®© à®©
Ġr un
Ġr adio
for ce
end ing
os ition
Ġop eration
Ġan and
14 40
Ġsp eed
Ġà®īà®ª à®ķà®°
old ers
SO K
ern ame
Ġtr ack
Ġapp oint
lat via
Ġar ticle
Ex p
Ġcontroll er
ĠFig aro
Ġappoint ment
C SS
P ro
h ite
n al
p an
Ġ other
à®° à®ľà®©
à®¯ à®ļà®°
à®ļ à®ķà®Ļ
Ġà®ħ à®°à®ķ
Ġà®ī à®²à®°
à®ħ à®µà®¤
à®°à®® à®ª
à®¤à®® à®©
Ġà®¨à®Ł à®µ
Ġà®ļà®® à®¸
Ġt yp
it ch
la m
Ġ3 50
Ġà®ĩà®Łà®® à®³
ĠP ress
ĠA dd
ĠA FL
Ġl t
ĠH el
Ġà®ĩà®³ à®µà®°
ir c
ith er
mp ty
li ke
con om
ĠÃ Ĺ
KP ilot
}' ?
Ġ021 10
ĠFif th
4 6
G RUNTS
K à®ª
R C
R eg
U p
c lu
d ate
Ã §
Ã µ
à ª
à®© à®¯
Ġà®İà®© à®ļ
Ġ( .
Ġ( <
à®Ĩ à®¤à®°
er tific
it s
Ġa uth
en ame
en um
ar b
ot s
om a
at us
is te
th ing
ur as
and ard
ĠR obert
Ġre ques
à®Ĭ à®ķ
ai lable
Ġ196 4
per u
per iod
con text
OP T
ĠInt er
hy th
Ġdirect ory
Ġmod if
Ġà®ķà®©à®° à®ķ
clu de
0 1
0 3
B D
C olor
C UPS
D IST
K S
a tive
i ph
m ahjongg
o ot
u es
à®ª à®ĥà®ªà®°
à®¯ à®¤à®²
Ġà®İ à®ĥà®ª
à¯ģ. )
à®¤à®² à®©
à®±à®¤ à®©
à®ķà®° à®ķ
à®ľ à®¨
er or
in anc
Ġa v
à®°à®µ à®²à®°
Ġà®®à®© à®ķ
ar m
ĠT ext
de ut
Ġg t
ont act
ra tic
ain t
ak an
Ġà®¨à®ķ à®°à®ļà®ª
iv is
Ġ193 9
Ġpr int
LO G
à®ħà®µà®ļ à®°à®®
0 8
A ll
B IN
D G
D CC
L ink
U V
a us
c ub
d ia
d escription
g am
o in
o ad
r am
s B
s a
à¯ģ âĢĻ
à®¤ à®µà®¤
à®µà®¤ à®¤
à®¤à®° à®£
à®İ à®±
Ġà®ªà®¤ à®±
Ġà®ļà®° à®µà®£à®©
Ġk orea
en n
Ġd raw
Ġà®¨à®ķà®° à®µ
à®¹ à®Ł
at em
le ar
à®ħà®Ł à®Ł
ĠS SL
à®Ĳ à®ª
19 30
Ġà®ħà®° à®ĥà®ª
Ġb order
ĠP h
Ġà®Ĩà®² à®¯à®®
Ġ6 6
ĠG o
à®Ī à®´à®¤
Ġ9 8
Ġg row
ĠY ork
à¯ģ' ,
Ġhe lp
gu atem
Ġz eal
nor th
par agu
ott om
Ġà®ĩà®³à®µ à®¯à®¤
Ġag ain
ĠInstit ute
onqu eror
guatem ala
Ġzeal and
paragu ay
+ +
0 4
7 6
E rror
F C
W ith
m d
m y
m ar
v asudevan
à®ķ à®ŀ
à®± à®°à®ļ
à®ļ à®¯à®¤
Ġà®ķ à®²à®¤
Ġà®® à®Łà®²
Ġà®ĩà®¤ à®¯à®®
Ġà®Ł à®°
ro und
Ġp op
Ġ19 17
ĠS outh
Ġpro tocol
Ġb l
ĠL utte
ĠD TD
Ġ0 2
ess ion
ail s
ra q
Ġ197 9
gr ind
Ġ196 7
ĠAl so
Rep ly
zil la
For ward
MY K
rt vasudevan
Ġhour s
Ġfun ction
" {
5 2
9 1
9 2
F estivalVoiceName
H TTP
O ut
O CT
P age
d isc
p atterns
u ch
Ã ¬
à¯ģ ``
à®® à®¯à®µ
à®² à®ľ
à®µ à®ķà®ª
à®µ à®³à®®
Ġà®ħ à®Łà®®
Ġà®ļ à®©à®¤
Ġà®ļ à®ªà®¤à®®
Ġà®¨ à®³
Ġà®ī à®·
Ġà®Ĩ à®³à®ª
à®ľ à®²
Ġà®ªà®² à®¤à®°à®ª
la g
Ġa pt
Ġà®Ĭ à®ķà®Ļ
Ġd ivis
à®°à®ª à®²à®Ļ
Ġs o
Ġà®¹ à®²
om ain
ĠC PI
is of
Ġà®ħà®ķ à®©
Ġà®ħà®ķ à®¨
Ġ4 50
à¯į- --
ĠA ss
Ġ6 2
Ġ8 1
ĠH er
ĠW eb
Ġst d
ang ola
ir d
Ġà®ħà®µà®ļ à®°à®¤
AR G
198 8
ob a
PS G
pl it
NO NE
ĠTh read
gradi ents
Ġvar iant
brush es
draw able
OPT ION
hyth mbox
iph er
isof s
0 7
8 6
B O
D U
I B
N P
N ational
P ar
U LL
a ir
e at
f rica
l oc
o z
p m
à®ª à®¹
à®¯ à®ľ
Ġà®ķ à®³à®Ļ
Ġà®ĩ à®¯à®©
Ġà®ī à®ªà®°
Ġà®Ĵ à®£
à®¸ à®¨
à®ĩ à®Łà®µ
à®Łà®© à®ķ
à®©à®° à®¤
on s
an ce
al ity
en tic
Ġd ec
Ġà®¹ à®ª
à®ªà®² à®µà®ķ
ĠS ri
à®ı à®¸
ol og
ĠM in
ĠT ime
ĠP r
à®Ĩà®° à®ŀ
Ġl ink
ĠE TA
ĠE conom
Ġre p
vi de
ub ject
Ġ18 6
sp ace
Ġle ft
ĠSh ape
Ġex ec
ov a
ĠUn ion
Ġat tach
Ġ195 6
inanc ial
G P
L TR
R S
U PA
d ao
l ing
m ov
p art
p icture
u ation
Ġ ver
à®¿ ),
Ġà®ľ à®°
Ġà®ĩà®² à®£
es c
it oba
à®ļà®® à®ļà®®
Ġd ictionary
Ġp l
Ġs epar
ĠC F
ĠC ro
Ġc drdao
Ġc ups
ĠS HA
à¯ģ; ...)
ri es
Ġ6 3
ĠG T
à®ĩà®© à®ª
ĠO f
ĠN ATO
ĠK B
oo se
ĠJ ohn
ock et
con fig
lu ke
lat es
ĠMan itoba
bur ma
Insert Insert
Ġro ot
Ent ry
CHUCK LES
Ġgrow isofs
8 00
D TD
G nuPG
N ot
O M
O rgan
X DG
a ting
e ep
f s
p oland
y d
y m
Ã ¶
à®ª à®´à®¨
Ġà®ĩ à®³à®Ļ
Ġà®ī à®¸
à®ĩ à®©à®®
à®ķà®µ à®©à®®
à®¤à®® à®®
.. ...
Ġn bsp
Ġt emp
in al
Ġà®Ł à®µ
Ġà®ªà®¤ à®ķ
Ġa mb
Ġà®ķà®² à®µà®°à®®
à®ķà®´ à®ª
Ġ19 20
ĠS piegel
Ġin d
Ġin put
à®ı à®ļ
et e
à®ĩà®° à®¯
ĠA g
Ġ5 7
us ic
Ġà®ħà®³ à®¨
Ġ7 4
pp er
Ġ194 9
Ġcon f
ond uras
ors che
pad ding
ama ica
ĠGT K
( "%
) -
L ist
O U
P riority
d b
g in
h onduras
j amaica
u rop
v s
Ġ ra
à®ª à®ķà®ª
à®® à®°à®ķ
Ġt eam
à®ļà®° à®ķà®®
Ġk bs
Ġd omain
à®µà®² à®Ļ
ab led
ĠS MTP
à®Ĳ à®¸
Ġà®ħà®ķ à®ļ
ĠM urph
ĠF BI
à®ĩà®© à®ķ
Ġ7 20
ch ile
à®ªà®¯ à®£à®®
ĠE MAIL
Ġà®ªà®°à®µ à®ļà®¨
if fic
Ġ> %
ug h
à®¾' ,
od ing
uck er
ĠĠ Ġ
az akh
Ġhe ader
ays ia
Ġdev ice
== ==
ĠRom an
deut sche
mov enum
B A
B IL
K D
N OR
O L
U ID
b re
k s
p end
z e
à®® à®ľ
à®µ à®µà®²
Ġà®µ à®¯à®ļ
à®· à®£
Ġà®ľ à®¨
Ġn ick
Ġà®ªà®² à®µà®¨
Ġc lick
Ġdo cu
ĠM D
ri al
ĠA ct
ĠD E
Ġm ake
Ġof f
ĠO ut
Ġ7 8
Ġ10 24
ul gar
ect ed
à®ļà®¯à®® à®±
art z
for d
ep om
Ġ198 6
ph a
Ġ197 6
man y
org an
MS N
av ig
OP ER
Ġ195 3
IM F
ĠCont ribu
SM TP
Ġà®ĥ à®ªà®¤
Ġev ents
Ġsecond s
entin a
Reply Forward
entic ation
azakh stan
C ol
F O
L oc
N etwork
Y Y
c anada
d esktop
i us
k azakhstan
à¯į <
Ġà® Ļ
à®¤ à®ķà®µ
à®® à®¤à®°
Ġà®® à®¤à®ª
Ġ( $
à®¯à®° à®±
ti a
ti l
à®¯à®® à®©à®¤
Ġà®° à®ŀ
Ġà®¤à®² à®Ļ
Ġd ay
Ġd ialog
à®°à®ª à®°à®£
op y
he l
Ġ3 000
ĠM ove
ĠA L
ĠA nd
ĠI mp
Ġ6 7
Ġ6 8
Ġ7 3
ĠN ote
Ġl ib
Ġ20 12
ĠW olf
im ages
Ġ15 00
Ġ197 2
ip e
Ġdist ribu
ger many
SI G
Ġsome thing
194 8
Sp read
arg entina
den mark
ĠMess ages
Ġamb alam
ulgar ia
epom uk
ĠContribu tions
Ġdistribu tion
5 8
L M
L Y
M T
T E
T F
b ook
h ai
j pg
u el
w o
à®ķ à®°à®ļ
à®¤ à®¤à®²
à®ª à®´à®ķ
à®ª à®Ĩà®²
à®© à®Łà®¤
à®¯ à®ķà®°à®®
Ġà®ķ à®ķ
Ġà®ķ à®²à®ķà®Ļ
à®¨ à®ª
Ġà®µ à®Łà®¤
à®©à®° à®ŀ
an ing
al ign
Ġd ig
ĠC or
Ġ19 14
el f
Ġb ar
à¯į! "
ĠN OT
Ġà®ķà®´ à®ķà®Ļ
ra in
"> <
Ġ198 2
à¯Ī' ,
Ġ197 5
Ġ197 7
CO S
ich a
Ġà®ļà®®à®°à®ļ à®ª
oss ible
VI DE
Ġund er
5 4
B JP
D D
H S
H ST
K TT
M an
S ee
T rans
U L
X ml
b erg
b ulgaria
s ur
s lo
u la
v olution
Ã Ĥ
â Ħ
à®¿ âĢĻ
à®¤ à®Ĩà®µ
à®ķà®³ à®²
Ġà®ķ à®³à®µ
Ġà®ķ à®ŀ
Ġà®¨ à®ľ
à®ķà®® à®°
ti tle
al id
Ġà®ªà®² à®µà®ķ
à®ķà®ķ à®Ļ
Ġà®¨à®ķà®° à®ª
Ġname s
re ed
nt u
ĠS plit
Ġà®¤à®° à®ķà®°
ĠM y
ĠP e
ĠA BC
ĠD ata
us er
ĠG dk
à®ĵ à®ļ
de v
ĠW orld
ug u
ich ard
con vert
bu ntu
CK S
sc reen
pres ets
Ġenc ryp
palet te
mal aysia
ĠPA SOK
âĦ ¢
1 20
5 7
F DP
G I
M IME
W idget
Y L
e ah
u ff
Ã ¤
à¯į à¯Ī
à®¨ à®²à®®
Ġà®µà®° à®Ł
à®°à®® à®²
Ġà®ı à®µà®ª
à®¤à®° à®ķà®®
ti an
in ch
Ġp lease
Ġp oint
Ġà®¤à®® à®¸
à¯Ī, "
à®±à®µ à®³à®°
ĠT ele
ri de
us ername
ĠB lack
à®Ī à®µ
Ġ7 2
ch er
Ġe mpty
Ġà®Ĭà®Ł à®ķà®µ
Ġ9 6
à®¨à®ķà®° à®ª
à®¿' .
Ġre f
Ġà®µà®± à®£
ex ample
198 4
Ġ198 8
rit ten
Ġwith out
ik a
Ġev ent
Âł Â°
Ar ch
Ġdisplay ed
GROAN S
ĠSocial ist
Ġreques ted
VIDE O
- >
E U
G pg
I t
J B
M IN
O ff
S F
T imes
U ser
b g
d u
e ad
l ook
Ã »
Ã Ģ
Ġ eng
à®ķ à®ķà®ª
à®Ł à®¨à®®
à®® à®¯à®ª
à®² à®¹
à®ķà®³ à®£
à¯Ģ )
à®ħ à®¯à®°
Ġà®ľ à®©à®°à®ŀ
ti st
à®ī à®ªà®¤
à®ķà®² à®µà®°à®Ļ
Ġt ry
er ed
es lot
la d
Ġà®Ĭ à®ļà®²
op e
ot al
le y
re m
Ġc ount
ĠS econd
ol id
el and
Ġf ailed
ĠM MA
ĠP OP
ĠA uth
Ġ5 000
ĠK à®ħà®ŀ
ĠE mail
Ġg et
iz er
ont rol
ain e
à®ªà®´ à®©
197 2
ai ly
Ġ198 1
à®¿" ,
à®Ĩà®µà®£ à®ª
Ġitem s
Ġ194 3
Ġ196 5
Ġ193 1
à¯ģ-- --
word s
rap h
Ġà®ħà®¹ à®®à®¤
be k
gn ome
ĠOpen PGP
Key words
Ġimp lies
ĠNor th
Ġav ailable
4 80
D COP
P op
U K
U M
b in
b ug
e mb
g b
g z
h ole
n g
p le
Ġ oc
à¯į }
à®¤ à®¯à®Ļ
à®Ł à®ķà®ª
à®© à®³à®µ
à®ħ à®Łà®ķ
à®· à®Ł
Ġà®ĩà®² à®ŀ
à®Ĩ à®´à®¤
Ġà®ķà®£ à®®
Ġà®ħà®± à®¨
Ġà®¤à®© à®®
Ġà®Ī à®ķ
en ti
Ġà®² à®©
op ete
Ġs end
ĠC al
ic ros
Ġb in
et er
ĠP orsche
ag ue
ut f
ĠB as
Ġ6 1
am i
ĠE ast
Ġre quest
ang o
our nal
Ġ.. ........
à®ĥ à®ľ
ĠxA A
org e
org ia
196 9
ĠUn ited
Ġ36 5
aj i
ava Script
Ġà®īà®ªà®ķà®° à®£à®Ļ
Ã§ ois
bek istan
9 9
A t
E G
M ark
O CR
d ictionary
r ist
s et
v ers
Ã İ
Ġ \
Ġ object
à®Ł à®°à®®
à®® à®Łà®ķ
à¯Ī ``
Ġà®ª à®·
à®ļ à®²à®¤
Ġà®ħ à®ļà®°
Ġà®ħ à®ļà®¤
Ġà®µ à®ļà®©
à¯ĭ _
à®ħ à®Łà®Ļ
à®¯à®¤ à®³à®¤
à®µà®© à®ª
Ġà®ªà®Ł à®²à®®
à®²à®® à®Ł
à®ªà®° à®µà®ļà®¨
al k
Ġd is
re t
ĠC art
ĠS ystem
à®ı à®Ł
Ġf ield
ĠM o
Ġ5 3
à®®à®£ à®Ļ
ĠD ev
ing s
Ġh er
ĠB anir
ĠH o
à®¨à®° à®ķà®¤
ĠV ol
197 1
Ġal so
12 8
Ġ197 3
Ġ194 2
CO N
ĠCO VER
ge orgia
ĠIn formation
Ġ193 8
row se
gu y
Ġsc reen
ier re
VI CE
eed back
pres et
Ġspecif ied
temp lates
ĠCommun iste
och um
PK CS
C A
E O
F F
I X
K E
T Y
W orld
Â ²
à®¿ ..
à¯Ī ....
à®ļ à®®à®¤
à®¨ à®Łà®ķ
Ġà®® à®¯à®Ļ
Ġà®ļ à®ķà®°
à®ħ à®ļà®²
Ġ( '
Ġà®ķà®° à®Ł
Ġà®ļà®® à®ķ
Ġà®Ĳ à®²
al m
Ġà®ªà®¯à®© à®Ł
Ġà®Ī à®¸
Ġà®Ī à®´à®ª
Ġà®®à®¤ à®Ļ
en k
ar an
Ġà®ĩà®Ł à®±à®²
om bo
le t
à®ªà®² à®ķà®¤
il ity
à®µà®£ à®Ļ
ĠM at
ĠA t
Ġà®īà®¤ à®¯à®®
ĠD ow
ĠD ef
ĠD ie
ing er
ĠI N
Ġ7 7
ĠR ight
à®ªà®¯ à®£
ĠH a
ĠW indows
Ġg r
Ġ197 8
Ġtext box
Ġwindow s
194 7
Ã¼ d
Open GL
ĠAme rican
( #
) )
9 00
G NOME
H EX
K Ch
f el
g o
o e
r ation
s an
s ld
w hite
à®ª à®³à®ª
à®¯ Name
à®± à®µà®ķ
Ġà®ķ à®´à®±
à¯į. ``
à®ħ à®²à®ķ
on on
à®ªà®° à®Ł
al f
al v
es ton
it he
la ude
Ġk ppp
à®Łà®ķ à®ķ
à®±à®© à®µ
ro ugh
Ġd a
à®°à®ª à®ŀ
Ġp ath
Ġs ource
à®Łà®µ à®³
re gions
ĠC MYK
à®İà®© à®ª
ic eland
Ġc ertific
à®Ĳ à®®
à®ı à®µ
Ġb ec
Ġf r
à®ķà®ļ à®¸
Ġà®īà®¤ à®¯
of f
ur ugu
ĠB l
à®Ī à®´à®®
ĠN etwork
ĠH or
Ġe ither
à®Ĭ à®´
um p
eg o
her lands
net herlands
ree ly
PN G
arn ing
Ġà®¨à®° à®ķà®²
ens ity
Ġres ource
ech n
ĠAn g
Ġent ry
agu a
ĠDemoc ratic
sld bg
regions et
urugu ay
F A
P RO
R ef
U MP
b ottom
d ash
g pg
k ali
n ic
à®ķ à®ĩà®°
Ġà®ª à®¯à®°
à®ļ à®ªà®°
Ġà®ħ à®ķà®´
à®´ à®ļ
à®ħ à®°à®£
à®ħ à®µà®Ļ
Ġà®ı à®£
à®³à®° à®ª
à®¤à®© à®µ
à®©à®® à®Ł
at ero
ĠC H
Ġthe y
Ġb ase
Ġf olders
ĠM a
et o
Ġw rite
mb er
ur al
ĠF inancial
Ġm atch
à®Ī à®ļ
Ġà®¤à®µà®± à®µ
Ġ7 1
ĠN ULL
Ġl ines
Ġe qu
ce iv
ang e
DE V
Ġme dia
à®Ĭ à®Łà®ķà®¤
our ces
Ġsh ow
Ġà®¨à®µ à®ļà®®à®ļà®®
ef t
ud i
24 0
196 3
Ad d
CI I
Al kali
ĠMet als
Ġà®ĥ à®ªà®ķ
reg ator
Ġà®µà®Łà®ª à®ķ
ĠPT CL
iffic ult
icros oft
8 7
A s
F i
K Spread
O H
P CF
R ec
V AL
W P
c il
d er
i tional
k orea
n ess
n ep
n one
p ath
s ing
w ml
Ġ edit
Ġà® £
à®Ł à®Łà®¤
à®Ł à®¯à®²
à®² à®¯à®©
à®² à®¯à®Ļ
à®³ à®©à®µ
Ġà®ķ à®²à®®
à®¨ à®²à®µ
à®£ à®¯à®ķ
à®ħ à®³à®ª
à®µà®¤ à®²
Ġà®µà®° à®¤à®Ł
à®°à®® à®³
à®¯à®® à®³
à®Łà®° à®°
Ġt er
Ġt amil
Ġà®¯ à®ª
à®ļà®® à®¯à®Ļ
Ġ' /
Ġà®ħà®´ à®ķà®ª
Ġà®Ĭ à®©
ar men
à®©à®® à®±
Ġà®ħà®µà®© à®¤
Ġà®ĵ à®©
ic ode
ĠS E
ĠS S
ĠS ound
Ġà®ħà®ķ à®¸
Ġb el
ĠP C
ĠL ay
ĠD es
ĠD NS
as on
ĠG DP
Ġ8 4
ap p
ap atero
ig ue
ay a
qu ality
ra f
ĠSh ift
ov ing
DI C
Ġtr aditional
ĠCol ombo
Ġpr inter
Ġpr abu
Ġper miss
ĠCP E
Ġà®¨à®° à®ķà®®
195 3
Ġhead ing
Ġtag s
uz bekistan
south korea
ustral ia
dock able
ĠSet tings
outp ut
pan ama
olog y
Ġtemp late
Ġteam EMAIL
eston ia
ithe c
armen ia
, ...
D own
R et
\ -
a ug
b utton
c lient
f lag
g i
g ang
j ust
k cm
l en
m ask
s à®ĩà®²
z ech
à®Ł à®¯à®ķ
à®© à®ķà®°à®®
Ġà®® à®¸
Ġà®® à®ľ
Ġà®ħ à®ķà®°à®®
à®£ à®¯à®Ļ
Ġà®¤ à®ķà®®
à¯į. ,
Ġà®ī à®ķà®ª
Ġà®ĩà®° à®¤à®¤
à®ĩ à®±à®ª
à®ľ à®¤
on y
ti s
Ġà®ħà®°à®ļ à®®
à®°à®£ à®°
it er
Ġà®² à®µ
Ġà®Ĭ à®ķà®®
Ġc l
à®£à®® à®Ł
il o
à®¤à®± à®²
ĠP SO
ĠL u
ĠD ate
ĠD COP
à®Ī à®´
Ġ7 6
à®ĩà®² à®Ł
ĠN o
ĠN SA
à®ĵ à®²
oc i
ap h
St art
qu ir
if ied
ĠJ u
ĠJ ose
Ġà®Ĭà®° à®Łà®Ļ
Ġ24 0
PD F
CO U
IA EA
ĠCh ris
ĠCon stellation
Dev help
ĠWork ers
Ġda emon
ifficult y
4 1
A V
A pp
A nd
C heck
F ucking
G C
G DP
K Office
P review
Q Xml
W hen
Y E
g db
i ro
k a
n aire
p el
r ase
Â º
Ë ļ
Ġ à¯Ĩ
Ġà® ´
à®Ł à®µà®®
Ġà®ħ à®ķà®®à®¤
Ġà®¤ à®µà®®
à®µà®¤ à®®
à®ķà®µ à®¨
à®ľ à®Ļ
à®ľ à®¯à®©
à®¤à®µ à®£
Ġn atur
Ġn avig
à®°à®£ à®ķ
al es
al ak
al aji
à®²à®ķ à®©
la h
Ġà®² à®ŀ
ar i
ar agua
at er
re ct
ĠC ooper
ĠS O
à®ı à®±à®ķ
ĠM S
ĠM i
Ġà®īà®²à®ķ à®ķ
ri ed
ĠA N
ĠD eut
ĠF ar
à®Ī à®´à®ª
ĠR ev
à®ĵ à®ķ
à®ĵ à®°à®®
Ġ0 5
Ġ0 8
ĠU TF
ĠH IV
Ġe ach
Ġ/ .
ĠW e
Ġth en
Ġcom m
Ġg ener
Ġg oogle
Ġ[ -
ack age
Ġ198 4
Ġal arm
Ġ194 1
ud o
ak istan
à®īà®¯à®° à®¤
pr c
Ġ196 3
NT H
ital y
af f
ĠÃ Ģ
196 4
196 8
ĠÂ «
tiv ity
à®īà®²à®ķà®® à®¯à®®
ĠLong DayName
ass word
ĠSc reen
Ġsc roll
Ġprogr ess
à®ĥà®ªà®° à®©
bur g
arg in
Ġenc oding
ĠBr un
GROAN ING
KA B
Ġ88 59
Ph onon
ye men
guy ana
nic aragua
alak sh
1 000
5 1
B ar
D ef
D elete
R ING
W W
W h
d y
m od
n ia
o sp
s u
s in
y y
y nt
Ġ Î
Ġ ic
Ġ url
à¯ģ à¯į
à®ķ à®ķà®®
à®² à®ŀ
à¯Ī _
Ġà®ļ à®¤à®°
Ġà®¨ à®ļà®°
à®ĩ à®´à®¨
à®ªà®¤ à®ķ
à®³à®° à®ķ
à®¤à®° à®µà®°
Ġà®ĩà®² à®ļ
00 00
Ġ" "
in ux
Ġà®ªà®² à®¨
Ġp ossible
Ġà®ĩà®Ł à®±
à®ķà®´ à®µ
ic es
ic tor
ĠS ervice
ou l
Ġà®ļà®ķ à®²à®¤
ĠT om
ri v
ĠP er
ĠP olicy
ing ton
ut ed
ĠN e
à®ĵ à®°à®Ļ
Ġ8 50
à®°à®¸ à®©
St re
Ġre ceiv
id er
if e
à®Ĭ à®´à®²
Ġac tive
Ġà®ļà®£ à®²
Ġ14 0
ĠâĢ ľ
Ġan other
KDE D
ĠCh ar
Ġ193 3
Ġun known
ne um
ĠOpen GL
Ġdet ails
Ġcr edit
Ġtyp es
Ġdocu ment
ĠPSO E
= ?
C IA
P ost
P neum
S ync
S ocket
b h
d rtvasudevan
i j
n ick
o tia
r il
s rc
z one
à¯į </
à®¤ à®ļà®®
à®Ł à®¯à®ª
à®° à®ķà®£à®®
à®© à®ķà®¤
à®® à®°à®©
à®³ à®Łà®ķà®¤
Ġà®ª à®¤à®®
Ġà®ķ à®©à®¤
Ġà®µ à®ļà®ª
Ġà®¨ à®¯à®®
à¯ĩà®¾ ?
à®¯à®² à®ķà®®
Ġà®ı à®Ļ
à®³à®° à®µ
à®İ à®µà®©
Ġt wo
in o
à®ªà®° à®ķ
à®¤à®ķ à®©
la ve
à®®à®© à®ļ
Ġà®ªà®£ à®¯à®®
Ġp osition
à®ªà®ķ à®µà®¤
Ġs e
Ġs ame
Ġs ent
Ġs ure
Ġs oftware
Ġs alv
Ġc al
Ġ19 18
ĠS ort
ĠS ection
à®ı à®²
el le
st amp
Ġf oo
ĠM O
ri a
ri end
Ġw eb
Ġ5 50
ĠL ab
Ġà®· à®°à®¤
ut an
ĠB rice
Ġ6 000
Ġm o
Ġm ul
Ġm ouse
à®Ī à®ķ
ĠO CR
à®ħà®°à®ļ à®°
Ġx ml
ĠK ar
oc us
ĠH ar
Ġe xt
ce p
ist ory
ĠW h
Ġ< \
Ġac ute
Ġwh ere
ert y
od el
ill er
ian s
PD S
âĻ «
RO UN
Ġkey s
ash ington
ĠEn g
Ġper cent
col lection
anc el
Ġcomp le
Ġapplic ations
via tion
ins ki
fm client
gam mon
Ġattach ments
ĠCF DT
hai ti
ĠCart r
Ã¼d deutsche
ithec us
bh utan
> ]
B E
B l
C re
C ontrol
K à®µ
L F
P ath
S ystem
U AW
W ER
c an
c rit
d ec
f p
g a
h o
w ik
Ã ´
à¯į \
à®ª à®³à®Ļ
à®® à®ķà®°
Ġà®ķ à®µà®°à®ª
Ġà®¤ à®ķà®Ł
Ġà®¤ à®µà®£
Ġà®ļ à®³
à®¯à®² à®ķà®¤
à®°à®ļ à®¤
Ġà®° à®®à®£
à®ī à®¨
Ġn ow
ame r
à®ļà®® à®¸
à®®à®© à®ª
Ġ- ---
Ġà®Ĭ à®ķà®µ
ĠC ursor
Ġà®ĵ à®®
Ġc opy
ĠS he
ac y
à®°à®ķ à®©
19 14
ĠT ab
ĠT ARS
à¯į- ----
ĠL i
ĠD er
ĠF DP
ĠG NOME
te m
Ġre lease
Ġre fer
ize flag
um ar
à¯ģ'' .
Ġal ong
Sh ift
Ġ22 5
ĠZ od
Imp ort
GT K
Ġ193 6
Ġpref ix
GL SL
iss ion
als izeflag
put er
ĠAb d
ru ct
ĠRep ublic
Back end
à®±à®°à®ļ à®°
ĠOf fice
ĠMove ment
Ġnatur alsizeflag
! )
7 1
A fter
B M
F ran
J OE
M ess
M agn
N PA
N one
O b
P er
S C
S ch
Y ahoo
Y UV
b y
b il
f ur
h ar
i raq
m ib
t ag
u le
v a
v is
y a
y c
z ego
Ã ħ
Ã ĩ
à®Ł à®ľà®©
à®² à®ķà®°
à¯Ī '%
à®µ à®ļà®©
à®ķà®³ à®ķ
à®ļ à®©à®°
Ġà®µ à®¯à®°
à®¸ à®µ
à®ĩ à®²à®¤
à®ħ à®·
à®ķà®® à®ª
à®· à®°à®¤
à®µà®© à®¨
à®Ĩ à®µà®¤
à®¤à®µ à®´
Ġt ar
in it
Ġà®Ĳ à®Ļ
Ġ' .
ed ef
en u
Ġd isc
re at
ĠC o
ĠC lutter
à®ªà®£ à®µ
ĠS im
Ġpro xy
st ate
Ġb it
Ġf uckin
ri ev
ĠP P
ĠP ort
ĠP lace
ĠA R
ĠA SE
Ġà®®à®£ à®µ
ĠF TP
ĠB e
ĠG lob
ĠR ichard
à®µà®ļ à®ª
à®ĵ à®®
ĠK o
ĠU k
Ġl ock
Ġe ven
ap t
à®¯à®°à®ļ à®°
Ġst ar
ion e
ul ly
Ġbe gin
ĠJ ournal
à®°à®³ à®²
ĠV al
Ġus r
od ay
ix map
vin a
con sole
196 2
row ser
Ġim age
ĠUn ivers
Ġun read
jay alaksh
tool s
gu ides
ĠShort DayName
195 6
Ġres olution
hot o
Ġloc ation
SD L
Ac cess
OE CD
press ion
EE K
ĠMess age
WM Comment
ĠDa vid
erson al
refer ences
Ġran dom
bos nia
Ġà®ĩà®³à®µà®° à®ļà®°
cub a
icha el
Ġref ers
Off screen
Ġher zego
Ġequ als
Ġtamil pc
mib alaji
riev ing
Ġherzego vina
4 3
8 2
9 3
A D
B BC
G oogle
P ER
R e
W ord
W indows
h akan
k regator
s à®²
Ġ quot
Ġ mbox
à®¾ à®¾
à®° à®¯à®¤
à®ª à®ķà®°
à®ª à®ķà®ķ
à®® à®µà®°
à®® à®°à®°
Ġà®ª à®µà®°
Ġà®ª à®´à®¨
à®ļ à®ķà®Ł
à®¨ à®Łà®°
à¯Ĥ ,
à®ķà®® à®²à®®
à®ķà®° à®µà®°
à®°à®® à®ķ
à®ľ à®Ł
à®¯à®¤ à®³à®®
à®°à®¤ à®ª
à®Ĩ à®ĥà®ª
Ġà®ħà®© à®²
Ġà®Ĳ à®²à®£
à®ªà®° à®¸
or m
à®µà®® à®¯à®®
Ġà®Ĭ à®®
Ġà®Ĭ à®ķà®¤
à®¿. '
ar aj
Ġp ub
Ġs hell
ot sw
à®ªà®£ à®ķ
à®ļà®© à®ŀ
ĠS P
Ġin dex
à®ı à®£
à®ªà®© à®µà®±
ĠM ac
ĠM DN
ĠP O
ĠA S
th ias
ĠB ur
ĠN ova
Ġà®Ĩà®µà®£ à®ķ
Ġla ter
20 10
ir th
tle ment
Ġal t
gr ess
ĠZ apatero
SE C
à®¿( %
lu eto
ff ers
à®ĩà®³ à®¨
Al pha
ven tion
NE F
IG N
tical ly
Ġà®¤à®ļà®® à®ª
tif y
refer ence
bre viation
à®ªà®Ĩà®² à®¯à®¤
hakan ini
otsw ana
lueto oth
5 3
< \\
C SP
D ATE
G e
G ar
K à®ļ
M ouse
R AM
S k
S up
T amil
U se
U buntu
a ust
c am
c os
f e
g ium
k fmclient
l k
n ow
p review
y th
Ã ²
à ¶
à ·
à®¤ à®°à®ļ
à®¾ %
à®Ł à®Īà®Ł
à®± à®£
à®³ à®¤à®®
à®¨ à®Łà®®
Ġà®ħ à®ķà®µ
Ġà®ļ à®²à®µ
à®´ à®°à®ļ
Ġà®ī à®²à®µ
à¯ĭ :
à¯Ĥ '
Ġà®ħà®® à®¤
Ġ( (
à®ķà®° à®Ł
à®ľ à®µ
Ġà®ı à®°à®£
an iel
à®ķà®² à®Ł
Ġà®ħà®² à®ļ
à®ļà®® à®©
la sh
à®ļà®° à®¸
Ġa frica
Ġà®² à®·
Ġà®®à®© à®¸
ar ns
Ġs ing
Ġà®¹ à®ļ
à®©à®µ à®²
at une
re w
ĠC SU
is o
ic ation
ĠS a
ĠS an
ĠS QL
ou is
Ġà®Ĩà®ļ à®ķ
et ro
Ġà®ªà®¯ à®£à®Ļ
Ġw ay
Ġw arning
ĠD A
ĠI C
ĠB rand
ĠG DL
ĠG reely
ĠE r
age ment
ist s
Ġ9 7
AT A
Ġth read
ĠJ P
à®¿- >
our g
IN V
Ġle t
Ġsh ortcut
à®ĥ à®²
ack ages
à®¨à®² à®ļ
ĠSt art
Ġ$ {
12 5
Ġà®ļà®© à®¨
PA L
CO OPER
we b
mail dir
Ġ196 6
lo se
Ġex p
bu ffers
Ch ar
ven ia
ĠCon f
Ġper ipher
ĠSc otia
ĠRe view
à®ħà®ķà®² à®µ
Ġcurrent ly
igh s
Ġconfig uration
Web cam
Ġcre ated
ĠAme rica
ĠFO V
Ġinst all
ĠAdd itional
Ġstd out
DU CT
Ġnick name
slo venia
Ġeng ine
KCh art
Ġbel ow
Stre amer
cep ted
ĠASE AN
( )
= %
A A
C ancel
G A
G eneral
H z
O n
P PD
S V
] .
b l
f tp
h am
u amount
w in
z er
à¯į âĢĮ
à®© à®²à®ķ
à®² à®ķà®ª
à®² à®°à®¤
à®³ à®µà®¤
Ġà®ª à®ľ
à®¨ à®±
Ġà®® à®ķà®°
Ġà®ħ à®ļà®²
Ġà®¤ à®°à®£
Ġà®¤ à®²à®®
Ġà®¤ à®®à®©
Ġà®ļ à®¯
à¯į, ...)
à®ħ à®°à®Ļ
Ġà®ľ à®¯à®ļ
Ġà®ħà®Ł à®²
me s
à®ī à®¸
Ġà®Ĳ à®¯à®ª
à®ªà®° à®µà®³
al ly
à®®à®¤ à®ļ
es h
Ġ- (
à®ĩà®¤ à®¯à®¤
à®°à®µ à®ª
Ġà®®à®© à®µ
Ġà®ķà®² à®ķà®¤
ĠC ar
Ġpro vid
Ġf ree
ĠM organ
et a
ĠP o
ĠP ol
ĠL O
ĠD e
ĠD aily
ia tion
ur a
Ġh ome
ut oma
ĠB y
ĠG UI
ĠO CI
de pend
ĠU ID
Ġl ong
ap s
ist er
Ġ20 11
Ġ9 2
im um
Ġg o
id s
thumb left
ĠJ ones
oun cil
com mand
ines e
Ġch oose
Ã© n
Ġwor k
Ġ193 7
min ute
SU M
Un ion
ĠSc i
Ġres p
ĠMar tin
ĠFor ce
ĠSte arns
res h
Dev elop
rib uted
ren ch
rav ail
ĠApp lic
lish ed
ĠInter net
Ġpop up
Ġdivis ions
urop ean
Loc ation
ĠImp ort
ĠWolf gang
ĠMat thias
irth day
$ {
4 2
6 3
6 9
A IM
B SD
D o
E V
H ow
J ob
M oving
O per
P E
P M
P ur
P ixmap
Q IB
R GB
V ika
a ver
c re
c zech
g roup
h r
h ard
i tions
m ac
Ã Ĭ
Ġ row
Ġà® ³
à®ķ Name
à®ª à®ķà®Ł
à®® à®ķà®¤
à®± à®ķà®°à®®
à®¨ à®Łà®©à®®
Ġà®ħ à®ķà®Ļ
Ġà®µ à®°à®ļ
Ġà®ī à®ªà®ķ
Ġà®Ĩ à®Łà®²
à®¸ à®®
à®ħ à®Łà®©
à®ħ à®ķà®Ļ
à®µà®¤ à®°
Ġà®ħà®¤ à®°
à®¤à®¤ à®¤
Ġà®ħà®® à®³
à®¤à®° à®Ł
Ġà®° à®ĥà®ªà®°à®©
Ġà®ħà®© à®©
in ame
Ġà®Ĳ à®İà®¸
Ġà®Ł à®µà®°
à®®à®¤ à®Ļ
Ġà®Ī à®´à®®
ro ans
Ġd uration
Ġs it
Ġs ec
re ak
ĠC he
ĠC ount
ĠC ASE
is ia
Ġ19 16
ĠS aru
Ġin v
à®ı à®ľ
à®ķà®© à®ķ
19 17
Ġb ook
Ġà®¤à®° à®¨
ri x
ĠP EM
ĠA tkHyp
ec al
ec ht
us tin
Ġm ost
ĠG pg
ĠG erman
ĠO E
ĠR GB
ĠU I
ĠU se
te ar
ĠW ar
Ġre ason
Ġ[ <
à®ħà®µ à®ļà®°
à®ħà®ķ à®²à®¤
ah n
ĠV W
ert à®ĩà®²
Ġal ert
view port
ud ensity
PI D
we ight
IA S
NT P
Ġkey board
Ġ500 00
ĠÂ ¯
}" .
lu x
DI F
ĠUS B
Ġbug s
** *
MM M
Ġmin ute
à®ħà®ķà®° à®µà®°
Ġout ta
En c
Non ecal
__ __
Ġran ge
UA Description
OfThe Meeting
ĠRobert s
Ġind ic
ĠAL IAS
sur iname
YE AR
Ġnavig ation
ĠMi ke
ictor ia
Ġsalv ador
Ġbegin ning
jayalaksh mibalaji
Ġperipher ies
QIB ase
ĠAtkHyp ertà®ĩà®²
4 7
6 5
; }
A rial
B rice
F TP
G EA
L C
M o
M ake
P ilot
R G
S elect
T IME
U C
a is
c ue
d s
f older
g ed
i w
j oin
p se
s ys
u ro
v es
Ã ¸
Ð ¸
à®¿ --
à®¤ à®¹
à®® à®±à®¨
à®± à®¤à®²
à®³ à®ķà®¤
Ġà®¤ à®³à®ª
Ġà®İ à®¯à®°
à¯į. :"
à®ķà®µ à®ķ
à®©à®° à®®
à®©à®° à®Ļ
à®ķà®Ł à®ª
ame la
Ġt xt
er al
à¯Ī. :
Ġ2 30
Ġà®ªà®£ à®ļ
Ġs che
Ġà®ķà®² à®ķà®ª
ĠC NN
ĠS A
ĠS L
ĠS o
ĠS u
ĠS w
ou gh
ol low
Ġà®īà®¤à®µ à®µ
Ġà®Ĩà®ļ à®©à®¤
ĠM M
ĠP l
ĠP amela
ec k
of user
ĠF iles
à¯ģ... )
Ġ6 9
ĠN one
à®ĵ à®ªà®©
ĠW i
ĠW atch
ent er
iz ed
ĠName OfThe
Ġ17 0
à¯ģ' .
à®ĥ à®ªà®¤
Ġv on
Ġà®ķà®µà®© à®ķ
ud io
man n
Ġdist ributed
RO M
lu ep
ff ect
à¯ĩ' ,
Ġz ones
GH T
Rep lace
bur n
ade i
Int ernational
ache grind
La unchpad
reed om
ĠRight s
just ment
ĠÎ ¼
Ġic on
Mess age
Pur ge
ĠNameOfThe User
3 50
D R
D iff
E CT
G roup
G host
J ohn
L ib
P HP
R hythmbox
S ocial
T ab
V ictoria
b irthday
f ull
k m
k de
k ppp
m it
n ivers
p akistan
r ad
s on
w ide
z ez
Ã °
Ġ esc
à¯ģ \
à®Ł à®¯à®°
à®° à®³à®¤
à®° à®¯à®®
à®° à®³à®®
à®µ à®¯à®²
à¯ĩ %
Ġà®ª à®¤à®¤
à®¨ à®¯à®©
Ġà®® à®¤à®©
Ġà®ļ à®¸
à¯Ģ '
à®µà®° à®Ł
Ġà®ħà®¤ à®®
à®ľ à®ķà®µ
à®µà®© à®ķ
à®¤à®© à®ª
à®Ĩ à®·
Ġà®° à®Ļ
à®³à®µ à®³
in ed
Ġà®ĩà®¤ à®¯
Ġk d
Ġa sp
Ġa bo
à®±à®© à®±
Ġà®®à®© à®Ļ
Ġp ort
à®ķà®£ à®µà®©
re es
ab c
Ġc all
à®ļà®© à®µà®°
Ġpro vide
à®ı à®®
el zer
19 20
ĠT oday
ĠP ATH
ĠP ango
ĠD ay
ĠD atabase
ĠI PP
ĠB ochum
Ġ6 50
Ġm mm
and a
ĠO pel
à®ªà®¯à®© à®±
à®ªà®¯ à®£à®¤
Ġ0 6
ĠK Gpg
ĠK luep
Ġl ook
ĠE xt
ĠE nd
ĠE SF
Ġà®Ĭà®Ł à®ķà®ª
ĠW ord
vi er
vi ous
DE VICE
og araj
Ġ11 0
bel gium
Ġor ig
MA X
Ġ18 00
up g
à®Ĭ à®Łà®ķà®®
sp in
eg er
Ġac count
IL O
Ġ13 0
Ġv al
tic s
ian ce
ef ul
CD DB
Ġan nivers
ev ent
sw ick
Ġ196 2
az ione
Ġset tlement
Ġcolor s
Ġbug zilla
MD IST
ĠPro tocol
Ġsu ch
FI TS
Â¢ Â¨
atter n
à®ļà®°à®£ à®Ł
Open PGP
tific ation
ĠPost Script
VG A
Ġcontin ents
ĠGe orge
à®ĩà®Łà®µ à®²
Ġsepar ator
KTT SD
Ġencryp tion
ĠHo elzer
Ġcertific ate
Ġbec ause
oci ated
ĠRev olution
ĠBrun swick
ynt h
depend ent
sys fs
Ġabo ve
ĠKluep fel
Ġannivers ary
) '
> >
A CL
B ox
B utton
C UR
C ooper
F T
G M
H e
H ot
H el
H eh
J K
L utte
M ul
P art
V al
b er
c ap
d ated
f il
h int
i que
l ib
p rop
s ol
s ane
s ession
t rans
u i
z ip
Ġ editor
Ġ older
à®ķ à®·
à®ª à®±à®ķ
à®® à®±à®¤
Ġà®ª à®³à®ª
à®ķà®³ à®Ļ
Ġà®ļ à®µà®°
à¯ĭ ...
à¯ĩà®¾ "
Ġà®Ĩ à®µà®¤à®±
à®Łà®¤ à®Ł
à®°à®® à®¨
à®Ĩ à®ķà®ķ
er a
er r
er es
Ġà®Ł à®Ļ
Ġà®ªà®² à®Ļ
la c
la us
Ġà®īà®£ à®°à®µ
ed eration
Ġà®² à®®
om p
ĠC SV
is i
is ting
Ġc ase
à®ļà®© à®ª
ac tive
ĠM b
ĠP op
ĠP at
ĠP hoto
Ġw ar
Ġà®®à®£ à®¨
à®ľà®© à®ķ
à®ľà®© à®ª
à®®à®£ à®°
ĠL ev
ĠD i
ur n
ĠF ax
ĠF rame
ĠB ro
ĠB en
ĠB us
Ġm ark
and er
am ond
Ġà®¨à®² à®ļ
ĠK h
Ġ8 6
Ġ8 9
ĠH artz
St atus
ist a
Ġà®ªà®°à®µ à®ļà®®
if ond
Ġ< <
ĠJ ay
ĠJ avaScript
Ġme aning
Con fig
ĠX XX
197 3
à®ĥ à®µ
Ġà®īà®²à®ķà®® à®¯à®®
Ġà®ĩà®® à®¯à®®à®²
Ġ197 4
li ed
ĠAl t
ĠÂ ±
CT OR
Ġà®ªà®²à®© à®³
Ġcont rol
CP M
Ġpref er
Ch inese
Clutter Path
UT C
CS V
ĠTr ust
Ġconfig ur
Int er
NTS C
ĠCent ral
ĠEconom ic
Man ager
Gar amond
! !
5 5
A rc
C lick
H INT
H uman
I s
J ean
K opete
M I
M on
M odel
S et
S aru
T r
T here
U SA
X T
X SL
X ft
b otswana
i h
m k
p eg
s k
t n
w ays
Ã ģ
Ġ query
Ġ utf
Ġ Ëļ
à¯į (_
à¯ģ `
à®¤ à®³à®°
à®ª à®µà®²
à®® à®¯à®ķ
à®µ à®´à®®
à®ļ à®¤à®°
Ġà®ķ à®¤à®±
Ġà®® à®ķà®®
Ġà®¨ à®Łà®©à®Ļ
Ġà®ī à®°à®®
à®µà®° à®£
à®ħ à®¤à®©à®¤
Ġà®ı à®³à®©à®®
à®³à®° à®µà®¤
à®¤à®® à®ķ
à®¯à®® à®©
Ġ" #
in fo
à®ļà®® à®¯
or a
or iz
la ted
à®®à®© à®®
Ġà®ļà®° à®¸
ro ss
Ġd u
Ġp ost
Ġp ress
Ġp riority
Ġp attern
Ġs ide
ĠC RL
ĠC ouncil
Ġà®ĵ à®¸
Ġc or
Ġc irc
ĠS ib
Ġpro cess
Ġb lock
ĠM AN
ĠT ool
ĠT LS
ri er
ĠP N
ĠA nn
Ġw e
ĠD el
ĠD UE
à¯į... "
Ġh alf
Ġm s
ĠO ptions
ĠO bs
ch an
ĠR Ã©
Ġx mi
à¯Ī" .
ĠK M
ĠK ey
ĠK onqueror
Ġl icense
Ġth rough
=" #
qu are
DE F
Ġ[ [
à®ħà®µ à®ļà®°à®ķ
à®¨à®° à®ķà®®
ĠX SL
à®ľà®¯ à®¨à®ķà®°
ric h
Ġsh own
rig ger
IS HA
all en
iv en
Ġcan cel
Ġ193 4
Ġab breviation
Ġcont ents
ell er
lat ors
Ġph rase
Ġ195 8
194 5
CF I
au ri
195 7
UT F
UE ISHA
erg y
mbox Imp
Ġpar ame
ĠRes ource
IR C
hell o
Ġà®ħà®°à®µ à®£
Ġchang e
Ġcr ash
Ġà®¤à®ķà®µ à®®
Ġmotherf ucker
Ġra j
nep al
aug ustin
ĠSO CKS
osp here
Ġpub lished
Ġval ues
ifond azione
ĠSib eria
" }
6 7
C drdao
G AM
H ER
I TS
J VP
K à®ħà®ŀ
L AN
L ast
P ress
P aul
S ize
S ubject
T V
T CP
T LS
U D
X ID
] ...
d ig
d iff
f riend
g round
g raf
i ent
i ous
j a
j us
k en
p oint
r ary
s v
s ri
y es
à¯į `
à®ķ à®¤à®²
à®© à®ķà®²
à®® à®°à®£à®®
à®³ à®ļà®µ
Ġà®ª à®¯à®ķ
à®ļ à®ªà®Ł
à®ļ à®µà®Ł
à®¨ à®ļ
Ġà®® à®°à®£à®Ļ
à®£ à®³à®µ
à®Ļ à®µ
à¯Ģ Â¨
Ġà®Ĩ à®²à®©
à®¸ à®¸
à®ķà®° à®°
Ġà®ľ à®²à®®
à®ī à®Łà®®
à®µà®® à®£
à®ļà®² à®ķ
la pse
Ġd ots
om o
ĠC SS
Ġà®Ĩà®¤à®°à®µ à®±
ĠS SP
ĠS elect
à®ı à®Ĵ
Ġne xt
el ine
19 15
19 38
un n
Ġà®ªà®¯ à®ªà®Ł
ĠP PD
ĠP UK
ĠP eter
ĠA uto
ad ha
ĠL DIF
ec ial
ĠD ir
ĠF ront
ĠF DIC
ĠB er
à¯ģ... ..
Ġm y
Ġm at
ĠG P
ĠG oogle
ĠO ct
ĠN ot
ĠN ation
ĠN umber
à®µà®ļ à®©à®¤
am s
à®ĵ à®İà®®
ĠU SS
ĠH ans
ew ith
Ġ10 8
Ġ10 9
St ring
à¯į'' ,
à®İà®¸ à®Ļà®µ
ĠW est
Ġ(% %
Ġr ate
our s
Ġ.. ....
Ġ13 5
à®ĥ à®ªà®ķ
Ġus eful
à®¾' .
ĠSt ates
ĠCD s
Ġop tions
ST RING
à¯ģ-- -
ĠImage picture
min ist
ell ing
Ġ195 7
ant a
rg b
Un ited
Rep lac
EX T
ual ly
PO SE
lace ment
ĠSte in
Res et
ĠDVD s
ĠGu ard
Ġback up
ĠxB F
ĠIP CC
rib ute
ĠFran c
ESendOptions With
ESendOptions After
Exp and
Ġmodif y
part s
Ġ96 60
Ġoc c
Ġ'/ '
Ġreceiv ed
fur ter
SEC AM
ĠPop ular
graf ted
Replac ewith
ESendOptionsWith in
A ss
A BC
B ook
B ride
D el
D em
F UEISHA
I MA
I tem
L ab
L ine
M urph
N NTP
P LA
Q RT
S al
T ARS
d a
e k
f th
g en
p ly
r us
r acy
t d
t ain
u lation
w indow
y l
Â ½
Ã Ĩ
Ġ vi
Ġà® Ķ
à®¾ ....
à®ª à®¯à®®
à®© à®®à®²à®°
à®® à®³
à®¯ à®µà®¤
Ġà®¨ à®Ļ
à¯į. âĢĿ
à¯ĩà®¾ )
Ġà®İà®© à®±
à®¤à®² à®³
à®ķà®µ à®©à®¤
Ġà®ı à®²à®¤
Ġà®ı à®ľà®©
à¯ģ, %
Ġà®ľ à®²
à®³à®¤ à®©
ti med
Ġà®° à®¸
in n
Ġà®Ĳ à®¤à®°
Ġà®¯ à®Ļ
al ia
Ġà®ªà®¯à®© à®³à®µ
à¯į: \
à®ļà®² à®¸
Ġà®ľà®© à®ķ
à®±à®® à®±
à®±à®® à®³
Ġd ire
Ġp lay
à®©à®® à®¯à®®
Ġà®¸ à®µ
Ġà®µà®² à®¯à®Ļ
Ġà®ĵ à®Łà®µ
à®ªà®² à®¤à®°à®ª
Ġc ap
ĠS er
ĠS ec
ĠS ele
à¯į) -
Ġpro p
Ġpro ble
à®°à®² à®ķà®®
à®ı à®Ĳ
à®ı à®ķà®©
19 19
19 40
ĠT et
ĠT ravail
à®ķà®ļ à®ª
Ġ4 000
et ter
ĠP en
ĠA pr
ĠA lex
ĠL ist
ĠL igue
ĠB ou
ĠB ook
ĠG r
ĠG nuPG
ĠN epomuk
ĠR ay
ĠR SS
ĠR FC
ĠR hythmbox
Ġx à®©
ĠK TT
ĠK ontact
Ġ8 7
Ġl ilo
ĠE X
oc lient
oc iation
ĠH ome
ap pen
Ġ9 50
ĠW ide
ĠW ritten
ent ry
Ġcom puter
pp d
se udo
eg al
Ġ25 2
Ġsh ows
ug in
lic ation
gr aph
Ġcon s
CE NT
à®ĩà®® à®¯à®®à®²
con f
ST DEV
Ġhe h
av ed
Cal Item
ĠÂ ¦
ans a
Ġfil ename
%% %
CK D
ĠCon tin
In dex
ĠComm ission
MD N
ĠSte ph
AL SE
à®Ĭà®Łà®ķ à®ķ
Ġlike ly
FL INT
Print Preview
Ġlocal host
ASE AN
ĠMc Bride
File Replace
VAR A
ĠVer di
ĠTrans net
Ġdown load
ĠMor el
Reg Exp
eat her
loc ale
quir ed
Def ault
ROUN D
EEK DAY
Sk ype
aust ria
yth on
QIBase Result
event page
Ġmat urity
fth ansa
PrintPreview Dialog
D e
D ue
E sc
I E
L SSP
N or
P ierre
S n
S earch
Y eah
e ting
i ac
m at
m ing
n ation
u a
z a
Î ¹
à¯į à¯ģ
à®¤ à®ķà®³
à®Ł à®ķà®µ
à®ª à®³à®°
à®² à®·
Ġà®ª à®µà®©
à®ļ à®Łà®Ļ
Ġà®® à®Łà®¤
Ġà®ĩ à®¯à®µ
à®ĩ à®°à®ļ
à®ĩ à®ŀ
à®ĩ à®´à®ª
à®ħ à®®à®²
à®ħ à®ķà®ļ
à®ķà®ª à®²à®®
à®°à®ļ à®µ
Ġà®ı à®¯à®°
à¯ģ, )
à®¯à®® à®©à®Ļ
à®Łà®° à®¸
à®Ĩ à®Łà®®
à®Ĩ à®Łà®²
Ġ" .
Ġn or
à®³à®µ à®±
Ġà®ħà®² à®ª
à¯Ī. ''
in ce
Ġà®ħà®± à®®
à®²à®® à®±
it te
à®ļà®² à®°
Ġà®īà®± à®Ļ
Ġà®ħà®µ à®²
Ġd at
Ġd el
ar adha
Ġp aper
Ġp ower
Ġà®ĩà®Ł à®ħà®®
ĠC lass
Ġà®ĵ à®¤
Ġà®ĵ à®µà®°
is ual
Ġtrans fer
ab ia
Ġ19 59
Ġ19 23
ou rier
19 35
19 06
st d
st r
st ock
ĠM ann
ĠM orn
ĠT M
ĠT ype
ĠD TE
ĠF is
ĠF AC
ĠO S
Ġ7 9
ĠN DA
ĠR ec
Ġà®ªà®´ à®©
ĠK e
ĠK Pilot
ĠU K
ĠH e
Ġà®ĩà®³ à®µà®°à®ļ
Ġà®Ĭà®Ł à®±
Ġ12 3
Ġre g
unit s
ang le
Ġla st
ont aine
Ġ... "
à¯ģ! "
und ay
Ġme eting
up right
Ġ> :
à®ĥ à®Ł
end er
Ġv s
os a
ix els
ĠZ h
ign er
TT PS
Ġcan ton
Ġ193 5
CP E
BC C
Ġset ting
jay a
ĠCon n
cent er
UN H
Ġper iod
Ġi river
tit ude
ĠEx press
ĠRes earch
ĠOn line
Ġdiff er
ĠLib eration
Ġred iff
Ġà®ĩà®³à®µà®° à®ļà®©
Organ izer
ĠCor p
YL IST
Ġsing le
ĠApplic able
lux emb
GEA C
Ġsche me
ĠWi Fi
zez inski
Ġesc ape
sol ute
ĠJay aradha
) ;
7 9
8 3
; .
? ?
A uto
B y
C PI
C LA
G S
H CP
J ack
M ac
M usic
M icrosoft
N BC
N epomuk
O ther
Q O
Q t
Q Web
Q Dialog
Q PrintPreviewDialog
S IN
S ign
S ighs
W hat
[ %
a ustralia
b an
f ix
f eb
l n
l ink
l ite
m und
n ey
p e
p ixbuf
r w
v as
v alue
y ahoo
Ã Ĵ
Ġ à¯į
Ġ own
Ġ output
Ġà® ¾
à®Ł à®Łà®ķ
à®° à®³à®µ
à®° à®©à®®
à®° à®ķà®²à®Ł
Ġà®ħ à®ľà®¯
Ġà®µ à®©à®µ
à®£ à®¨à®²à®©
à®ĩ à®¯à®©
à®ħ à®±à®ķ
à®ªà®¤ à®Ł
à®Łà®© à®µ
à®ķà®® à®®
Ġà®ħà®® à®°à®ļ
à®°à®® à®¯à®®
Ġà®ı à®²à®®
à®Ĩ à®³à®ª
an y
Ġ" (
à®ķà®² à®ļ
à®¯à®µ à®´
ame s
à®³à®µ à®Ł
Ġà®ķà®£ à®¤
à®ªà®° à®©
à®ļà®® à®¨
à®ļà®° à®Ļ
Ġk ind
à®µà®ķ à®ļ
en e
en y
Ġà®®à®© à®®à®ķ
Ġp ng
Ġs te
Ġs ervice
at t
re quest
ĠC ond
ĠC CP
Ġà®ĵ à®¨
ĠS Ã¼ddeutsche
ĠS UD
Ġin cl
il ly
Ġ3 20
Ġdo c
ol land
Ġà®Ĩà®° à®ŀ
st able
Ġf ur
