{"<CLS>":0,"<pad>":1,"<SEP>":2,"<UNK>":3,"<MASK>":4,"!":5,"\"":6,"#":7,"$":8,"%":9,"&":10,"'":11,"(":12,")":13,"*":14,"+":15,",":16,"-":17,".":18,"/":19,"0":20,"1":21,"2":22,"3":23,"4":24,"5":25,"6":26,"7":27,"8":28,"9":29,":":30,";":31,"<":32,"=":33,">":34,"?":35,"@":36,"A":37,"B":38,"C":39,"D":40,"E":41,"F":42,"G":43,"H":44,"I":45,"J":46,"K":47,"L":48,"M":49,"N":50,"O":51,"P":52,"Q":53,"R":54,"S":55,"T":56,"U":57,"V":58,"W":59,"X":60,"Y":61,"Z":62,"[":63,"\\":64,"]":65,"^":66,"_":67,"`":68,"a":69,"b":70,"c":71,"d":72,"e":73,"f":74,"g":75,"h":76,"i":77,"j":78,"k":79,"l":80,"m":81,"n":82,"o":83,"p":84,"q":85,"r":86,"s":87,"t":88,"u":89,"v":90,"w":91,"x":92,"y":93,"z":94,"{":95,"|":96,"}":97,"~":98,"¡":99,"¢":100,"£":101,"¤":102,"¥":103,"¦":104,"§":105,"¨":106,"©":107,"ª":108,"«":109,"¬":110,"®":111,"¯":112,"°":113,"±":114,"²":115,"³":116,"´":117,"µ":118,"¶":119,"·":120,"¸":121,"¹":122,"º":123,"»":124,"¼":125,"½":126,"¾":127,"¿":128,"À":129,"Á":130,"Â":131,"Ã":132,"Ä":133,"Å":134,"Æ":135,"Ç":136,"È":137,"É":138,"Ê":139,"Ë":140,"Ì":141,"Í":142,"Î":143,"Ï":144,"Ð":145,"Ñ":146,"Ò":147,"Ó":148,"Ô":149,"Õ":150,"Ö":151,"×":152,"Ø":153,"Ù":154,"Ú":155,"Û":156,"Ü":157,"Ý":158,"Þ":159,"ß":160,"à":161,"á":162,"â":163,"ã":164,"ä":165,"å":166,"æ":167,"ç":168,"è":169,"é":170,"ê":171,"ë":172,"ì":173,"í":174,"î":175,"ï":176,"ð":177,"ñ":178,"ò":179,"ó":180,"ô":181,"õ":182,"ö":183,"÷":184,"ø":185,"ù":186,"ú":187,"û":188,"ü":189,"ý":190,"þ":191,"ÿ":192,"Ā":193,"ā":194,"Ă":195,"ă":196,"Ą":197,"ą":198,"Ć":199,"ć":200,"Ĉ":201,"ĉ":202,"Ċ":203,"ċ":204,"Č":205,"č":206,"Ď":207,"ď":208,"Đ":209,"đ":210,"Ē":211,"ē":212,"Ĕ":213,"ĕ":214,"Ė":215,"ė":216,"Ę":217,"ę":218,"Ě":219,"ě":220,"Ĝ":221,"ĝ":222,"Ğ":223,"ğ":224,"Ġ":225,"ġ":226,"Ģ":227,"ģ":228,"Ĥ":229,"ĥ":230,"Ħ":231,"ħ":232,"Ĩ":233,"ĩ":234,"Ī":235,"ī":236,"Ĭ":237,"ĭ":238,"Į":239,"į":240,"İ":241,"ı":242,"Ĳ":243,"ĳ":244,"Ĵ":245,"ĵ":246,"Ķ":247,"ķ":248,"ĸ":249,"Ĺ":250,"ĺ":251,"Ļ":252,"ļ":253,"Ľ":254,"ľ":255,"Ŀ":256,"ŀ":257,"Ł":258,"ł":259,"Ń":260,"à®":261,"à¯":262,"à¯į":263,"Ġà®":264,"à¯ģ":265,"à®ķ":266,"à®¿":267,"à®¤":268,"à®¾":269,"à®Ł":270,"à®°":271,"à®ª":272,"à®©":273,"à®®":274,"à®²":275,"à¯Ī":276,"à®¯":277,"à®±":278,"à®³":279,"à®µ":280,"à¯ĩ":281,"à¯Ĩ":282,"Ġà®ª":283,"à®ķà®³":284,"à®ļ":285,"Ġà®ķ":286,"à®¨":287,"Ġà®®":288,"Ġà®ħ":289,"Ġà®µ":290,"à®£":291,"Ġà®¤":292,"Ġà®ļ":293,"Ġà®ĩ":294,"Ġà®¨":295,"à®Ļ":296,"Ġà®İ":297,"à®ªà®Ł":298,"à®´":299,"à¯Ģ":300,"à¯į.":301,"Ġà®ī":302,"à¯ĭ":303,"à¯Ĥ":304,"à¯Ĩà®¾":305,"à¯ĩà®¾":306,"à®µà®°":307,"à¯Ĭ":308,"Ġà®İà®©":309,"Ġà®Ĩ":310,"à¯į,":311,"à¯ģ.":312,"Ġà®Ĵ":313,"à®¸":314,"Ġà®ĩà®°":315,"à®ĩ":316,"à®Łà®¤":317,"à®ħ":318,"à®ªà®¤":319,"à®µà®¤":320,"à®¤à®²":321,"à®ķà®ª":322,"à®±à®¤":323,"Ġà®ħà®¤":324,"à®Łà®©":325,"Ġà®®à®±":326,"Ġà®Ĵà®°":327,"à®ķà®®":328,"à®¤à®¤":329,"Ġà®ķà®Ł":330,"à®¯à®²":331,"à®ķà®µ":332,"Ġà®ħà®®":333,"à®ķà®¤":334,"à®©à®°":335,"à®°à®ļ":336,"Ġ(":337,"à®ķà®°":338,"Ġà®µà®°":339,"à®Łà®®":340,"à®°à®®":341,"à®ľ":342,"Ġà®īà®³":343,"à®¯à®¤":344,"Ġà®ı":345,"on":346,"Ġà®ħà®µà®°":347,"à¯ģ,":348,"à®³à®°":349,"à®¯à®°":350,"à®¤à®®":351,"à®·":352,"Ġ1":353,"Ġà®ľ":354,"à®³à®¤":355,"à®¯à®©":356,"à®µà®©":357,"à®¤à®°":358,"Ġà®ħà®Ł":359,"me":360,"Ġà®¨à®Ł":361,"Ġà®ªà®Ł":362,"ti":363,"Ġà®ĩà®²":364,"à®¤à®©":365,"à®İ":366,"Ġà®ħà®°à®ļ":367,"à®¯à®®":368,"à®°à®¤":369,"Ġà®İà®¤":370,"à®²à®¤":371,"Ġà®ĩà®¨":372,"à®Łà®°":373,"à®©à®¤":374,"Ġà®īà®°":375,"à®Ĩ":376,"à®¤à®µ":377,"à®¤à®ª":378,"an":379,"tion":380,"Ġà®°":381,"..":382,"00":383,"à®¯à®ķ":384,"à®ī":385,"Ġ\"":386,"Ġn":387,"Ġà®ħà®©":388,"à®ķà®Ł":389,"à®ķà®²":390,"à®¯à®µ":391,"Ġà®ķà®°":392,"ame":393,"à®³à®µ":394,"Ġà®ļà®®":395,"Ġt":396,"er":397,"Ġà®ħà®²":398,"à¯Ī.":399,"in":400,"Ġà®Ĳ":401,"Ġà®ĩà®¤":402,"Ġà®ķà®£":403,"Ġà®ıà®±":404,"Ġà®¯":405,"Ġ2":406,"Ġà®Ĩà®ķ":407,"Ġà®ħà®±":408,"à®ĩà®¨":409,"à®°à®£":410,"à®ŀ":411,"à®²à®®":412,"à®ªà®°":413,"Ġà®¤à®²":414,"Ġà®Ł":415,"Ġà®¤à®©":416,"à¯į;":417,"al":418,"Ġà®ªà®ķ":419,"à®Łà®Ļ":420,"à®®à®¤":421,"es":422,"à®µà®Ł":423,"Ġà®İà®´":424,"à®Łà®ª":425,"Ġà®®à®ķ":426,"Ġà®ªà®²":427,"à®Ĵ":428,"Ġà®ªà®¯à®©":429,"it":430,"à®ļà®®":431,"or":432,"Ġà®µà®´":433,"Ġ'":434,"à®¿,":435,"Ġà®µà®Ł":436,"Ġà®ªà®¤":437,"à®¯à®ª":438,"à¯į:":439,"à®µà®®":440,"Ġà®ªà®±":441,"à®ļà®²":442,"Ġà®īà®±":443,"à®²à®ķ":444,"à®¤à®ķ":445,"la":446,"à®ļà®°":447,"à®µà®¤à®±":448,"Ġà®ĩà®©":449,"à®®à®©":450,"Ġà®ħà®´":451,"Ġà®Ĩà®£":452,"Ġà®ļà®°":453,"Ġ-":454,"à®¯à®±":455,"Ġk":456,"à®®à®²":457,"Ġà®Ĵà®©":458,"Ġà®ľà®©":459,"à®±à®ª":460,"à®Łà®ķ":461,"Ġà®ªà®£":462,"à®ĩà®¤":463,"Ġà®µà®ķ":464,"à®ķà®ķ":465,"Ġà®İà®Ł":466,"à®µà®ķ":467,"Ġa":468,"à®±à®©":469,"Ġà®īà®£":470,"Ġà®ħà®µ":471,"Ġà®Ī":472,"ed":473,"à®Łà®²":474,"gm":475,"Name":476,"à®¯à®Ļ":477,"Ġkgm":478,"Ġà®ħà®³à®µ":479,"Ġà®®à®¤":480,"Ġà®µà®¨":481,"ro":482,"à®°à®µ":483,"en":484,"Ġà®²":485,"à®±à®ķ":486,"à®±à®®":487,"à¯ģ:":488,"Ġà®Ĭ":489,"Ġd":490,"à®³à®®":491,"Ġ%":492,"Ġà®ħà®¨":493,"Ġà®¨à®ķà®°":494,"à®¿.":495,"à®¤à®°à®µ":496,"à®°à®ª":497,"Ġà®®à®©":498,"à®ħà®¤":499,"ar":500,"op":501,"Ġp":502,"Ġà®ĩà®¯à®ķ":503,"à®ªà®ķ":504,"à®©à®®":505,"Ġà®ĩà®£":506,"Ġà®¸":507,"Ġà®ĩà®Ł":508,"Ġs":509,"Ġà®ķà®²":510,"Ġà®®à®Ł":511,"Ġà®īà®Ļ":512,"Ġà®İà®£":513,"Ġà®¤à®®":514,"à¯Ī,":515,"à®ļà®¤":516,"à®Łà®µ":517,"à®ķà®Ļ":518,"à®Ĵà®°":519,"Ġà®µà®²":520,"ot":521,"ran":522,"Ġà®ħà®ª":523,"he":524,"à®°à®Ļ":525,"Ġname":526,"à®ķà®´":527,"à®ķà®£":528,"Ġà®¹":529,"à®µà®±":530,"à¯į\"":531,"Ġà®ħà®µà®©":532,"à®¹":533,"Ġ(_":534,"à®ªà®®":535,"Ġà®ªà®°":536,"à®©à®µ":537,"à®ħà®µà®°":538,"om":539,"at":540,"à®µà®²":541,"le":542,"Ġà®İà®²":543,"Ġà®¤à®Ļ":544,"re":545,"à®¤à®Ļ":546,"ĠC":547,"Ġà®¤à®Ł":548,"Ġà®ĵ":549,"tional":550,"Ġà®ĩà®°à®£":551,"Ġà®ļà®¨":552,"à®ħà®Ł":553,"à®²à®µ":554,"Ġà®īà®Ł":555,"Ġà®ħà®¤à®©":556,"is":557,"Ġà®¨à®Łà®µà®Ł":558,"à®ªà®£":559,"Ġà®Ĩà®¤à®°à®µ":560,"ity":561,"Ġà®ħà®ļ":562,"à®ªà®²":563,"à®ħà®®":564,"Ġà®Īà®°":565,"à®ªà®¤à®±":566,"rans":567,"à®İà®©":568,"à®³à®©":569,"optional":570,"à®ķà®µà®²":571,"Ġtrans":572,"Ġtransla":573,"ic":574,"ab":575,"nt":576,"Ġà®ħà®£":577,"Ġc":578,"Ġà®Ĵà®ª":579,"Ġ19":580,"à®°à®°":581,"à®°à®Ł":582,"ly":583,"Ġà®Ĩà®Ł":584,"à®ļà®©":585,"Ġà®¨à®Łà®¤":586,"à®£à®®":587,"Ġà®ĩà®ª":588,"ĠS":589,"City":590,"à¯į)":591,"Ġà®ļà®Ł":592,"ou":593,"à®Ĳ":594,"à®±à®µ":595,"...":596,"à®´à®ķ":597,"Ġà®Ĩà®¯":598,"à¯ģ;":599,"Ġpro":600,"Ġin":601,"Ġà®¨à®®":602,"à®°à®²":603,"il":604,"à®¾?":605,"Ġà®īà®Łà®©":606,"Ġ3":607,"Ġà®İà®¨":608,"Ġà®īà®©":609,"Ġà®¤à®ķà®µà®²":610,"à¯į'":611,"ac":612,"à®ı":613,"à®°à®ķ":614,"Ġne":615,"à®±à®©à®°":616,"Ġnot":617,"à®²à®©":618,"Ġdo":619,"à®±à®¨":620,"Ġà®ªà®Ļ":621,"à®ªà®©":622,"Ġ200":623,"à®¤à®©à®°":624,"Ġà®īà®¯à®°":625,"Ġtranslation":626,"à®³à®ª":627,"Ġà®ļà®ķ":628,"ol":629,"Ġà®ľà®©à®¨":630,"Ġà®¤à®¯":631,"Ġà®ªà®Łà®¤":632,"Ġà®ħà®ķ":633,"Ġneed":634,"Ġà®īà®¤à®µ":635,"Ġà®ĩà®¸":636,"Ġà®Ĩà®©":637,"(_":638,"à¯Ī:":639,"bab":640,"à®²à®°":641,"à®Ĩà®©":642,"Ġà®ĩà®Łà®®":643,"à®¤à®µà®°":644,"Ġà®Ĩà®°":645,"à®±à®Ļ":646,"el":647,"à®ªà®µà®°":648,"Ġdoes":649,"à®ķà®©":650,"Ġprobab":651,"à®°à®£à®®":652,"Ġprobably":653,"19":654,"à®ªà®¨":655,"Ġà®Ĳà®°":656,"Ġà®ĩà®Łà®¤":657,"Ġà®ħà®°":658,"st":659,"Ġthe":660,"à®®à®±":661,"à®¤à®±":662,"Ġb":663,"à®²à®Ļ":664,"à®°à®©":665,"ment":666,"Ġà®İà®©à®ķ":667,"Ġà®Ĩà®ļ":668,"à¯ĩ,":669,"à®µà®£":670,"Ġà®¤à®±":671,"à®ļà®Ļ":672,"à®ªà®±":673,"un":674,"Ġà®ħà®Ļ":675,"Ġf":676,"ĥà®ª":677,"à¯į?":678,"à®³à®©à®°":679,"Ġà®µà®´à®Ļ":680,"Ġà®¤à®°":681,"à®ªà®Łà®µ":682,"à®²à®ª":683,"Ġà®¤à®©à®¤":684,"ĠM":685,"Ġà®īà®²à®ķ":686,"Ġà®İà®Ļ":687,"à®ħà®©":688,"à®ħà®ª":689,"ĠT":690,"à®¤à®¨":691,"Ġà®ĩà®¯à®²":692,"ri":693,"Ġà®µà®£":694,"à®©à®£":695,"à®®à®ķ":696,"à®ķà®ļ":697,"Ġ4":698,"et":699,"à®µà®¨":700,"à®ĩà®°":701,"Ġà®ªà®¯":702,"à®¾,":703,"ĠP":704,"à®ªà®µ":705,"à®īà®°":706,"Ġà®¨à®Łà®¨":707,"Ġà®İà®ª":708,"à¯į-":709,"ĠA":710,"Ġà®ĩà®´":711,"à®ķà®³à®¤":712,"Ġà®ļà®¤à®µ":713,"à®³à®ķ":714,"Ġw":715,"Ġ5":716,"à®ªà®Ļ":717,"à®Łà®©à®°":718,"Ġà®µà®³à®°":719,"à®®à®°":720,"000":721,"à®¿:":722,"Ġà®Ĵà®¤":723,"Ġà®īà®²":724,"à¯ĩ.":725,"Ġà®®à®£":726,"à®ĩà®ª":727,"à®¾.":728,"à®ĥà®ª":729,"à®¤à®Ł":730,"à®ľà®©":731,"Ġà®¤à®³":732,"Ġà®ĩà®Ļ":733,"à®®à®£":734,"omment":735,"Ġà®Ĩà®²":736,"ad":737,"Ġà®īà®¯":738,"ag":739,"ĠL":740,"Ġà®īà®¤":741,"à¯ģ\"":742,"''":743,"ec":744,"ĠD":745,"Ġà®ıà®©":746,"th":747,"ia":748,"Ġà®ªà®Łà®®":749,"Ġ''":750,"Comment":751,"of":752,"ing":753,"Ġà®ĩà®µà®°":754,"us":755,"Ġà®ķà®Łà®¨":756,"Ġà®·":757,"as":758,"à®ķà®µà®°":759,"à®´à®®":760,"à¯į...":761,"à®Łà®³":762,"mb":763,"à®£à®¤":764,"Ġà®ķà®¤":765,"ur":766,"Ġà®Ĩà®±":767,"action":768,"Ġà®ħà®³":769,"ĠI":770,"à®£à®ª":771,"Ġà®ĩà®±":772,"Ġh":773,"Ġà®Ĩà®¤":774,"à®īà®³":775,"ĠF":776,"Ġà®Ĩà®ª":777,"à®¯à®Ł":778,"ut":779,"ĠB":780,"Ġà®ĩà®µ":781,"à®Łà®µà®°":782,"Ġà®İà®°":783,"Ġà®Ĩà®°à®®":784,"Ġà®Ĵà®Ł":785,"Ġà®¤à®µ":786,"à®·à®©":787,"200":788,"Ġà®ħà®¤à®±":789,"à®ħà®¨":790,"à¯ģ...":791,"à®±à®µà®°":792,"Ġà®ļà®¤":793,"Ġ6":794,"Ġ.":795,"à®ªà®Łà®¤":796,"Ġà®ķà®£à®ķ":797,"à®³à®Ļ":798,"Ġm":799,"à®ªà®ª":800,"Ġà®ĩà®²à®ķ":801,"Ġto":802,"Ġof":803,"Ġà®ĩà®²à®Ļ":804,"à®İà®²":805,"à®´à®°":806,"à®ķà®±":807,"ĠG":808,"à®ĩà®©":809,"Ġà®®à®°":810,"and":811,"Ġà®Ĩà®®":812,"à¯į!":813,"à®Ī":814,"Ġà®¤à®µà®±":815,"à®´à®²":816,"Ġà®ĩà®ļ":817,"à®®à®Ł":818,"Ġà®Ĩà®³":819,"Ġà®Īà®Ł":820,"Ġà®Ĵà®´":821,"à®¨à®Ł":822,"à®¤à®ªà®Ł":823,"ĠO":824,"Ġà®ķà®®":825,"à®´à®¨":826,"Ġà®ıà®¤":827,"à®īà®Ļ":828,"Ġ7":829,"à®ŀà®°":830,"Ġà®īà®£à®°":831,"à®ĩà®²":832,"ĠN":833,"à®¯à®µà®±":834,"à®Ĩà®°":835,"ch":836,"ĠR":837,"à®µà®Ļ":838,"à®µà®´":839,"à¯ģ)":840,"à®ħà®°à®ļ":841,"à®µà®ļ":842,"à®µà®ª":843,"Ġx":844,"à®ªà®¯à®©":845,"Ġà®µà®´à®ķ":846,"Ġà®¨à®²à®©":847,"Ġà®¨à®©":848,"à®ķà®£à®ķ":849,"à®ĩà®£":850,"à®Łà®£":851,"à®İà®´":852,"Ġà®¤à®°à®µ":853,"Ġà®µà®°à®²":854,"à®ļà®Ł":855,"am":856,"Ġà®ªà®´":857,"Ġà®µà®²à®¤":858,"Ġà®®à®¨":859,"à®±à®²":860,"Ġà®Ĵà®µ":861,"à®ķà®°à®®":862,"Ġà®ļà®Ļ":863,"à¯į.\"":864,"Ġà®ªà®Łà®Ļ":865,"yp":866,"à®ķà®©à®µ":867,"à®©à®µà®°":868,"à®ªà®¯":869,"Ġà®İà®ļ":870,"à®¯à®µà®°":871,"à®ĵ":872,"Ġà®Ĵà®²":873,"à®µà®©à®Ļ":874,"\\\\":875,"Ġà®¨à®²":876,"Ġà®µà®Ļ":877,"à¯Ī\"":878,"--":879,"Ġ0":880,"de":881,"ĠK":882,"Ġà®¨à®ķà®²":883,"Ġà®ªà®¤à®µ":884,"Ġà®ħà®µà®°à®¤":885,"Ġ8":886,"à®ļà®ª":887,"Ġà®Ĳà®ķ":888,"à®ªà®Łà®®":889,"à®©à®Ļ":890,"ĠU":891,"à®³à®Łà®ķ":892,"à®ĩà®¤à®©":893,"à®ķà®°à®µ":894,"à®µà®©à®®":895,"te":896,"à®¾/":897,"AN":898,"Ġà®ķà®©":899,"Ġl":900,"Ġà®®à®²":901,"à®¤à®©à®®":902,"Ġ&":903,"Ġà®¤à®£":904,"ĠE":905,"à®©à®ŀ":906,"Ġà®ķà®³":907,"oc":908,"à®ļà®ķ":909,"ĠH":910,"Ġà®µà®°à®µ":911,"à®©à®ª":912,"à®¤à®´":913,"ow":914,"age":915,"Ġe":916,"Ġà®ĩà®±à®ķ":917,"à®¯à®ķà®ķ":918,"à®ķà®Łà®¨":919,"Ġà®ĵà®Ł":920,"ap":921,"Ġ'%":922,"à®¯à®°à®ļ":923,"à®ħà®ļ":924,"à®°à®¸":925,"ew":926,"ers":927,"à®°à®¤à®®":928,"à®µà®³":929,"Ġà®ķà®±":930,"Ġà®ıà®´":931,"Ġà®Ĳà®¨":932,"Ġà®ķà®²à®¨":933,"Ġ10":934,"Ġà®ĩà®³":935,"ce":936,"Ġà®ĩà®¤à®©":937,"à®ħà®£":938,"Ġà®ĵà®°":939,"ig":940,"à®Ĩà®®":941,"Ġà®īà®®":942,"Ġà®¤à®¨":943,"Ġà®¨à®Łà®ķ":944,"Ġà®ħà®µà®±":945,"à®Īà®°":946,"ld":947,"âĢ":948,"à®ħà®²":949,"Ġà®µà®³":950,"Ġà®ªà®°à®¨":951,"à®İà®¤":952,"Ġà®ªà®¯à®Ļ":953,"St":954,"Ġà®ļà®ª":955,"ist":956,"Ġ/":957,"Ġà®Ĩà®µ":958,"ay":959,"à¯į''":960,"Ġà®Ĭà®Ł":961,"à®İà®¸":962,"Ġ20":963,"Ġ9":964,"à®£à®°":965,"à®ļà®¨":966,"em":967,"à®¨à®ķà®°":968,"à®¿'":969,"à®ĩà®µà®°":970,"à®¤à®°à®®":971,"ĠW":972,"Ġà®İà®µ":973,"Ġà®Ĩà®¤à®°":974,"Ġst":975,"à®³à®°à®¤":976,"ht":977,"ent":978,"à®Ĩà®ķ":979,"ess":980,"Ġà®µà®Łà®ķ":981,"AT":982,"Ġ199":983,"à®ĩà®µ":984,"ail":985,"Ġà®Ĩà®µà®£":986,"olor":987,"Ġà®ªà®ļ":988,"Ġà®īà®±à®µ":989,"ation":990,"Ġà®Ĩà®¸":991,"umb":992,"Ġà®İà®ķ":993,"Ġà®¤à®ķ":994,"Ġ12":995,"fo":996,":%":997,"à®ĩà®°à®£":998,"à®Łà®µà®£":999,"à®²à®¸":1000,"à®´à®±":1001,"ate":1002,"Ġy":1003,"Ġà®ħà®µà®³":1004,"\"%":1005,"à®¤à®³":1006,"à¯ģ?":1007,"à¯ĭ,":1008,"SL":1009,"Ġà®ķà®Łà®©":1010,"Ġà®µà®¯à®¤":1011,"à®µà®©à®¤":1012,"Ġth":1013,"Ġà®ķà®´":1014,"Ġà®ļà®®à®¤":1015,"enc":1016,"Ġà®µà®©":1017,"Ġà®ıà®ķ":1018,"ss":1019,"à®ħà®±":1020,"à®ªà®ļ":1021,"Ġà®¤à®®à®¤":1022,"Ġà®ĩà®Łà®Ļ":1023,"Ġre":1024,"=\"":1025,"ype":1026,"à¯Ī;":1027,"qu":1028,"Ġà®°à®·":1029,"Ġinfo":1030,"à®µà®°à®Ļ":1031,"50":1032,"ort":1033,"à®©à®²":1034,"à®·à®°":1035,"Ġ~":1036,"Ġà®Ĭà®´":1037,"à®ªà®°à®ª":1038,"im":1039,"OR":1040,"à®£à®Ļ":1041,"Ġà®ľà®©à®Ļ":1042,"unit":1043,"à®ķà®²à®®":1044,"ang":1045,"ion":1046,"vi":1047,"Ġ(%":1048,"à®¯à®ķà®¤":1049,"à®Ĳà®°":1050,"Ġcom":1051,"à®īà®£":1052,"Ġg":1053,"à®£à®µà®°":1054,"à®¯à®¨":1055,"Ġà®ĩà®¤à®±":1056,"à®¤à®©à®¤":1057,"iz":1058,"Ġ\"%":1059,"DE":1060,"Ġ[":1061,"Ġà®µà®±":1062,"Ġà®Ĵà®³":1063,"ul":1064,"Ġà®Ĭà®¤":1065,"à®±à®ļ":1066,"à®ĩà®²à®Ļ":1067,"ex":1068,"oo":1069,"à®ħà®³à®µ":1070,"à®ĩà®¤à®±":1071,"ver":1072,"à¯į/":1073,"),":1074,"Ġà®ıà®°":1075,"Ġà®ªà®°à®µ":1076,"ect":1077,"Ġbe":1078,"à®°à®´":1079,"à®İà®ª":1080,"Ġà®ķà®µà®²":1081,"Ġla":1082,"tin":1083,"ont":1084,"à®İà®®":1085,"ind":1086,"à®´à®ª":1087,"Ġà®ħà®ŀ":1088,"Ġà®ķà®Łà®µ":1089,"Ġà®ªà®¯à®©à®°":1090,"Ġà®µà®ļ":1091,"Ġà®ĩà®¯à®²à®µ":1092,"color":1093,"Ġà®ĩà®¯à®Ļ":1094,"Ġà®īà®´":1095,"Ġà®Ĩà®ªà®¤":1096,"à®©à®Ł":1097,"à®ıà®±":1098,"Ġit":1099,"tp":1100,"id":1101,"à®¤à®ļ":1102,"à®ħà®¤à®©":1103,"Ġà®¤à®³à®¤":1104,"):":1105,"ke":1106,"ub":1107,"ils":1108,"Ġà®ħà®Łà®ķ":1109,"ve":1110,"ra":1111,"Ġ15":1112,"Ġà®Ĭà®Łà®ķ":1113,"pp":1114,"Ġà®īà®Łà®©à®Ł":1115,"Ġà®ħà®ķà®±":1116,"Ġ--":1117,"Ġà®ķà®Łà®²":1118,"¿½":1119,"ï¿½":1120,"Ġï¿½":1121,"Ġà®īà®©à®ķ":1122,"encils":1123,"se":1124,"og":1125,"ĠTR":1126,"à®¤à®ķà®®":1127,"à®ĩà®Ļ":1128,"à®ħà®¤à®±":1129,"if":1130,"Ġ<":1131,"à®µà®°à®¤":1132,"à®ħà®µ":1133,"à®ļà®¯à®®":1134,"à®¸à®°":1135,"Ġ...":1136,"ter":1137,"199":1138,"à®Ĩà®ļ":1139,"à®¤à®¯à®µ":1140,"Ġà®ªà®©":1141,"à®µà®¤à®©":1142,"à®¯à®³":1143,"Ġà®ķà®ª":1144,"à®¿)":1145,"Ġï¿½\\":1146,"Ġà®ķà®Łà®±":1147,"à®ħà®µà®©":1148,"Ġ11":1149,"Ġà®¤à®ª":1150,"à®£à®µ":1151,"à®īà®²à®ķ":1152,"à®¨à®Łà®ª":1153,"à®¨à®°":1154,"thumb":1155,"à¯ģ!":1156,"wor":1157,"Ġà®ľà®ª":1158,"à®®à®®":1159,"bel":1160,"Ġà®ĵà®¯":1161,"Ġà®ļà®²":1162,"ATOR":1163,"Ġà®ĩà®¯à®±":1164,"à®ĩà®Ł":1165,"Ġà®ķà®µ":1166,"à®Łà®©à®®":1167,"ANSL":1168,"ĠOF":1169,"Ġis":1170,"ĠTRANSL":1171,"ATORS":1172,"ĠTRANSLATORS":1173,"ize":1174,"ener":1175,"und":1176,"Ġfor":1177,"à®¯à®ķà®®":1178,"Ġà®īà®ļ":1179,"à®µà®°à®®":1180,"Ġà®ĩà®µà®±":1181,"Ġ,":1182,"à®¤à®ķà®¤":1183,"Ġà®Ĭà®ķ":1184,"art":1185,"Ġà®ªà®³":1186,"à®Ĩà®¯":1187,"Ġr":1188,"à®¯à®ļ":1189,"Ġà®ĩà®°à®¤":1190,"ML":1191,"à®ªà®²à®ķ":1192,"à®²à®¨":1193,"Ġor":1194,"à®°à®¤à®®à®°":1195,"ĠJ":1196,"à®¿-":1197,"Ġà®¤à®¤":1198,"10":1199,"Ġà®ħà®Łà®Ļ":1200,"MA":1201,"Ġme":1202,"for":1203,"Ġà®¨à®Łà®ª":1204,"ard":1205,"à®Ĵà®²":1206,"Ġà®ļà®µ":1207,"à®ªà®Łà®Ļ":1208,"à®©à®ķ":1209,"ME":1210,"Ġand":1211,"à®ĩà®¸":1212,"Ġà®ªà®²à®°":1213,"à¯Ī)":1214,"Con":1215,"à®ħà®ķ":1216,"Ġà®¤à®³à®®":1217,"à¯ĩà®¾,":1218,"Ġà®İà®©à®µ":1219,"20":1220,"Ġ18":1221,"Ġà®Ĭà®°":1222,"à®¤à®³à®®":1223,"Ġà®µà®ļà®¤":1224,"à®µà®³à®µ":1225,"lation":1226,"ir":1227,"Ġ30":1228,"ĠY":1229,"Ġà®ħà®®à®°":1230,"à®Łà®±":1231,"Ġà®ħà®ķà®²à®®":1232,"ain":1233,"Ġlabel":1234,"Stencils":1235,"à¯ģ-":1236,"à®Ĩà®ª":1237,"Ġà®ļà®ķà®²":1238,"Ġà®īà®£à®µ":1239,"à¯į%":1240,"Ġà®ħà®µà®ļ":1241,"Ġà®İà®®":1242,"ile":1243,"à¯Į":1244,"à¯į(":1245,"Ġà®ŀ":1246,"à®ľà®ªà®ķ":1247,"ck":1248,"60":1249,"à®ķà®ªà®Ł":1250,"stel":1251,"à®®à®³à®µ":1252,"à¯ģ.\"":1253,"ep":1254,"stellation":1255,"à¯ģ%":1256,"type":1257,"AR":1258,"à®°à®¨":1259,"à®ĩà®Łà®¤":1260,"à®ķà®Łà®µ":1261,"up":1262,"à®¤à®³à®¤":1263,"Ġà®ĩà®´à®¨":1264,"à®Ĭ":1265,"à®ľà®°":1266,"à®°à®£à®¤":1267,"ĠName":1268,"\">":1269,"ase":1270,"à®īà®²":1271,"Ġà®ªà®Łà®ª":1272,"sp":1273,"à®Ĵà®©":1274,"Constellation":1275,"ial":1276,"à®³à®°à®®":1277,"à®±à®µà®©":1278,"à®ĩà®¯à®ķ":1279,"à®İà®¨":1280,"à®°à®³":1281,"à®ªà®Łà®²":1282,"Ġà®ĩà®´à®ª":1283,"198":1284,"Ġ>":1285,"à®Ĩà®£":1286,"Ġà®Ĩà®´":1287,"à®ªà®³":1288,"à®İà®Ļ":1289,"Ġà®®à®ķà®©":1290,"à®ªà®Łà®ķ":1291,"ada":1292,"um":1293,"eg":1294,"à®Ĵà®µ":1295,"Ġà®īà®²à®ķà®ª":1296,"``":1297,"Ġà®İà®¸":1298,"à®Ĩà®Ł":1299,"à®ħà®´":1300,"our":1301,"Ġac":1302,"rip":1303,"ĠX":1304,"Ġà®Ĩà®Ļ":1305,"tle":1306,"Ġti":1307,"Ġà®İà®³":1308,"à®·à®®":1309,"Ġà®ªà®²à®ķ":1310,"Ġwh":1311,"Ġ25":1312,"Ġon":1313,"ue":1314,"Ġà®ĩà®±à®Ļ":1315,"ah":1316,"à®³à®µà®°":1317,"anada":1318,"IL":1319,"à®²à®Ł":1320,"à®ħà®ŀ":1321,"Ġà®ĩà®°à®Ł":1322,"'%":1323,"Ġ17":1324,"Ġsize":1325,"à®£à®¯":1326,"eneric":1327,"à®ħà®°":1328,"à®¤à®µà®±":1329,"à¯ģ'":1330,"à®©à®©":1331,"à®ªà®´":1332,"IN":1333,"crip":1334,"à®£à®©":1335,"Ġà®ĩà®±à®¨":1336,"à®ľà®¯":1337,"à®ħà®Ļ":1338,"Ġà®¤à®°à®ª":1339,"11":1340,"ted":1341,"à®®à®Ļ":1342,"Ġà®Ĩà®´à®®":1343,"ĠV":1344,"Ġà®ªà®£à®®":1345,"Ġà®ĩà®ķ":1346,"ount":1347,"Ġà®īà®¯à®°à®®":1348,"à®Łà®ļ":1349,"Ġ..":1350,"à¯ĩà®¾.":1351,"Ġle":1352,"Ġ16":1353,"oun":1354,"à®®à®¨":1355,"Ġ13":1356,"à®īà®±":1357,"à®¤à®µà®©":1358,"à®ĩà®ļ":1359,"à®¨à®®":1360,"Ġà®¨à®£":1361,"Ġà®ļà®£":1362,"ĠCanada":1363,"ric":1364,"à®ıà®©":1365,"Ġà®®à®°à®ª":1366,"Ġ14":1367,"à®İà®Ł":1368,"197":1369,"bo":1370,"Ġsh":1371,"Ġà®°à®¤":1372,"à®īà®¤":1373,").":1374,"his":1375,"Ġà®¤à®¯à®µ":1376,"Ġà®ıà®ª":1377,"Ġà®¨à®ķà®°à®¤":1378,"Ġà®īà®ªà®¯":1379,"Ġà®ĥà®ª":1380,"ting":1381,"ith":1382,"Ġà®Ĭà®Łà®ķà®Ļ":1383,"ob":1384,"Ġht":1385,"Ġà®°à®ļ":1386,"enericName":1387,"à®°à®µà®°":1388,"à®İà®©à®µ":1389,"lay":1390,"undo":1391,"30":1392,"à®°à®£à®Ļ":1393,"à®İà®©à®ķ":1394,"à®¤à®ķà®µà®²":1395,"GenericName":1396,"à®ĥ":1397,"ert":1398,"à®İà®£":1399,"ock":1400,"Ġà®İà®µà®°":1401,"à®ªà®¯à®©à®°":1402,"Ġà®¤à®ļ":1403,"nu":1404,"Ġà®¤à®©à®ķ":1405,"Ġà®ĩà®¯":1406,"ack":1407,"ee":1408,"Ġà®Ĵà®±":1409,"Ġà®īà®²à®ķà®®":1410,"ry":1411,"à®¨à®²":1412,"à®ļà®ķà®°":1413,"Ġbut":1414,"à¯ģ''":1415,"Ġ//":1416,"ine":1417,"ug":1418,"à®ĩà®±":1419,"TML":1420,"Ġà®īà®ķ":1421,"end":1422,"ai":1423,"à®īà®¤à®µ":1424,"Ġ100":1425,"à®ķà®Łà®²":1426,"Ġus":1427,"ere":1428,"rig":1429,"form":1430,"int":1431,"à®¤à®°à®°":1432,"Ġ198":1433,"à®īà®©":1434,"IS":1435,"à®¾'":1436,"à®ļà®µ":1437,"ww":1438,"ymb":1439,"à®µà®²à®¤":1440,"Ġà®İà®©à®ª":1441,"ymbol":1442,"ĠSt":1443,"Ġv":1444,"Ġà®¤à®ķà®ª":1445,"RL":1446,"à®ªà®¯à®Ļ":1447,"Ġal":1448,"tic":1449,"à®µà®ķà®©":1450,"à®¯à®²à®®":1451,"Ġ50":1452,"Ġà®¨à®ªà®°":1453,"Ġà®ĩà®°à®µ":1454,"lic":1455,"Ġà®ĩà®°à®ķà®ļ":1456,"Ġ()":1457,"od":1458,"Ġ$":1459,"Ġ40":1460,"mp":1461,"Ġhttp":1462,"Ġà®īà®Łà®²":1463,"os":1464,"Ġà®ĩà®®":1465,"ct":1466,"Ġà®Ĩà®µà®£à®¤":1467,"aper":1468,"escrip":1469,"Ġà®İà®©à®¤":1470,"à®ªà®¤à®©":1471,"Ġà®Ĩà®µà®£à®®":1472,"12":1473,"Ġà®ļà®®à®®":1474,"erv":1475,"ill":1476,"world":1477,"à®¤à®¯":1478,"Ġà®¨à®µ":1479,"à®°à®¯":1480,"à®µà®µ":1481,"ph":1482,"à®³à®²":1483,"Ġà®īà®®à®¤":1484,"Ġà®ľà®©à®¤":1485,"escription":1486,"Ġ@":1487,"ey":1488,"ould":1489,"Ġà®¨à®ķà®°à®Ļ":1490,"à®Ĩà®¸":1491,"18":1492,"ject":1493,"Ġà®ªà®²à®®":1494,"à®µà®Łà®ķ":1495,"view":1496,"à®¿...":1497,"Ġ:":1498,"Ġ_":1499,"à®ĩà®ķ":1500,"Ġà®ªà®²à®µ":1501,"Ġà®ªà®µ":1502,"Ġà®¤à®³à®ªà®¤":1503,"right":1504,"à¯Ī'":1505,"Ġ197":1506,"à®¨à®ķà®²":1507,"Ġthis":1508,"Ġà®ªà®°à®µà®²":1509,"ian":1510,"à®¿\"":1511,"à®ĩà®Łà®®":1512,"à®£à®ķ":1513,"gr":1514,"Ġà®µà®°à®®":1515,"Ġà®īà®³à®µ":1516,"ib":1517,"à®Ĵà®ª":1518,"px":1519,"Ġà®ļà®±":1520,"à¯Ģ.":1521,"Ġ24":1522,"Ġà®ĩà®©à®µ":1523,"à®¯à®³à®µ":1524,"à®¤à®³à®µ":1525,"AME":1526,"ton":1527,"à®Ĩà®µà®£":1528,"Ġà®Ĩà®µà®£à®Ļ":1529,"MAIL":1530,"Ġà®ķà®µà®©":1531,"Ġ2002":1532,"Ġà®¨à®ķà®°à®®":1533,"Ġà®®à®©à®¤":1534,"à®¯à®ķà®©":1535,"Ġà®ªà®°à®ª":1536,"Ġà®ĩà®¤à®°":1537,"ong":1538,"à®ķà®³à®µ":1539,"Ġà®ħà®°à®Ļ":1540,"Ġà®°à®ľ":1541,"ĠCD":1542,"ust":1543,"à¯Ĥ.":1544,"Ġà®ľà®©à®µà®°":1545,"à®İà®µà®²":1546,"Ġà®¨à®µà®®":1547,"rance":1548,"ef":1549,"Ġtitle":1550,"The":1551,"Ġitem":1552,"à®Ĩà®²":1553,"à®±à®¤à®±":1554,"gre":1555,"à®Łà®²à®¤":1556,"Ġ194":1557,"Ġà®ĩà®¯à®¨":1558,"à®®à®ª":1559,"à®ķà®¤à®°":1560,"à®İà®µ":1561,"ix":1562,"Ġ*":1563,"à®ªà®µà®Ļ":1564,"CD":1565,"Ġà®ħà®ķà®¤":1566,"com":1567,"Ġà®ļà®©":1568,"à®¤à®¤à®±":1569,"à®²à®ļ":1570,"à®²à®µà®°":1571,"VD":1572,"ns":1573,"ts":1574,"à®®à®¤à®®":1575,"à¯Ī!":1576,"Ġà®ķà®µà®©à®®":1577,"Ġ2007":1578,"à®īà®Ł":1579,"à®īà®¯":1580,"à®ĩà®¯à®²":1581,"Ġtranslate":1582,"Ġop":1583,"ext":1584,"angu":1585,"ĠâĢ":1586,"Ġà®ķà®©à®Ł":1587,"vin":1588,"ref":1589,"Sh":1590,"Ġà®¤à®ķà®°":1591,"à®µà®°à®µ":1592,"à®µà®²à®°":1593,"ost":1594,"sh":1595,"ties":1596,"Ġà®ħà®´à®ķ":1597,"Ġà®¨à®ķà®±":1598,"à¯Ī...":1599,"est":1600,"à®µà®°à®ª":1601,"EMAIL":1602,"à®ıà®ª":1603,"ĠxA":1604,"rit":1605,"Ġà®©":1606,"à®ªà®ķà®¤":1607,"Ġan":1608,"02":1609,"Ġ2008":1610,"Ġà®Ĩà®²à®¯à®¤":1611,"à®®à®£à®®":1612,"à®²à®³":1613,"/%":1614,"Ġ22":1615,"Ġà®ªà®£à®¤":1616,"à®ħà®µà®³":1617,"ud":1618,"Ġà®²à®Ł":1619,"à®ķà®°à®©":1620,"are":1621,"PD":1622,"PA":1623,"à¯ģ/":1624,"ak":1625,"ĠZ":1626,"Ġà®¨à®ļ":1627,"uck":1628,"à®Łà®µà®©":1629,"Ġ2004":1630,"anguage":1631,"ele":1632,"Ġà®ĩà®µà®©":1633,"out":1634,"Ġ23":1635,"à®Ĩà®°à®®":1636,"New":1637,"à®Ĩà®Ļ":1638,"Ġyou":1639,"Ġà®ķà®Łà®¤":1640,"à®Łà®¤à®±":1641,"Ġà®ıà®µ":1642,"Ġ2000":1643,"ev":1644,"à®·à®¤":1645,"à¯ģ:%":1646,"SE":1647,"Ġcon":1648,"PI":1649,"à¯Ī''":1650,"Ġà®µà®®":1651,"à®ļà®©à®®":1652,"à®¯à®®à®Ł":1653,"Ġaction":1654,"Ġà®¤à®°à®®":1655,"ign":1656,"16":1657,"ome":1658,"Ġ2001":1659,"à®ĩà®²à®ķ":1660,"à®ķà®¨":1661,"à®ªà®µà®®":1662,"all":1663,")...":1664,"à¯į]":1665,"à®īà®¯à®°":1666,"Ġà®Ĩà®ķà®¸":1667,"à®Ĳà®ķ":1668,"à®¤à®°à®¤":1669,"Ġà®ķà®µà®°":1670,"à®ľà®©à®¨":1671,"Ġà®¤à®Łà®®":1672,"à¯Ī%":1673,"à®¨à®µà®®":1674,"à®©à®°à®²":1675,"fic":1676,"ory":1677,"Ġare":1678,"tur":1679,"à®İà®ķ":1680,"lease":1681,"2001":1682,"14":1683,"ode":1684,"LE":1685,"TT":1686,"à®¤à®¯à®¤":1687,"à®ļà®©à®Ļ":1688,"à®Łà®£à®Ļ":1689,"CR":1690,"Ġà®ªà®²à®¤":1691,"pr":1692,"à®ļà®©à®¤":1693,"à®ĩà®µà®±":1694,"à¯į:%":1695,"à®¾-":1696,"à®Łà®£à®¤":1697,"à®¯à®¸":1698,"land":1699,"Ġ26":1700,"Ġà®ķà®µà®©à®¤":1701,"à®¿?":1702,"à®µà®°à®²":1703,"Ġ60":1704,"erver":1705,"Ġ=":1706,"Ġà®ªà®¨":1707,"ary":1708,"format":1709,"Ġ21":1710,"symbol":1711,"Ġà®Ĭà®Łà®ķà®¤":1712,"symbols":1713,"edit":1714,"Ġà®ķà®®à®²":1715,"Ġà®ĩà®´à®ķ":1716,"Ġ2003":1717,"CO":1718,"à¯ĭ?":1719,"....":1720,"uss":1721,"ER":1722,"à®µà®´à®ķ":1723,"Ġà®ħà®µà®ļà®°":1724,"à¯Ī:%":1725,"à®´à®©":1726,"ĠHTML":1727,"Ġà®µà®³à®Ļ":1728,"à®Ĵà®Ł":1729,"à®ħà®µà®°à®¤":1730,"we":1731,"Ġstat":1732,"ult":1733,"Ġsp":1734,"ll":1735,"xt":1736,"ahoo":1737,"à®ķà®¸":1738,"à®¤à®°à®©":1739,"17":1740,"Ġà®¤à®Łà®µ":1741,"Ġà®¨à®ķ":1742,"à®ľà®®":1743,"ĠSh":1744,"ip":1745,"Ġà®®à®´":1746,"à®¤à®©à®Ļ":1747,"ond":1748,"Ġà®Ĭà®´à®²":1749,"man":1750,"à®·à®¯à®®":1751,"à®Łà®ķà®©":1752,"à®£à®²":1753,"ĠĠ":1754,"Ġà®īà®¨":1755,"Ġà®ªà®¯à®£":1756,"Serv":1757,"IA":1758,"à®°à®°à®ļ":1759,"Uri":1760,"à®¤à®°à®ª":1761,"Ġeu":1762,"indow":1763,"Ġà®ļà®°à®¤":1764,"Ġlex":1765,"paper":1766,"à®īà®Łà®©":1767,"ĠLex":1768,"UriServ":1769,"ĠLexUriServ":1770,"à®ªà®µà®¤":1771,"io":1772,"Ġà®İà®®à®¤":1773,"ines":1774,"org":1775,"à®¨à®©":1776,"Ġà®ħà®ľ":1777,"Ġà®īà®ª":1778,"RI":1779,"Ġ?":1780,"à¯į@":1781,"Ġ(\"":1782,"ich":1783,"sw":1784,"à®²à®°à®ļ":1785,"à®±à®µà®±":1786,"à®Ĩà®±":1787,"à®ªà®ķà®®":1788,"15":1789,"NAME":1790,"Ġà®®à®ķà®¤":1791,"Ġà®ħà®°à®ª":1792,"à®ľà®©à®µà®°":1793,"mail":1794,"ime":1795,"Ġà®ħà®²à®Ļ":1796,"Ġ2006":1797,"Ġà®®à®ķà®³":1798,"à®İà®ļ":1799,"Ġà®İà®±":1800,"à®µà®®à®©":1801,"à®Ĩà®ķà®¸":1802,"Ġà®®à®ļ":1803,"Ġ27":1804,"to":1805,"Ġ{":1806,"Ġà®¤à®³à®Ļ":1807,"à®¤à®³à®Ļ":1808,"à®ªà®°à®®":1809,"à¯Ī?":1810,"Ġà®®à®Łà®Ļ":1811,"Ġà®ħà®¸":1812,"rop":1813,"Ġshould":1814,"WS":1815,"Ġà®ĩà®±à®ª":1816,"Ġ196":1817,"ĠxE":1818,"ions":1819,"//":1820,"Ġà®ªà®´à®®":1821,"_:":1822,"nd":1823,"Ġdist":1824,"à®ĵà®°":1825,"CE":1826,"Ġà®ªà®¤à®Ł":1827,"à®°à®ķà®Łà®©à®®":1828,"DVD":1829,"MS":1830,"eb":1831,"âĻ":1832,"à¯į\",":1833,"ure":1834,"://":1835,"Ġà®ļà®®à®°à®ļ":1836,"à®Ĵà®¤":1837,"Ġtranslated":1838,"ml":1839,"à¯ģ..":1840,"Ġ28":1841,"à®ħà®®à®°":1842,"à¯Ī-":1843,"24":1844,"Ġà®µà®¸":1845,"PS":1846,"her":1847,"à®°à®µà®¤":1848,"25":1849,"tions":1850,"Ġà®¨à®®à®ķ":1851,"key":1852,"per":1853,"à®¤à®²à®¤":1854,"Ġà®ªà®´à®Ļ":1855,"à¯ģ@":1856,"à®©à®¨":1857,"ire":1858,"à®¿(":1859,"net":1860,"lass":1861,"Ġch":1862,"PP":1863,"ger":1864,"Ġà®°à®µ":1865,"star":1866,"ussia":1867,"ments":1868,"à®ĩà®®":1869,"Ġà®ıà®¸":1870,"Ġyahoo":1871,"KDE":1872,"ĠURL":1873,"li":1874,"à®¤à®ķà®°":1875,"à®®à®¸":1876,"Ġwith":1877,"Ġ#":1878,"ĠKDE":1879,"http":1880,"az":1881,"ft":1882,"ror":1883,"able":1884,"Description":1885,"Ġorg":1886,"france":1887,"à®Łà®¨":1888,"Ġà®īà®²à®ķà®¤":1889,"con":1890,"Ġà®ĩà®³à®®":1891,"Ġà®ķà®Łà®®":1892,"Ġ29":1893,"lo":1894,"Ġà®ķà®¤à®µ":1895,"Ġà®ļà®®à®¯à®®":1896,"ake":1897,"ear":1898,"à®±à®ŀ":1899,"Ġà®¨à®¤":1900,"Ġà®Ĳà®¯":1901,"ace":1902,"egion":1903,"Ġwill":1904,"Ã©":1905,"ialog":1906,"âĻª":1907,"59":1908,"iB":1909,"Ġunit":1910,"à®°à®·":1911,"SS":1912,"à®·à®µ":1913,"ĠCh":1914,"DA":1915,"Ġà®ªà®ŀ":1916,"old":1917,"ST":1918,"Ġà®īà®®à®ķ":1919,"Ġà®ıà®®":1920,"à¯į..":1921,"à®Ĳà®¨":1922,"ational":1923,"à®ķà®³à®®":1924,"à®ķà®³à®ŀ":1925,"RO":1926,"Ġhe":1927,"à®Ĵà®³":1928,"mage":1929,"ets":1930,"quot":1931,"ountry":1932,"\\.":1933,"à®ĩà®¯à®±":1934,"Ġà®ĩà®¤à®´":1935,"NT":1936,"Ġà®īà®¯à®°à®Ł":1937,"à®¤à®£":1938,"à®Łà®ªà®Ł":1939,"à®²à®ķà®Ļ":1940,"à¯į--":1941,"ages":1942,"ean":1943,"à¯ĩ?":1944,"Ġcoun":1945,"Ġmon":1946,"ces":1947,"yle":1948,"à®©à®¸":1949,"ound":1950,"ĠCO":1951,"à®Łà®Ł":1952,"av":1953,"à®Łà®¯à®¤":1954,"che":1955,"Ġfile":1956,"Ġà®Ĭà®Łà®ķà®®":1957,"Ġà®ħà®ķà®°":1958,"à®ĩà®°à®Ł":1959,"Ġà®±":1960,"Ġà®¤à®°à®¤":1961,"Ġà®·à®°":1962,"iv":1963,"à®Łà®¯à®®":1964,"à®®à®¯":1965,"Ġwor":1966,"Ġà®²à®£":1967,"à®µà®²à®ķà®¤":1968,"à®ªà®¸":1969,"à®¯à®£":1970,"Ġà®¤à®Łà®Ļ":1971,"à®Ĩà®¤":1972,"isc":1973,"à®Łà®ķà®®":1974,"Ġà®°à®®":1975,"Ġmenu":1976,"Ġcounties":1977,"Ġthat":1978,"à®¿/":1979,"ink":1980,"Ġà®Ĩà®¤à®°à®µà®³":1981,"Ġbutton":1982,"Ġà®ªà®Łà®ķ":1983,"Ġwhat":1984,"MP":1985,"à¯ģ(":1986,"à®²à®£":1987,"Ġà®ĩà®°à®¯":1988,"à®·à®¯à®Ļ":1989,"ĠNew":1990,"ateg":1991,"ge":1992,"tr":1993,"à®µà®ķà®®":1994,"ice":1995,"à¯Ģ-":1996,"ĠAl":1997,"ogl":1998,"Imp":1999,"Ġu":2000,"Ġà®ªà®¯à®ª":2001,"à®ľà®ķ":2002,"Ġtype":2003,"ors":2004,"Cal":2005,"SA":2006,"Ġkey":2007,"âĢĻ":2008,"layers":2009,"Ġlist":2010,"ID":2011,"ipp":2012,"ĠQ":2013,"à®°à®®à®ļ":2014,"à®ªà®°à®Ļ":2015,"Ġcan":2016,"Ġstate":2017,"port":2018,"à®Łà®®à®©":2019,"ital":2020,"Ġstatus":2021,"GT":2022,"Ġ500":2023,"Ġmonth":2024,"Ġà®¨à®®à®¤":2025,"à®´à®¤":2026,"Country":2027,"Ġà®µà®°à®ª":2028,"ite":2029,"à¯į).":2030,"ĠIn":2031,"Ġmess":2032,"pi":2033,"à®Łà®²à®®":2034,"Ġ2005":2035,"à®ķà®©à®Ł":2036,"ĠThe":2037,"à®±à®ªà®Ł":2038,"à®ĩà®±à®ķ":2039,"Ġ193":2040,"Ġby":2041,"Stock":2042,"af":2043,"les":2044,"à®Łà®©à®ª":2045,"ĠYou":2046,"40":2047,"ĠÃ":2048,"à®®à®ķà®©":2049,"à®±à®°":2050,"Ġà®Ĩà®¯à®¤":2051,"Ġhow":2052,"SO":2053,"à¯ĩ!":2054,"à®ªà®Łà®ª":2055,"-%":2056,".\"":2057,"à¯Ī.\"":2058,"Ġ``":2059,"à®ķà®Łà®µà®©":2060,"ree":2061,"Ġà®ķà®ļ":2062,"à®³à®°à®Ļ":2063,"Ġclass":2064,"ring":2065,"ery":2066,"Ġà®Łà®ķ":2067,"ategory":2068,"à®¨à®Łà®¤":2069,".)":2070,"à®²à®²":2071,"ore":2072,"Ġkde":2073,"à¯į',":2074,"Ġà®ħà®³à®ª":2075,"ucking":2076,"Ġà®ħà®µà®¤":2077,"Ġà®¤à®ķà®©":2078,"PN":2079,"roup":2080,"sthis":2081,"à®µà®´à®Ļ":2082,"Ġwhatsthis":2083,"à®®à®¯à®®":2084,"Ġà®®à®°à®£à®®":2085,"à®ıà®¤":2086,"Ġex":2087,"à¯ģ--":2088,"à®¤à®¯à®®":2089,"Ġà®Ĩà®ķà®µ":2090,"à®ļà®°à®µ":2091,"à®ªà®²à®ª":2092,"BAR":2093,"196":2094,"Ġas":2095,"Ġà®ļà®°à®£":2096,"Ġà®ªà®Łà®µ":2097,"ern":2098,"à¯ĩ;":2099,"amil":2100,"ov":2101,"Ġà®ĩà®²à®µà®ļ":2102,"80":2103,"ox":2104,"ĠÂ":2105,"à®īà®ª":2106,"ricts":2107,"ick":2108,"}\"":2109,"à®²à®ķà®Ł":2110,"à®ľà®ª":2111,"Ġà®ļà®®à®¯à®¤":2112,"ritain":2113,"Ġdistricts":2114,"à®ĩà®¯":2115,"à®ıà®¯":2116,"Ġ|":2117,"rom":2118,"Ġ80":2119,"great":2120,"Ġoption":2121,"\")":2122,"à®°à®ªà®²à®®":2123,"Ġà®īà®²à®ķà®³":2124,"span":2125,"à®İà®°":2126,"ilipp":2127,"à®©à®ªà®Ł":2128,"à®©à®µà®©":2129,"à®²à®ķà®®":2130,"Ġ300":2131,"Ġà®Ĩà®©à®¤":2132,"ach":2133,"ight":2134,"à®¤à®Łà®®":2135,"à®Ĩà®µ":2136,"Ġbritain":2137,"ublic":2138,"ie":2139,"Ġà®ķà®©à®µ":2140,"han":2141,"à®Ĵà®´":2142,"Ġsub":2143,"urr":2144,"text":2145,"cut":2146,"à®ªà®³à®®":2147,"à®ķà®³à®©":2148,"Ġà®Ĩà®µà®°":2149,"Ġà®µà®³à®®":2150,"ortcut":2151,"Region":2152,"bu":2153,"à®ľà®¯à®ķ":2154,"à®¤à®ķà®ķ":2155,"à®ķà®´à®ķ":2156,"Ġ1990":2157,";)":2158,"Ad":2159,"à®¿!":2160,"à®°à®ķà®¤":2161,"à®µà®³à®°":2162,"Ġà®¤à®ŀ":2163,"DP":2164,"gions":2165,"med":2166,"box":2167,"ĠxAE":2168,"lu":2169,"à®£à®±":2170,"Ġprovin":2171,"Ġprovinces":2172,"OP":2173,"à®¾!":2174,"Ġ70":2175,"ilippines":2176,"GB":2177,"Language":2178,"Ġà®ªà®¸":2179,"Ġà®®à®°à®£à®¤":2180,"CT":2181,"PG":2182,"Ġ90":2183,"Ġà®ªà®²à®©":2184,"ĠServer":2185,"umber":2186,"philippines":2187,"à®¤à®²à®®":2188,"à®¤à®¤à®©":2189,"Ġtext":2190,"Ġab":2191,"Ġlang":2192,"Ġcont":2193,"ast":2194,"ook":2195,"à®ļà®¸":2196,"à®¯à®¤à®°":2197,"2000":2198,"EP":2199,"font":2200,"iCal":2201,"MAN":2202,"van":2203,"à®²à®ķà®ķ":2204,"à®ľà®©à®Ļ":2205,"\",":2206,"SI":2207,"error":2208,"DI":2209,"cess":2210,"à®¤à®¸":2211,"à®ļà®£":2212,"ault":2213,"one":2214,"ans":2215,",%":2216,"à®Łà®ķà®¤":2217,"Ġ!":2218,"Ġ(#":2219,"Ġà®ªà®¯à®¨":2220,"board":2221,"à®²à®ķà®¤":2222,"adi":2223,"amp":2224,"2003":2225,"à®·à®Ļ":2226,"Ġà®Łà®ª":2227,"heck":2228,"ated":2229,"ĠDPI":2230,"CP":2231,"Ġà®®à®°à®£":2232,"à®°à®®à®£":2233,"ute":2234,"ress":2235,"Ġà®ªà®²à®ª":2236,"à®¤à®Łà®¤":2237,"Ġà®Ĩà®ĥà®ª":2238,"ĠCIA":2239,"à®®à®ļ":2240,"à®¯à®ªà®Ł":2241,"Ġà®ªà®¯à®®":2242,"à®¨à®µ":2243,"ung":2244,"ĠImage":2245,"2006":2246,"min":2247,"yn":2248,"à®°à®®à®©":2249,"Ġà®ıà®Ł":2250,"à¯į),":2251,"Ġtr":2252,"Ġà®ªà®¯à®£à®®":2253,"2002":2254,"ff":2255,"file":2256,"vel":2257,"à®¸à®©":2258,"2004":2259,"à¯į,\"":2260,"menu":2261,"Ġsome":2262,"Ġint":2263,"word":2264,"amb":2265,"à®ķà®¯":2266,"ann":2267,"Ġhere":2268,"à®ªà®µà®©":2269,"à¯į....":2270,"rank":2271,"à®ªà®£à®®":2272,"sl":2273,"à®ļà®¤à®µ":2274,"ico":2275,"Ġthem":2276,"iCalImp":2277,"uk":2278,"à®©à®ļ":2279,"à®¯à®¤à®±":2280,"ĠCom":2281,"act":2282,"Ġ2009":2283,"Ġyour":2284,"Ġà®¤à®ķà®©à®ªà®²":2285,"CI":2286,"\\@":2287,"à®®à®°à®ª":2288,"à®İà®³":2289,"13":2290,"ive":2291,"Ġapp":2292,"left":2293,"Ġà®īà®¯à®°à®¤":2294,"Ġfil":2295,"Ġ400":2296,"Ġwindow":2297,"ron":2298,"Shortcut":2299,"dialog":2300,"Ġà®ħà®²à®ķ":2301,"Ġ31":2302,"ell":2303,"QShortcut":2304,"ik":2305,"à®ķà®³à®ª":2306,"Ġà®®à®¹":2307,"ord":2308,"object":2309,"pl":2310,"pad":2311,"à®Łà®¤à®©":2312,"à®¯à®°à®Ļ":2313,"pen":2314,"tk":2315,"à®³à®ļ":2316,"Ġà®ħà®°à®£":2317,"Ġà®ĩà®°à®ķ":2318,"à®ħà®µà®±":2319,"lat":2320,"Ġwid":2321,"ents":2322,"à¯į_":2323,"à®°à®ĥà®ª":2324,"à®Łà®©à®¤":2325,"à®µà®²à®ķà®®":2326,"Ġà®ķà®´à®ķà®®":2327,"TS":2328,"Ġno":2329,"ING":2330,"dialogs":2331,"à®·à®¯à®¤":2332,"à®Ĩà®³":2333,"à®ķà®©à®Ļ":2334,"Ġ75":2335,"ĠEN":2336,"%%":2337,"Ġà®Ĳà®®":2338,"arn":2339,"Ġinmenu":2340,"Ġregions":2341,"Ġà®ļà®°à®®":2342,"ash":2343,"EN":2344,"Ġà®ªà®£à®ķ":2345,"Ġpref":2346,"ques":2347,"lp":2348,"Ġà®İà®ŀ":2349,"à®Łà®²à®Ļ":2350,"Ġfind":2351,"BC":2352,"à®²à®±":2353,"Ġà®®à®Ļ":2354,"ark":2355,"Ġph":2356,"à¯į\".":2357,"Ġ35":2358,"ĠLe":2359,"www":2360,"à®ĩà®³":2361,"ĠMiB":2362,"Cogl":2363,"à®¾:":2364,"Ġà®ĩà®©à®¤":2365,"row":2366,"chess":2367,"jects":2368,"wat":2369,"à®¨à®ªà®°":2370,"tive":2371,"Al":2372,"russia":2373,"top":2374,"Ġà®ªà®°à®®":2375,"à®¤à®°à®Ļ":2376,"unt":2377,"à®µà®°à®ķ":2378,"read":2379,"ures":2380,"istan":2381,"Ġset":2382,"unch":2383,"\".":2384,"300":2385,"HTML":2386,"Ġim":2387,"Ġà®ħà®¯à®°":2388,"roon":2389,"ence":2390,"ĠUn":2391,"Ġà®ĵà®°à®³à®µ":2392,"33":2393,"Ch":2394,"à®Łà®³à®µ":2395,"à®Łà®£à®®":2396,"à®³à®µà®©":2397,"Ġà®ļà®ŀ":2398,"à®īà®ļ":2399,"Ġ\"{":2400,"ameroon":2401,"Ġtake":2402,"Ġà®ªà®´à®ķ":2403,"à®ļà®³":2404,"Ġà®¤à®´":2405,"Ġà®¤à®³à®°":2406,"Ġat":2407,"Ġà®¹à®®":2408,"à®ıà®´":2409,"ĠEn":2410,"raw":2411,"à®ªà®µà®±":2412,"Ġà®ķà®²à®ķ":2413,"AM":2414,"Please":2415,"Ġ00":2416,"à®ķà®µà®©":2417,"à®¤à®ķà®Ļ":2418,"à®±à®¨à®ķà®°":2419,"Ġà®ķà®²à®Ļ":2420,"à®ĩà®¯à®Ļ":2421,"à®ķà®´à®ķà®¤":2422,"Ġ1999":2423,"Ġtime":2424,"rc":2425,"Ġj":2426,"Ġun":2427,"à®ķà®Łà®®":2428,"Ġà®¨à®©à®µ":2429,"Ġà®Ĳà®¸":2430,"\";":2431,"MB":2432,"à®±à®´":2433,"Ġà®ªà®°à®¤":2434,"Ġà®®à®±à®¨":2435,"Ġet":2436,"Ġà®Ĭà®±":2437,"Ġà®ķà®´à®ķà®¤":2438,"eeting":2439,"cameroon":2440,"oss":2441,"ath":2442,"Ġà®ıà®±à®¤":2443,"Ġ195":2444,"à®Ĳà®ļ":2445,"ĠâĢĶ":2446,"à®°à®ľ":2447,"Ġà®®à®°à®Ļ":2448,"à®ľà®¤à®¨":2449,"tip":2450,"ant":2451,"ven":2452,"Ġà®ħà®°à®Ł":2453,"lar":2454,"get":2455,"à®¨à®ķà®°à®®":2456,"Ġsele":2457,"Ġsubjects":2458,"à®Łà®µà®Ł":2459,"Ġà®¹à®°":2460,"ĠMB":2461,"Ġoffic":2462,"Ġà®¤à®Łà®®à®±":2463,"\\\\\\\\":2464,"Ġstring":2465,"LEX":2466,"Ġworld":2467,"ategoryName":2468,"TP":2469,"ax":2470,"tiv":2471,"à®İà®©à®¤":2472,"à®īà®©à®ķ":2473,"dd":2474,"à®µà®ļà®®":2475,"à®ķà®²à®ª":2476,"Ġcheck":2477,"ropa":2478,"Ġà®¤à®Łà®¤":2479,"à®Łà®©à®Ļ":2480,"ĠCol":2481,"âĢĿ":2482,"</":2483,"so":2484,"ude":2485,"Ġà®İà®µà®²":2486,"à®İà®¯":2487,"Ġtool":2488,"Ġà®ħà®µà®ļà®°à®ķ":2489,"Ġunits":2490,"Ġuri":2491,"ave":2492,"ove":2493,"ĠThis":2494,"ask":2495,"Ġofficial":2496,"à®ķà®®à®²":2497,"0059":2498,"Ġdep":2499,"Ġ32001":2500,"Ġtranslations":2501,"à®ĵà®Ł":2502,"Ġeur":2503,"Ġeuropa":2504,"CELEX":2505,"21":2506,"GL":2507,"Ġif":2508,"à®°à®µà®©":2509,"Ġà®¤à®°à®Ļ":2510,"reen":2511,"194":2512,"EA":2513,"Qu":2514,"à®ħà®¯":2515,"Ġnumber":2516,"à®ķà®£à®®":2517,"ece":2518,"jay":2519,"lut":2520,"à®´à®Ļ":2521,"à®ľà®¯à®®":2522,"Ġfrom":2523,"rg":2524,"à®Łà®¯à®Ļ":2525,"à¯ĩ'":2526,"Ġà®¨à®²à®®":2527,"Ġà®İà®µà®©":2528,"Ġ45":2529,"Ġà®µà®ļà®©à®®":2530,"à®Ĩà®µà®£à®¤":2531,"tool":2532,"waters":2533,"SU":2534,"ction":2535,"yst":2536,"à®ªà®©à®¤":2537,"iff":2538,"70":2539,"tor":2540,"à®³à®Łà®Ļ":2541,"à¯ģ....":2542,"ania":2543,"Ġ1998":2544,"22":2545,"à®²à®¤à®©à®¤":2546,"à®±à®³":2547,"Ġà®ķà®ļà®ª":2548,"Ġà®ļà®®à®°":2549,"ĠâĢĺ":2550,"editor":2551,"jan":2552,"à®¿%":2553,"à®ªà®®à®Ł":2554,"own":2555,"96":2556,"Disc":2557,"à®ªà®ķà®²":2558,"Ġà®ķà®£à®µà®°":2559,"2007":2560,"fig":2561,"tamil":2562,"à®¿;":2563,"à®µà®ŀ":2564,"Ġà®®à®°à®¤":2565,"Ġà®µà®¯à®²":2566,"à®°à®®à®Ł":2567,"2005":2568,"1990":2569,"NO":2570,"à®ħà®´à®ķ":2571,"earch":2572,"600":2573,"CK":2574,"CategoryName":2575,"à®¸à®²":2576,"Ġà®ĩà®²à®Ł":2577,"esk":2578,"Ġà®ĵà®µ":2579,"Ġcolor":2580,"---":2581,"à®īà®²à®ķà®®":2582,"greece":2583,"Ġetc":2584,"ystem":2585,"Ġà®Ĩà®ļà®°":2586,"Ġà®¤à®®à®ķ":2587,"ĠLCR":2588,"Ġ1980":2589,"DAP":2590,"IM":2591,"ao":2592,"à®¿à¯į":2593,"à®µà®ķà®¤":2594,"à®Łà®ķà®Ļ":2595,"iss":2596,"agn":2597,"ide":2598,"erb":2599,"Ġsymbol":2600,"ĠCon":2601,"360":2602,"à®²à®¨à®Ł":2603,"Ġà®ĩà®©à®Ļ":2604,"LA":2605,"day":2606,"à®ļà®ķà®®":2607,"nail":2608,"Ġà®ªà®²à®ķà®¤":2609,"lutter":2610,"Ġerror":2611,"à®°à®ķà®Ļ":2612,"Ġà®ķà®·":2613,"CF":2614,"JP":2615,"Ġà®ĩà®Łà®ª":2616,"ĠCGT":2617,"*.":2618,"à®¯à®®à®±":2619,"ank":2620,"Ġpr":2621,"28":2622,"IME":2623,"NE":2624,"Un":2625,"à®ķà®®à®±":2626,"Ġà®°à®ķà®ļ":2627,"500":2628,"à®¯à®µà®©":2629,"Ġà®ªà®ª":2630,"Ġà®ıà®±à®ķ":2631,"à®³à®®à®¯à®®":2632,"other":2633,"ĠPS":2634,"à®µà®¯à®¤":2635,"Ġnew":2636,"artments":2637,"Ġdepartments":2638,"à®µà®²à®®":2639,"Ġà®ħà®¯à®²":2640,"Ġà®īà®ªà®¤":2641,"Ġà®ħà®¤à®©à®¤":2642,"ader":2643,"CH":2644,"iew":2645,"ones":2646,"keyboard":2647,"unchpad":2648,"Ġà®®à®°à®®":2649,"à®ķà®²à®©":2650,"à®Ĵà®±":2651,"ata":2652,"econd":2653,"Ġ*.":2654,"imes":2655,"TA":2656,"card":2657,"à®ªà®°à®¤":2658,"à®²à®ªà®®":2659,"Ġà®ķà®²à®µ":2660,"Ġrare":2661,"cent":2662,"à®Łà®°à®µ":2663,"mode":2664,"nn":2665,"pg":2666,"rovin":2667,"work":2668,"Ġabout":2669,"26":2670,"IF":2671,"UN":2672,"oh":2673,"à®ļà®ļ":2674,"à®ĩà®²à®µ":2675,"ali":2676,"als":2677,"thumbnail":2678,"rovince":2679,"US":2680,"au":2681,"à®ªà®Łà®ļ":2682,"Ġà®µà®°à®ķ":2683,"Ġper":2684,"Ġneeds":2685,"ĠInt":2686,"yprovince":2687,"ubunt":2688,"Ġrarely":2689,"ubuntu":2690,"23":2691,"à®ķà®ľ":2692,"à®²à®¯à®¤":2693,"à®°à®ªà®²":2694,"ays":2695,"Ġgroup":2696,"ectures":2697,"trl":2698,"You":2699,"gu":2700,"à®Łà®¸":2701,"à®ªà®³à®¤":2702,"à®µà®²à®ķà®Ļ":2703,"Ġà®ıà®ļ":2704,"Ġà®ħà®Łà®°":2705,"ina":2706,"rol":2707,"à®¨à®Łà®µà®Ł":2708,"italyprovince":2709,"Ġed":2710,"Ġà®ħà®ªà®°":2711,"à®°à®®à®¤":2712,"à®¤à®°à®ķ":2713,"Ġà®°à®¯":2714,"Ġdef":2715,"Ġà®®à®©à®¨":2716,"Ġwww":2717,"Ġ600":2718,"'s":2719,"à®¾...":2720,"à®ªà®©à®µ":2721,"Ġà®®à®±à®ķ":2722,"à®ķà®°à®¤":2723,"Ġam":2724,"Ġà®ªà®°à®ªà®°à®ª":2725,"ĠLong":2726,"ĠStencils":2727,"à¯Ī(":2728,"à®¯à®²à®°":2729,"Ġà®ĵà®ª":2730,"oft":2731,"usa":2732,"ass":2733,"à®µà®°à®©":2734,"erl":2735,"Ġar":2736,"esktop":2737,"KP":2738,"ware":2739,"à®®à®µ":2740,"Ġ1000":2741,"à®ļà®®à®¯à®®":2742,"à®¹à®°":2743,"Ġà®ĵà®ļ":2744,"à®²à®µà®´":2745,"older":2746,"Ġprefectures":2747,"=\\\\\\\\":2748,"vect":2749,"à®īà®£à®°":2750,"ĠCP":2751,"Ġà®ªà®¯à®£à®¤":2752,"MAP":2753,"TTE":2754,"ĠShort":2755,"',":2756,"oint":2757,"Ġà®µà®¯":2758,"Ġà®¨à®°":2759,"à®¯à®¤à®©":2760,"Ġà®ªà®±à®µ":2761,"à®¹à®®":2762,"Ġalign":2763,"Ġchar":2764,"à®´à®ķà®¤":2765,"à®ķà®Łà®µà®°":2766,"Ġà®®à®©à®®":2767,"help":2768,"Ġbet":2769,"ween":2770,"Ġphp":2771,"LO":2772,"ty":2773,"Ġ)":2774,"Ġà®µà®¤":2775,"195":2776,"viet":2777,"Ġused":2778,"nam":2779,"Ġ150":2780,"à®ķà®²à®¨":2781,"Ġfucking":2782,"Ġthere":2783,"à®īà®Łà®©à®Ł":2784,"LDAP":2785,"à®Łà®ķà®°":2786,"Ġà®Ĩà®¨":2787,"Ġà®Łà®ļ":2788,"Ġà®ľà®©à®®":2789,"%)":2790,"ne":2791,"à¯ģ]":2792,"à®ļà®¯":2793,"à®£à®¯à®®":2794,"ĠCont":2795,"Ġà®·à®Ļ":2796,"à®Ĩà®µà®£à®®":2797,"CC":2798,"DB":2799,"à®³à®±":2800,"ork":2801,"eng":2802,"ens":2803,"ĠDo":2804,"ms":2805,"à®°à®¯à®Ł":2806,"Ġà®¨à®¯à®©":2807,"à®īà®®":2808,"Ġ%(":2809,"ario":2810,"ĠUS":2811,"Ġ1970":2812,"Ġbetween":2813,"35":2814,"Hyp":2815,"cat":2816,"col":2817,"Ġà®ļà®®à®©":2818,"à®ŀà®©":2819,"Ġface":2820,"ĠTh":2821,"36":2822,"@}":2823,"eut":2824,"Ġà®®à®¯à®®":2825,"à¯Ĥ!":2826,"Ġà®Ĩà®µà®¤":2827,"ote":2828,"Ġà®¹à®µ":2829,"Ġhint":2830,"Ġ{@}":2831,"vietnam":2832,"100":2833,"29":2834,"à®ķà®Łà®©":2835,"à®°à®ŀ":2836,"Ġà®ħà®²à®Ł":2837,"ĠSc":2838,"ations":2839,"Query":2840,"à®°à®¹":2841,"Ġà®ħà®ķà®ª":2842,"ero":2843,"outh":2844,"ĠOnt":2845,"Ġres":2846,"rica":2847,"vectors":2848,"public":2849,"à®®à®´":2850,"à®²à®µà®±":2851,"à®¨à®ķ":2852,"à®ķà®´à®ķà®®":2853,"ator":2854,"ĠNational":2855,"âĢĺ":2856,"27":2857,"aw":2858,"à¯į``":2859,"image":2860,"ĠOntario":2861,"720":2862,"mm":2863,"Ġz":2864,"Ġà®ªà®ķà®²":2865,"Ġà®¨à®·":2866,">,":2867,"Clutter":2868,"hot":2869,"à®³à®¸":2870,"Ġà®®à®¤à®¤":2871,"alue":2872,"lect":2873,"els":2874,"Ġretur":2875,"cript":2876,"à®īà®¯à®°à®®":2877,"ambia":2878,"AS":2879,"bsp":2880,"lain":2881,"Ġ36":2882,"à®ıà®ķ":2883,"à®Īà®Ł":2884,"à¯ģ).":2885,"html":2886,"Ġtooltip":2887,"à®ķà®Łà®¤":2888,"ĠPlease":2889,"urity":2890,"ĠWS":2891,"Ġall":2892,"In":2893,"à®©à®±":2894,"à®ļà®±":2895,"à®·à®ķ":2896,"Ġà®ħà®±à®ķ":2897,"ĠMar":2898,"Ġmessage":2899,"ES":2900,"RW":2901,"`%":2902,"name":2903,"à®ªà®²à®®":2904,"Ġdescription":2905,"Ġbr":2906,"Ġ65":2907,"----":2908,"gradi":2909,"':":2910,"à®ķà®Łà®µà®¤":2911,"put":2912,"Ġà®®à®ŀ":2913,"Ġà®µà®³à®¤":2914,"Ġà®ªà®£à®µ":2915,"olu":2916,"Ġhot":2917,"ĠFrance":2918,"à®ĩà®µà®°à®¤":2919,"à®¤à®ŀ":2920,"Ġà®ķà®³à®®":2921,"Ġà®µà®Łà®®":2922,"Ġsee":2923,"2008":2924,"Ġ1991":2925,"1999":2926,"1980":2927,"ource":2928,"ies":2929,"pu":2930,"rap":2931,"à®³à®©à®®":2932,"Ġà®¨à®Łà®©à®®":2933,"à¯Ĩà®¾.":2934,"à®ĩà®µà®©":2935,"Ġà®ķà®Łà®ķ":2936,"à®İà®ĥà®ª":2937,"Ġloc":2938,"Ġedu":2939,"'.":2940,"aj":2941,"ÃĹ":2942,"Ġup":2943,"à®ħà®Łà®°":2944,"Ġà®ªà®²à®µà®±":2945,"Ġà®ĩà®©à®ª":2946,"Ġà®ĩà®£à®Ļ":2947,"...)":2948,"à®°à®ķà®Łà®©à®ª":2949,"250":2950,"sc":2951,"Ã¨":2952,"Ġà®®à®©à®ª":2953,"Ġsc":2954,"elix":2955,"à®µà®£à®ķ":2956,"Ġhas":2957,"Ġli":2958,"immed":2959,"Ġhotmail":2960,"SP":2961,"UT":2962,"URL":2963,"à®©à®ļà®°":2964,"à®£à®®à®²":2965,"Ġproper":2966,"à®®à®£à®¤":2967,"Ġ1997":2968,"Ġmessages":2969,"RE":2970,"à®Łà®°à®ļ":2971,"à®¤à®©à®©":2972,"à®ķà®Łà®±":2973,"omb":2974,"Ġprogr":2975,"vijay":2976,"Show":2977,"urrent":2978,"ĠWSWS":2979,"à¯ĩ-":2980,"use":2981,"Ġuse":2982,"ĠxAF":2983,"Ġà®ħà®ķà®°à®µà®°":2984,"ĠComm":2985,"GH":2986,"ez":2987,"à®ĩà®´":2988,"alon":2989,"à®°à®µà®²à®©":2990,"à®©à®®à®£":2991,"ĠSEP":2992,"ous":2993,"Ġbug":2994,"ĠMet":2995,"turkey":2996,"tkHyp":2997,"88":2998,"CMS":2999,"MD":3000,"dom":3001,"Ġà®ķà®³à®¤":3002,"à®ħà®²à®Ļ":3003,"à®İà®®à®¤":3004,"à®¹à®Ļ":3005,"aire":3006,"This":3007,"ier":3008,"rd":3009,"à®¯à®ķà®µ":3010,"Ġà®ĩà®°à®ļ":3011,"à®Ĩà®¤à®²":3012,"anc":3013,"Ġ250":3014,"à®®à®²à®°":3015,"Ġhref":3016,"Ġstyle":3017,"HA":3018,"ki":3019,"ĠPro":3020,"à®¨à®ķà®°à®¤":3021,"Rep":3022,"VI":3023,"gle":3024,"à®®à®ķà®³":3025,"Ġà®Ĩà®©à®¨":3026,"Ġhttps":3027,"Ġreturns":3028,"EX":3029,"TD":3030,"oice":3031,"à®·à®ļ":3032,"ech":3033,"email":3034,"à®Ĭà®°":3035,"zambia":3036,"Ġadd":3037,"ĠComment":3038,"ĠRussia":3039,"à®¨à®ķà®°à®Ļ":3040,"IST":3041,"%.":3042,"/~":3043,"97":3044,";{":3045,"UE":3046,"ual":3047,"à®ªà®©à®®":3048,"Ġà®®à®²à®°":3049,"Ġà®¤à®¯à®ķ":3050,"Ġà®ľà®®":3051,"Ġsu":3052,"ĠID":3053,"ama":3054,"ules":3055,"slot":3056,"alonia":3057,"34":3058,"Pr":3059,"hat":3060,"ma":3061,"pc":3062,"à®ļà®°à®ļ":3063,"à®ĩà®¯à®¨":3064,"Ġà®ªà®±à®ķ":3065,"arques":3066,"isp":3067,"Ġ1930":3068,"unic":3069,"asude":3070,"ĠFor":3071,"Ġcomarques":3072,"very":3073,"catalonia":3074,"asudevan":3075,"SD":3076,"à®²à®¯":3077,"à¯Ī/":3078,"Ġà®ħà®ķà®²":3079,"Ġà®µà®ļà®®":3080,"Ġà®¨à®±":3081,"à®°à®ļà®©":3082,"Ġà®ħà®µà®°à®µà®°":3083,"tish":3084,"Ġà®ļà®®à®¨":3085,"ther":3086,"ĠRe":3087,"eneral":3088,"à®ĩà®²à®µà®ļ":3089,"URI":3090,"à¯įâĢĻ":3091,"à®ķà®²à®¤":3092,"à®¿''":3093,"à®¯à®ķà®Ļ":3094,"launchpad":3095,"Ġde":3096,"à®°à®ķà®ļ":3097,"à®īà®£à®µ":3098,"aijan":3099,"irect":3100,"azerb":3101,"azerbaijan":3102,"\"),":3103,"**":3104,"CL":3105,"red":3106,"the":3107,"à®®à®°à®¤":3108,"eration":3109,"Ġà®Īà®ļ":3110,"Ġcol":3111,"ĠUMP":3112,"Ġuser":3113,"à®µà®ļà®¤":3114,"Ġà®¨à®Łà®®":3115,"Ġà®İà®ľà®®":3116,"à®´à®©à®©":3117,"Ġà®ªà®¯à®©à®±":3118,"Ġsearch":3119,"à®¿:%":3120,"ertor":3121,"à®¤à®³à®µà®®":3122,"Ġproperly":3123,"zil":3124,"à¯Ī@":3125,"à®µà®ķà®°":3126,"à®ħà®ķà®²":3127,"à®Ĩà®¤à®°à®µ":3128,"Ġà®ļà®®à®¯":3129,"Ġà®®à®©à®ļ":3130,"à®¹à®µ":3131,"ish":3132,"ĠSPD":3133,"Ġà®ĩà®µà®°à®¤":3134,"ticles":3135,"NU":3136,"UR":3137,"iel":3138,"over":3139,"ral":3140,"à¯ĩà®¾!":3141,"à®°à®®à®®":3142,"à®Ĩà®ķà®µ":3143,"ics":3144,"babwe":3145,"ape":3146,"essive":3147,"imbabwe":3148,"Ġlearn":3149,"à®ĥà®ªà®°":3150,"eek":3151,"olution":3152,"puertor":3153,"puertorico":3154,"Ġ+":3155,"à®¤à®ķà®Ł":3156,"Ġà®ıà®¨":3157,"à®¯à®°à®³à®µ":3158,"estiv":3159,"Ġà®µà®´à®®":3160,"fore":3161,"Ġwhich":3162,"PGP":3163,"estival":3164,"bert":3165,"Ġi":3166,"Ġà®ħà®°à®®à®©":3167,"Ġà®İà®¤à®±":3168,"Ġà®¯à®¤":3169,"à®ļà®®à®Ł":3170,"Ġtranslator":3171,"ection":3172,"Ġwhen":3173,"ueb":3174,"Ġà®ļà®®à®°à®ļà®®":3175,"Ġà®ļà®°à®£à®Ł":3176,"VPN":3177,"nor":3178,"par":3179,"page":3180,"à®ªà®²à®¤":3181,"Ġà®µà®ļà®¨":3182,"à®ħà®ķà®²à®®":3183,"rec":3184,"ĠSch":3185,"ĠMan":3186,"ĠTimes":3187,"Ġdefault":3188,"\"-":3189,".%":3190,"38":3191,"For":3192,"PO":3193,"Ġà®ħà®®à®²":3194,"à®·à®ª":3195,"erg":3196,"Ġà®ªà®±à®¨":3197,"lace":3198,"Ġktur":3199,"Ġdev":3200,"articles":3201,"Ġà®ĵà®°à®Ļ":3202,"Ġà®īà®Łà®¨":3203,"thail":3204,"Ġhave":3205,"ĠURI":3206,"Ġrules":3207,"spain":3208,"ĠCOM":3209,"ĠLongName":3210,"Ġkturtle":3211,"thailand":3212,"Ind":3213,"à®µà®°à®°":3214,"à®°à®®à®±":3215,"Ġà®ıà®ŀ":3216,"ense":3217,"ĠLanguage":3218,"arty":3219,"pro":3220,"à®°à®ķà®®":3221,"à®¨à®¤":3222,"Ġà®ħà®¹":3223,"à®ªà®¤à®µ":3224,"à®ķà®´à®ķà®Ļ":3225,"ĠSte":3226,"Ġnet":3227,"ecurity":3228,"mbox":3229,"Ġmail":3230,"TTP":3231,"indows":3232,"oiceName":3233,"isplay":3234,"SPD":3235,"eed":3236,"mand":3237,"à¯ĩ:":3238,"à®´à®µ":3239,"Ġà®Łà®©":3240,"Ġ700":3241,"à®īà®²à®ķà®³":3242,"à®ĥà®ķ":3243,"ustom":3244,"IP":3245,"Poss":3246,"VoiceName":3247,"eit":3248,"à®¾)":3249,"à®®à®¤à®¤":3250,"à®ļà®ķà®¤":3251,"Ġà®ļà®ļ":3252,"que":3253,"Ġbefore":3254,"select":3255,"Ġà®ħà®µà®ļà®°à®®":3256,"ackets":3257,"estivalVoiceName":3258,"Possessive":3259,"HP":3260,"Of":3261,"Sp":3262,"cted":3263,"tit":3264,"Ġà®ļà®®à®¯à®Ļ":3265,"à®ªà®°à®¨":3266,"oth":3267,"Ġ37":3268,"Ġà®ħà®ķà®²à®¤":3269,"ĠMon":3270,"ĠISO":3271,"apan":3272,"Ins":3273,"MM":3274,"zimbabwe":3275,"Ġà®ħà®µà®®":3276,"ana":3277,"Ġà®°à®ķ":3278,"à®Ĭà®Ł":3279,"MAND":3280,"ĠCOMMAND":3281,"Res":3282,"UPS":3283,"ool":3284,"à®ķà®©à®®":3285,"à®¯à®ķà®ª":3286,"à®¨à®®à®¤":3287,"à¯Ģ,":3288,"Ġà®²à®ķ":3289,"Ġà®ĩà®£à®ķ":3290,"Ġserver":3291,"Ġà®ªà®°à®²":3292,"ĠBri":3293,"Ġ1995":3294,"raine":3295,"à®ªà®´à®Ļ":3296,"AL":3297,"IT":3298,"ys":3299,"Ã¼":3300,"Ġnnn":3301,"Ġà®Łà®ľà®©":3302,"à®Ĳà®Ł":3303,"à®¿',":3304,"Ġà®īà®ķà®¨":3305,"ĠQueb":3306,"Admin":3307,"Ġbrackets":3308,"ĠQuebec":3309,"SSL":3310,"bur":3311,"Ġà®®à®®":3312,"à¯į.''":3313,"FI":3314,"Meeting":3315,"Ġà®ķà®©à®®":3316,"Ġà®®à®¯":3317,"à®£à®Ł":3318,"à¯į.'":3319,"à®ĩà®¤à®°":3320,"Ġà®ıà®ķà®ª":3321,"inte":3322,"Ġà®ĩà®©à®ķ":3323,"Ġà®²à®Ļ":3324,"urs":3325,"ocial":3326,"ood":3327,"ISO":3328,"ĠShortName":3329,"Cop":3330,"ble":3331,"ser":3332,"uv":3333,"ward":3334,"à®ªà®²à®µ":3335,"à®¯à®ķà®°":3336,"à®£à®ļ":3337,"Ġà®ĩà®ķà®´":3338,"atab":3339,"==":3340,"SM":3341,"TO":3342,"uth":3343,"Â¢":3344,"à®°à®±":3345,"à®³à®¯à®®":3346,"Ġà®¤à®°à®ķ":3347,"à®°à®ļà®Ļ":3348,"à®¤à®®à®Ł":3349,"à®¤à®®à®±":3350,"Ġà®ħà®°à®ļà®°":3351,"tionary":3352,"roman":3353,"ade":3354,"Ġ64":3355,"Ġcontain":3356,"iop":3357,"oom":3358,"res":3359,"Â¨":3360,"à¯ĭ.":3361,"Ġà®ıà®²":3362,"à®Ĩà®´":3363,"Ġà®ķà®°à®£":3364,"Ġà®Ĳà®ª":3365,"ale":3366,"itz":3367,"roll":3368,"à®¹à®²":3369,"ĠDVD":3370,"1998":3371,"ample":3372,"Ġfiles":3373,"oftware":3374,"ition":3375,"à®±à®ľ":3376,"à¯ĭ!":3377,"ĠIt":3378,"à®ĵà®¯":3379,"ull":3380,"tings":3381,"Ġlists":3382,"ĠServerName":3383,"erlink":3384,"integer":3385,"romania":3386,"Script":3387,"ati":3388,"jvijay":3389,"ola":3390,"Ġà®ĥ":3391,"à®®à®ŀ":3392,"Ġà®īà®Łà®®":3393,"atch":3394,"à®ıà®°":3395,"Ġ800":3396,"Ġ2010":3397,"1977":3398,"formation":3399,"AtkHyp":3400,"VS":3401,"à®ļà®¯à®Ļ":3402,"à®¨à®£":3403,"à®¤à®²à®Ļ":3404,"Ġà®ĩà®©à®®":3405,"arg":3406,"options":3407,"atter":3408,"ism":3409,"à¯ģ\",":3410,"à®Ĭà®Łà®ķ":3411,"Ġvalue":3412,"Ġhead":3413,"Ġkeyword":3414,"ĠServerAdmin":3415,"Insert":3416,"AtkHyperlink":3417,"Date":3418,"IG":3419,"oy":3420,"à®ķà®©à®¤":3421,"à®¯à®´":3422,"à®¯à®®à®°":3423,"à®Ĩà®´à®®":3424,"Ġà®Ĳà®ļ":3425,"Ġà®ħà®µà®¨à®®":3426,"ouse":3427,"Ġmin":3428,"ĠNAME":3429,"à®ĵà®µ":3430,"âĢľ":3431,"Ġrem":3432,"ernational":3433,"Indian":3434,"japan":3435,"uania":3436,"à®¿@":3437,"Ġà®µà®°à®µà®´":3438,"Ġà®ļà®®à®ļà®®":3439,"alet":3440,"à¯į'.":3441,"Ġ51":3442,"ĠBJP":3443,"ithuania":3444,"velop":3445,"90":3446,"IV":3447,"ied":3448,"not":3449,"Â¡":3450,"Ġà®ķà®Ļ":3451,"à®ħà®ķà®°":3452,"à®ľà®©à®®":3453,"alse":3454,"Ġcurrent":3455,"2009":3456,"Ġà®µà®ļà®©à®¤":3457,"Ġselected":3458,".,":3459,"37":3460,"Font":3461,"ihot":3462,"à®©à®ªà®²":3463,"à®³à®³à®µ":3464,"Ġà®ķà®¨":3465,"Ġà®İà®¯":3466,"à®ħà®°à®Ł":3467,"à®ķà®®à®¤":3468,"à®īà®´":3469,"à®ªà®°à®µ":3470,"à®µà®ķà®Ļ":3471,"Ġà®¹à®Ł":3472,"Ġà®¹à®Ļ":3473,"lean":3474,"Ġrich":3475,"ĠAlbert":3476,"agnihot":3477,"Ġamount":3478,"IO":3479,"Time":3480,"wsw":3481,"à®ªà®³à®µ":3482,"à®©à®µà®±":3483,"Ġà®ĵà®ķ":3484,"pres":3485,"oundation":3486,"45":3487,"DO":3488,"list":3489,"Ġà®ħà®µà®ķ":3490,"Ġà®¨à®¨":3491,"à®·à®²":3492,"time":3493,"Ġà®ĩà®²à®¤":3494,"à®īà®ªà®¯":3495,"Ġà®Łà®¯à®¸":3496,"Ġà®Ĭà®ļ":3497,"Ġdate":3498,"ical":3499,"Ġ1960":3500,"ĠGu":3501,"Ġ1996":3502,"Ġcomp":3503,"à®īà®²à®ķà®¤":3504,"48":3505,"Ġà®®à®¤à®°":3506,"Ġà®¤à®¯à®Ļ":3507,"Ġback":3508,"ĠAn":3509,"Ġà®Ĩà®µà®£à®®à®±":3510,"AW":3511,"Ex":3512,"à®³à®ªà®Ł":3513,"Ġà®ıà®ľ":3514,"Ġà®°à®ª":3515,"ictionary":3516,"ĠEx":3517,"Ġyes":3518,"epaper":3519,"umn":3520,"Ġlike":3521,"Ġprogram":3522,"Ġen":3523,"Ġà®ħà®¯":3524,"Ġà®µà®ŀ":3525,"Ġà®Ĳà®¯à®¤":3526,"orn":3527,"Ġplain":3528,"Ġ32":3529,"Ġ33":3530,"ĠParty":3531,"igh":3532,"Ġstart":3533,"1989":3534,"98":3535,"HO":3536,"lithuania":3537,"nbsp":3538,"Ġenc":3539,"à®³à®Ł":3540,"à¯ĩ...":3541,"à®ķà®³à®µà®°":3542,"à®ļà®°à®£":3543,"Ġà®ķà®¯":3544,"Ġà®¤à®³à®µ":3545,"à®µà®°à®ļ":3546,"à®¤à®®à®¤":3547,"à®Łà®°à®ª":3548,"à®īà®±à®µ":3549,"à®²à®®à®©":3550,"Ġà®ħà®µà®®à®¤":3551,"gmail":3552,"reet":3553,"Ġà®ĵà®°à®®":3554,"Ġ48":3555,"Ġmunic":3556,"indones":3557,"Ġform":3558,"ĠZeit":3559,"ipali":3560,"Ġtrue":3561,"ohn":3562,"Ġmunicipali":3563,"indonesia":3564,"Ġmunicipalities":3565,"AP":3566,"An":3567,"be":3568,"fer":3569,"gn":3570,"Ġent":3571,"à®©à®¤à®²":3572,"à®¯à®£à®©":3573,"à®±à®±":3574,"à®µà®²à®ķ":3575,"Ġà®ĩà®°à®Ļ":3576,"river":3577,"à®ľà®©à®ªà®²":3578,"agu":3579,"ĠDr":3580,"1996":3581,"lick":3582,"wsws":3583,"DM":3584,"FL":3585,"ux":3586,"}'":3587,"à®±à®¯":3588,"Ġdpi":3589,"Ġpar":3590,"à®ªà®²à®°":3591,"Ġ55":3592,"ador":3593,"Ġevery":3594,"ĠJean":3595,"Ġà®ļà®®à®°à®ļà®¤":3596,"ĠEnvelop":3597,"Coptic":3598,"atabase":3599,"ĠAlberta":3600,"à®ĩà®°à®µ":3601,"à®ħà®ķà®±":3602,"Ġà®Ĩà®ķà®ķ":3603,"Ġà®ħà®µà®©à®µà®©":3604,"Ġà®ĵà®°à®¤":3605,"Ġ38":3606,"china":3607,"query":3608,"CDU":3609,"cu":3610,"dpi":3611,"à®¿+":3612,"à®³à®¯à®¤":3613,"Ġà®µà®²à®®":3614,"Ġ(*.":3615,"Ġ'{":3616,"Ġsystem":3617,"Ġfalse":3618,"thiop":3619,"Ġmove":3620,"ĠGiB":3621,"Ġev":3622,"ersion":3623,"Ġà®Ĩà®´à®¤":3624,"should":3625,"ukraine":3626,"ĠBritish":3627,"thiopian":3628,"CS":3629,"QL":3630,"ced":3631,"fter":3632,"lot":3633,"à¯Ĩ.":3634,"ority":3635,"Ġà®ĩà®Łà®µ":3636,"ĠGM":3637,"ĠOpen":3638,"ATH":3639,"Ġonly":3640,"à®ĥà®İà®ª":3641,"fice":3642,"Ġspec":3643,"WSWS":3644,"Ġapplic":3645,"plug":3646,"::":3647,"Ethiopian":3648,"ghan":3649,"palet":3650,"à®°à®ªà®Ł":3651,"à®ľà®ļ":3652,"à¯ģ,\"":3653,"ĠTr":3654,"ĠAr":3655,"ĠXML":3656,"gradient":3657,"ombia":3658,"ĠEnvelopepaper":3659,"75":3660,"Ac":3661,"Key":3662,"hy":3663,"here":3664,"à®¤à®Łà®Ļ":3665,"Ġà®®à®¤à®ķ":3666,"à®ķà®¤à®µ":3667,"men":3668,"Ġdir":3669,"INT":3670,"layer":3671,"ghanistan":3672,"95":3673,"DN":3674,"View":3675,"à®±à®Ł":3676,"Ġà®®à®¤à®®":3677,"à®ķà®®à®³":3678,"à®¯à®²à®±":3679,"Ġà®°à®¹":3680,"à®¯à®µà®¨":3681,"Ġ42":3682,"Ġweek":3683,"1979":3684,"colombia":3685,"Ġcolumn":3686,"JU":3687,"Ġout":3688,"à®Łà®ªà®¤":3689,"à®ĩà®¤à®´":3690,"Dev":3691,"LL":3692,"custom":3693,"lin":3694,"mal":3695,"à®ªà®´à®®":3696,"à¯Ĥ(":3697,"ates":3698,"ĠCtrl":3699,"icense":3700,"ĠxB":3701,"india":3702,"afghanistan":3703,"acters":3704,"Next":3705,"line":3706,"oop":3707,"Âł":3708,"à®ļà®°à®®":3709,"à®ļà®°à®¤":3710,"à¯Ĥ-":3711,"à®ĩà®°à®¤":3712,"à®ħà®ľ":3713,"à®Łà®°à®²":3714,"Ġà®¹à®©":3715,"ĠSp":3716,"ĠIP":3717,"def":3718,"oogle":3719,"Ġconfig":3720,"Ġstates":3721,"ĠControl":3722,"Ar":3723,"IMAP":3724,"ha":3725,"à®²à®µà®©":3726,"à®²à®µà®°à®®":3727,"à¯Ī--":3728,"Ġdirect":3729,"à®ªà®©à®Ļ":3730,"ocu":3731,"oolean":3732,"9660":3733,"31":3734,"OE":3735,"OS":3736,"br":3737,"ein":3738,"Ġà®µà®°à®¤":3739,"ĠBr":3740,"ower":3741,"vid":3742,"1991":3743,"1983":3744,"44":3745,"MY":3746,"Neut":3747,"co":3748,"den":3749,"lock":3750,"via":3751,"zoom":3752,"Â°":3753,"à®®à®°à®®":3754,"à®®à®Łà®Ļ":3755,"Ġà®Ĵà®ļ":3756,"Ġà®ħà®°à®ļà®©":3757,"Ġsign":3758,"ush":3759,"ĠFrank":3760,"umbia":3761,"geria":3762,"rons":3763,"ĠColumbia":3764,"Ġcharacters":3765,"Neutrons":3766,"GE":3767,"di":3768,"gets":3769,"ris":3770,"à®²à®¤à®©à®®":3771,"Ġà®ħà®ªà®¤":3772,"Ġà®ıà®ķà®®":3773,"ĠMeeting":3774,"rib":3775,"Ã¨re":3776,"09":3777,"150":3778,"32":3779,"Boolean":3780,"Int":3781,"mark":3782,"ras":3783,"à®¾;":3784,"à®¯à®¯":3785,"à®¨à®¨":3786,"Ġà®Ĩà®ļà®©à®Ļ":3787,"Ġà®ķà®²à®ª":3788,"header":3789,"ĠAb":3790,"ĠRem":3791,"emp":3792,"1997":3793,"1976":3794,"eff":3795,"Print":3796,"Open":3797,"XML":3798,"Ġà®ĩà®Łà®°":3799,"tific":3800,"à®īà®ķ":3801,"ĠCogl":3802,"à®ıà®ĵ":3803,"ribu":3804,"chann":3805,"irst":3806,"à®īà®²à®ķà®ª":3807,"rite":3808,"orea":3809,"DTS":3810,"bar":3811,"zaire":3812,"mex":3813,"à®īà®Łà®²":3814,"Ġnon":3815,"ĠtBoolean":3816,"alb":3817,"real":3818,"Ġà®ħà®ļà®Ł":3819,"Ġmust":3820,"ĠGeneral":3821,"Ġ1994":3822,"ĠNameMeeting":3823,"press":3824,"\":":3825,"EE":3826,"Image":3827,"LS":3828,"RU":3829,"car":3830,"ptions":3831,"Ġà®ļà®Łà®²à®Ļ":3832,"Ġà®Ĩà®¤à®²":3833,"Ġà®ĩà®²à®µà®ļà®®":3834,"ĠMess":3835,"ĠAs":3836,"ĠLTTE":3837,"ĠOuv":3838,"ĠRes":3839,"Ġà®ĩà®³à®¨":3840,"ects":3841,"Ġimp":3842,"ĠOuvri":3843,"En":3844,"FP":3845,"eh":3846,"ky":3847,"ler":3848,"no":3849,"ose":3850,"pt":3851,"shtml":3852,"à®°à®ķà®°":3853,"à®®à®©à®¤":3854,"à®²à®ķà®²":3855,"Ġà®Ĩà®Łà®®":3856,"inic":3857,"edia":3858,"Ġdesktop":3859,"Ġ1950":3860,"ilot":3861,"amount":3862,"ift":3863,"ROAN":3864,"Ġwidth":3865,"sche":3866,"Ġà®İà®ĥà®ķ":3867,"à®ĩà®°à®ķà®ļ":3868,"à®ªà®¤à®®":3869,"à®ķà®®à®Ł":3870,"ane":3871,"Ġ\"-":3872,"inter":3873,"à®Ĵà®ķ":3874,"ica":3875,"style":3876,"à®µà®£à®©":3877,"Ġfolder":3878,"ĠAll":3879,"inder":3880,"1987":3881,"Ġopen":3882,"Ġà®®à®°à®£à®®à®Ł":3883,"tamilpc":3884,"AC":3885,"bs":3886,"back":3887,"eal":3888,"iran":3889,"map":3890,"ren":3891,"wan":3892,"à®²à®ķà®µ":3893,"à®¯à®ŀ":3894,"à¯ĩ\"":3895,"à®´à®ķà®®":3896,"à®¯à®°à®°":3897,"Ġty":3898,"Ġà®ĩà®¤à®¯à®¤":3899,"alam":3900,"Ġà®ªà®²à®ķà®®":3901,"ott":3902,"Ġcategory":3903,"ild":3904,"ĠPost":3905,"uration":3906,"ĠNPA":3907,"Ġrepublic":3908,"ĠStreet":3909,"udan":3910,"ĠQu":3911,"IFY":3912,"dominic":3913,"Ġweekday":3914,"mexico":3915,"dominican":3916,"WM":3917,"aro":3918,"bra":3919,"à®¤à®ķà®ª":3920,"à®¯à®©à®°":3921,"à®ĩà®³à®®":3922,"à®¯à®°à®¤":3923,"à®¤à®®à®²":3924,"à®µà®©à®µà®±":3925,"Ġà®°à®Ł":3926,"Ġà®ļà®®à®µ":3927,"ited":3928,"Ġà®ĵà®²":3929,"Ġà®ĵà®ªà®©":3930,"Ġinlist":3931,"à®°à®ķà®Łà®©à®¤":3932,"ĠLa":3933,"Ġmod":3934,"dex":3935,"Ġà®ķà®³à®ŀ":3936,"1995":3937,"tical":3938,"PPP":3939,"STIFY":3940,"NTS":3941,"JUSTIFY":3942,"Mail":3943,"mt":3944,"tach":3945,"à®¾\"":3946,"à®¯à®Łà®ķ":3947,"à®±à®³à®µ":3948,"Ġà®®à®¯à®ķ":3949,"Ġà®īà®µà®®":3950,"à®¯à®®à®©à®®":3951,"Ġà®Īà®´":3952,"eden":3953,"Ġdisplay":3954,"reg":3955,"acter":3956,"Ġ54":3957,"ĠII":3958,"ĠIf":3959,"Ġmay":3960,"âĢł":3961,"à®¤à®³à®ªà®¤":3962,"Ġvar":3963,"Ġversion":3964,"Ġspac":3965,"ĠInternational":3966,"\"--":3967,"66":3968,"Web":3969,"mo":3970,"sà®Ĳ":3971,"Â¸":3972,"Ġ`":3973,"Ġro":3974,"à¯į[":3975,"à¯Ī]":3976,"Ġà®µà®¤à®¨":3977,"à¯į.)":3978,"à®ħà®µà®ļ":3979,"Ġà®ľà®ķ":3980,"à®¤à®°à®ķà®¤":3981,"à®¯à®®à®²":3982,"à®±à®®à®Ł":3983,"à®¿.)":3984,"adio":3985,"ĠFran":3986,"Ġà®Ĩà®µà®£à®ª":3987,"Ġinlistbox":3988,"Com":3989,"OT":3990,"iod":3991,"ole":3992,"ryp":3993,"ray":3994,"à®²à®Łà®Ļ":3995,"à®ĩà®±à®¨":3996,"Ġà®Īà®´à®¤":3997,"Ġà®²à®¤":3998,"Ġà®µà®£à®Ļ":3999,"etwork":4000,"ecu":4001,"ĠUPA":4002,"Ġlatin":4003,"ppp":4004,"Ġ1989":4005,"Ġ*âĢł":4006,"urrpage":4007,"Ġfilter":4008,"Ġlocal":4009,"recurrpage":4010,"LCR":4011,"mon":4012,"toc":4013,"way":4014,"à¯Ī..":4015,"Ġà®īà®°à®¤":4016,"à®ħà®¸":4017,"à®ķà®°à®Ļ":4018,"Ġà®ķà®°à®Ļ":4019,"orld":4020,"à®µà®®à®±":4021,"Ġà®®à®¤à®ļ":4022,"Ġdet":4023,"Ġdata":4024,"review":4025,"1960":4026,"ĠMIME":4027,"ĠFoundation":4028,"à¯ģ),":4029,"LES":4030,"redhat":4031,"Free":4032,"Fmt":4033,"PC":4034,"Security":4035,"aDate":4036,"cl":4037,"mu":4038,"à®ķà®²à®ķ":4039,"hether":4040,"à®Ĳà®¯":4041,"Ġ34":4042,"Ġbeen":4043,"Ġconn":4044,"ungary":4045,"Ġwidgets":4046,"GHS":4047,"ield":4048,"Ġspecif":4049,"ĠRemote":4050,"aDateFmt":4051,"à®²à®ļà®¨":4052,"à®ķà®³à®°":4053,"mer":4054,"à®°à®£à®ªà®²":4055,"Ġà®ļà®°à®ķ":4056,"ĠUN":4057,"pport":4058,"1981":4059,"ĠCDU":4060,"COP":4061,"ĠPSG":4062,"ĠCPM":4063,"tocol":4064,"68":4065,"IR":4066,"à®ªà®ŀ":4067,"à®²à®¤à®©":4068,"Ġà®¨à®°à®ķà®¤":4069,"Ġà®Ĵà®ķ":4070,"Ġà®Ĵà®¸":4071,"Ġà®ĩà®°à®¤à®Ļ":4072,"à®ĩà®Łà®Ļ":4073,"à®°à®ļà®ª":4074,"à®¤à®µà®ķ":4075,"erm":4076,"ala":4077,"algeria":4078,"Ġà®ķà®²à®ķà®®":4079,"Ġà®µà®²à®ª":4080,"Ġ39":4081,"utes":4082,"ĠEl":4083,"emoc":4084,"uela":4085,"1975":4086,"endar":4087,"Ġ1945":4088,"........":4089,"ireland":4090,"ĠNews":4091,"venez":4092,"Ġaddress":4093,"channels":4094,"brazil":4095,"venezuela":4096,"(%":4097,"400":4098,"89":4099,"ASE":4100,"DL":4101,"hen":4102,"Ġview":4103,"à®®à®°à®Ļ":4104,"Ġà®İà®¤à®©":4105,"à®Ĩà®¯à®¤":4106,"à®īà®®à®¤":4107,"Ġà®Ĳà®Ł":4108,"Ġ-%":4109,"à®ªà®ķà®±":4110,"ict":4111,"Ġcre":4112,"Ġà®µà®£à®ķ":4113,"Ġ44":4114,"ĠAme":4115,"ĠFlo":4116,"Ġmore":4117,"Ġà®®à®°à®ªà®£":4118,"39":4119,"Cai":4120,"Play":4121,"fin":4122,"game":4123,"host":4124,"hungary":4125,"ru":4126,"à®µà®Łà®®":4127,"Ġà®ªà®¯à®¤":4128,"Ġà®®à®£à®®":4129,"Ġà®®à®°à®ķ":4130,"Ġà®īà®¤à®Ł":4131,"à®µà®°à®£à®®":4132,"Ġà®Ĩà®ķà®²":4133,"à®Łà®¤à®²":4134,"à®ħà®ķà®¤":4135,"Ġà®ļà®®à®ļ":4136,"à®Łà®µà®ļà®®":4137,"hell":4138,"lement":4139,"url":4140,"ĠFO":4141,"temp":4142,"emon":4143,"Cairo":4144,"CGT":4145,"ED":4146,"GROAN":4147,"IC":4148,"MF":4149,"MO":4150,"size":4151,"à¯įâĢĿ":4152,"Ġà®ķà®®à®°":4153,"Ġà®®à®Łà®ķ":4154,"à®ļà®®à®®":4155,"ĠCity":4156,"ĠSocial":4157,"ĠSoftware":4158,"ĠPar":4159,"Ġ59":4160,"à¯ģ\".":4161,"utte":4162,"à®·à®©à®²":4163,"ows":4164,"thumbright":4165,"1970":4166,"72":4167,"NA":4168,"VP":4169,"sudan":4170,"Ġà®ķà®ľ":4171,"Ġà®®à®µ":4172,"Ġà®¨à®°à®®":4173,"Ġà®Ĩà®ľà®°":4174,"à®¤à®²à®°":4175,"Ġà®°à®©":4176,"rand":4177,"ĠMc":4178,"à®µà®ļà®¨":4179,"Ġline":4180,"ĠcomEMAIL":4181,"ugal":4182,"sweden":4183,"portugal":4184,"Alt":4185,"otherf":4186,"itzer":4187,"ĠZeitung":4188,"49":4189,"RA":4190,"UCK":4191,"rt":4192,"à®ªà®ªà®Ł":4193,"Ġà®ªà®µà®²":4194,"à®¨à®²à®©":4195,"Ġà®īà®¤à®±":4196,"ini":4197,"lack":4198,"Ġà®ħà®µà®Ļ":4199,"ĠCent":4200,"stan":4201,"thod":4202,"Ġhour":4203,"apital":4204,"Ġ1983":4205,"ava":4206,"Ġword":4207,"74":4208,"cm":4209,"mall":4210,"pos":4211,"uc":4212,"ĠâĻª":4213,"à®ķà®¨à®²":4214,"à®®à®¤à®ª":4215,"à®µà®¯":4216,"Ġà®ķà®µà®ļ":4217,"à®¨à®®à®ķ":4218,"Ġà®¤à®ļà®®":4219,"Ġà®¨à®ª":4220,"à®³à®¤à®±":4221,"à®ķà®²à®µ":4222,"ins":4223,"arch":4224,"atche":4225,"à®µà®²à®©":4226,"à®ªà®£à®¤":4227,"ĠSask":4228,"Ġwas":4229,"Ġmode":4230,"ĠRegion":4231,"Ġlog":4232,"Ġ1992":4233,"asee":4234,"ibb":4235,"256":4236,"itzerland":4237,"atchewan":4238,"ĠSaskatchewan":4239,"Ctrl":4240,"Day":4241,"No":4242,"PATH":4243,"ois":4244,"wn":4245,"Ġ000":4246,"à¯įà¯į":4247,"à®Łà®¯":4248,"à®ªà®ķà®°à®®":4249,"à®³à®©à®¤":4250,"Ġà®µà®Łà®ª":4251,"Ġà®İà®®à®ķ":4252,"à®¯à®¤à®³":4253,"Ġà®ıà®¯":4254,"à®¯à®©à®µ":4255,"Ġà®°à®£":4256,"ald":4257,"Ġinformation":4258,"une":4259,"à®¾.)":4260,"Ġà®·à®ķ":4261,"Ġ85":4262,"ĠUSA":4263,"ARS":4264,"lient":4265,"vanced":4266,"Ġselect":4267,"ĠMonde":4268,"Ġheaders":4269,"Ġreminder":4270,"130":4271,"77":4272,"Ab":4273,"DF":4274,"File":4275,"TR":4276,"gt":4277,"lan":4278,"rror":4279,"tes":4280,"à®®à®¹":4281,"à®²à®¯à®®":4282,"Ġà®Ĩà®µà®²":4283,"à®ħà®°à®ª":4284,"à®ľà®©à®¤":4285,"tif":4286,"à®¤à®µà®®":4287,"Ġtag":4288,"las":4289,"Ġà®īà®£à®°à®ª":4290,"lex":4291,"ĠOn":4292,"ĠRep":4293,"ocean":4294,"ĠHTTP":4295,"Ġ/%":4296,"Ġà®ļà®ķà®²à®µ":4297,"Ġshort":4298,"switzerland":4299,"ĠURLs":4300,"ivers":4301,"Ġformat":4302,"Ġspaces":4303,"oceania":4304,":\"":4305,"BS":4306,"VCD":4307,"drd":4308,"driver":4309,"ium":4310,"ltr":4311,"à®³à®¨":4312,"Ġà®ħà®°à®µ":4313,"à®ľà®¸":4314,"Ġdiff":4315,"olic":4316,"riority":4317,"ĠIA":4318,"ĠFree":4319,"Ġmm":4320,"ĠGame":4321,"à®¨à®Łà®¨":4322,"ĠEU":4323,"âĢĵ":4324,"Style":4325,"quest":4326,"Ġgeneric":4327,"1994":4328,"1978":4329,"ible":4330,"ynam":4331,"mmc":4332,"drdao":4333,"06":4334,"Type":4335,"ok":4336,"sch":4337,"uz":4338,"Ġend":4339,"Ġireland":4340,"à®ĩà®±à®Ļ":4341,"Ġ---":4342,"Ġsrc":4343,"Ġsecond":4344,"Ġ56":4345,"ĠLicense":4346,"ĠDa":4347,"Ġ95":4348,"1982":4349,"Ġaccess":4350,"Ġwhite":4351,"ahj":4352,"Ġlevel":4353,"Ġ1940":4354,"Ġchang":4355,"ocuments":4356,"Ent":4357,"KA":4358,"PT":4359,"TM":4360,"VER":4361,"sà®ķ":4362,"Ġà®Ĩà®°à®µ":4363,"Ġà®Łà®®":4364,"à®ļà®®à®°":4365,"à®¾?\"":4366,"olf":4367,"à¯į?\"":4368,"Ġà®īà®²à®ķà®¨":4369,"ĠIMAP":4370,"utton":4371,"Ġman":4372,"Ġ88":4373,"Ġ900":4374,"ifelix":4375,"rice":4376,"nuPG":4377,"ongg":4378,"pieg":4379,"CIO":4380,"NOME":4381,"ĠIAEA":4382,"ahjongg":4383,";%":4384,"Dr":4385,"FS":4386,"If":4387,"NC":4388,"ding":4389,"kn":4390,"ps":4391,"Ġà®ĩà®³à®µ":4392,"Ġà®¨à®Łà®©":4393,"à¯ĭ-":4394,"à®ľà®¯à®¤":4395,"Ġà®Ĳà®¤":4396,"à®ªà®°à®²":4397,"ache":4398,"olia":4399,"ĠPublic":4400,"urph":4401,"ĠIV":4402,"ĠIns":4403,"erson":4404,"ups":4405,"à®Ĭà®¤":4406,"ĠVasudevan":4407,"ync":4408,"ursor":4409,"effects":4410,"cal":4411,"rame":4412,"ular":4413,"à¯ģ_":4414,"à®£à®¯à®¤":4415,"Ġà®ļà®Łà®Ļ":4416,"Ġà®ĩà®·":4417,"Ġ(-":4418,"à®ļà®°à®ķà®¤":4419,"à®©à®µà®³":4420,"à®Ĳà®ı":4421,"Ġ360":4422,"Ġ49":4423,"ĠIG":4424,"Ġ125":4425,"ency":4426,"ences":4427,"1993":4428,"obert":4429,"elete":4430,"ĠCommun":4431,"Ed":4432,"Id":4433,"NS":4434,"Ph":4435,"POP":4436,"VAR":4437,"led":4438,"lob":4439,"ner":4440,"och":4441,"south":4442,"à®¤à®Łà®µ":4443,"à®Łà®ļà®ª":4444,"Ġà®µà®µ":4445,"Ġ160":4446,"à®¤à®µà®³":4447,"à¯Ī.%":4448,"Ġà®Īà®µ":4449,"Ġpage":4450,"atur":4451,"republic":4452,"ĠCUPS":4453,"Ġcode":4454,"ĠPT":4455,"ĠLib":4456,"ĠFelix":4457,"ĠNor":4458,"ypt":4459,"à¯į''.":4460,"ĠVer":4461,"1974":4462,"à®ĩà®²à®µà®ļà®ķà®³à®®":4463,"Result":4464,"albania":4465,"05":4466,"64":4467,"81":4468,"Non":4469,"UI":4470,"Ġubuntu":4471,"à®Ķ":4472,"Ġà®İà®©à®²":4473,"Ġag":4474,"Ġass":4475,"Ġà®īà®Łà®±":4476,"ĠMA":4477,"Ġà®īà®²à®ķà®ļ":4478,"ĠDemoc":4479,"ias":4480,"ĠRom":4481,"idget":4482,"Ġmethod":4483,"à¯Ī).":4484,"Ġone":4485,"ustral":4486,"SSP":4487,"Ġheight":4488,"Ġapplication":4489,"ĠOuvriÃ¨re":4490,"700":4491,"BI":4492,"CVS":4493,"Database":4494,"EM":4495,"Go":4496,"QFont":4497,"RAN":4498,"__":4499,"dock":4500,"mong":4501,"na":4502,"west":4503,"Ġright":4504,"Ġà®®à®²à®®":4505,"Ġà®µà®ļà®©à®Ļ":4506,"Ġà®Ĵà®¯":4507,"à®¯à®²à®ķ":4508,"à®³à®°à®µà®®":4509,"Ġtab":4510,"late":4511,"Ġdes":4512,"Ġdays":4513,"Ġpre":4514,"à®Łà®µà®±":4515,"ise":4516,"Ġbas":4517,"Ġ52":4518,"à®ĩà®©à®Ļ":4519,"Ġusing":4520,"Ġ1947":4521,"africa":4522,"ĠMetall":4523,"ecuador":4524,"Ġ*âĢł#":4525,"finland":4526,"DayName":4527,"piegel":4528,"QFontDatabase":4529,"NN":4530,"Rest":4531,"SQL":4532,"aul":4533,"ii":4534,"ta":4535,"Ġ`%":4536,"Ġà®ªà®ķà®Ł":4537,"à®ļà®ķà®²":4538,"à®ļà®²à®®":4539,"Ġà®ķà®©à®°":4540,"Ġà®ķà®°à®¤":4541,"à®°à®®à®Ļ":4542,"à®Ĩà®¨":4543,"Ġà®ħà®²à®©":4544,"Ġà®ªà®£à®ª":4545,"Ġpart":4546,"Ġcr":4547,"ĠSee":4548,"Ġfirst":4549,"ĠTrans":4550,"ATE":4551,"Ġcommand":4552,"DEC":4553,"Ġ180":4554,"ART":4555,"1986":4556,"Ġhtml":4557,"Ġ1948":4558,"refer":4559,"Ġ#%":4560,"à®Łà®¯à®®à®£":4561,"ĠInc":4562,"1967":4563,"85":4564,"Game":4565,"Media":4566,"ten":4567,"à®ªà®±à®µ":4568,"à®©à®Łà®®":4569,"Ġà®ķà®¸":4570,"à¯ĩà®¾-":4571,"à®ħà®³":4572,"à®¹à®©":4573,"omat":4574,"Ġdown":4575,"Ġbox":4576,"ĠTO":4577,"ĠAc":4578,"Ġlanguage":4579,"ĠEd":4580,"esson":4581,"Ġ120":4582,"rav":4583,"Ġaccent":4584,"ixbu":4585,"oston":4586,"icture":4587,"mongolia":4588,"ixbuf":4589,"%(":4590,"KW":4591,"dir":4592,"eam":4593,"ever":4594,"ning":4595,"new":4596,"à¤":4597,"à®¯à®°à®®":4598,"Ġà®ľà®²à®¤":4599,"erman":4600,"à®ªà®°à®µà®²":4601,"à®ļà®°à®ķ":4602,"Ġafter":4603,"ature":4604,"abu":4605,"ĠSet":4606,"Ġ43":4607,"ĠPCF":4608,"ĠIs":4609,"ĠUAW":4610,"Ġ1993":4611,"Ġyear":4612,"thumbpx":4613,"à®Ĩà®µà®£à®Ļ":4614,"Ġany":4615,"Advanced":4616,"rgan":4617,"à®ļà®°à®ļà®¤":4618,"olicy":4619,"1200":4620,"Bras":4621,"dk":4622,"documents":4623,"tab":4624,"Ġran":4625,"Ġà®®à®¤à®µ":4626,"à®£à®µà®©":4627,"à¯ģ.''":4628,"à®İà®µà®°":4629,"à®īà®Łà®±":4630,"Ġà®ķà®£à®µà®©":4631,"Ġà®Łà®¯à®°":4632,"Ġad":4633,"à®ªà®²à®©":4634,"Ġ46":4635,"ĠApp":4636,"Ġà®®à®£à®²":4637,"ĠInd":4638,"ĠFucking":4639,"ĠFestivalVoiceName":4640,"ĠBoston":4641,"Ġelement":4642,"rican":4643,"load":4644,"SIGHS":4645,"ĠLongNamePossessive":4646,"Back":4647,"DT":4648,"IMS":4649,"LTTE":4650,"Lesson":4651,"VG":4652,"iti":4653,"Ġid":4654,"Ġà®ªà®®":4655,"Ġà®ķà®°à®®":4656,"Ġà®ľà®µ":4657,"à®µà®©à®µ":4658,"mess":4659,"Ġà®¨à®Łà®°":4660,"Ġà®°à®ĥà®ª":4661,"à®īà®³à®µ":4662,"à¯į----":4663,"ĠWork":4664,"ailed":4665,"hiss":4666,"oundland":4667,"Ġsupport":4668,"à®ļà®°à®ļà®®":4669,"ibbean":4670,"ynamics":4671,"known":4672,"Restart":4673,"RT":4674,"low":4675,"Â¾":4676,"à®©à®¤à®®":4677,"Ġà®¤à®ķà®µ":4678,"à®¯à®²à®²":4679,"à®ķà®°à®ª":4680,"eria":4681,"à®Ĵà®¯":4682,"Ġà®ļà®°à®Ļ":4683,"Ġ%.":4684,"Ġco":4685,"ĠBar":4686,"Ġmap":4687,"Ġmotherf":4688,"ĠGL":4689,"Ġ99":4690,"sshan":4691,"ILE":4692,"Ġvasee":4693,"Ġcontin":4694,"Ġcontext":4695,"Ġlistbox":4696,"Ġwidget":4697,"ION":4698,"ooper":4699,"caribbean":4700,"omathiss":4701,"message":4702,"sshanmu":4703,"FILE":4704,"Mar":4705,"Options":4706,"Th":4707,"UA":4708,"mi":4709,"à®µà®¸":4710,"Ġà®ļà®¯à®©":4711,"Ġ1200":4712,"à®ķà®²à®Ļ":4713,"Ġtam":4714,"à®ļà®²à®ª":4715,"Ġsound":4716,"Ġà®ħà®ªà®ķà®°":4717,"Ġinst":4718,"à®ıà®±à®¤":4719,"à®Ĩà®©à®¨":4720,"ĠPA":4721,"Ġhost":4722,"Ġ750":4723,"Ġread":4724,"Ġreport":4725,"ticle":4726,"Ġà®®à®°à®£à®¤à®£":4727,"aditional":4728,"brush":4729,"56":4730,"CRL":4731,"cel":4732,"dynamics":4733,"ea":4734,"foundland":4735,"à¯ĭ'":4736,"Ġà®Ĳà®¯à®®":4737,"Ġà®ĩà®©à®µà®´":4738,"Ġà®ķà®²à®µà®°à®Ļ":4739,"Ġà®ªà®°à®¸":4740,"ĠColor":4741,"ĠCapital":4742,"rid":4743,"ĠFile":4744,"Ġ82":4745,"ATO":4746,"Ġthan":4747,"Ġ[%":4748,"1992":4749,"1985":4750,"uman":4751,"egypt":4752,"endOptions":4753,"iant":4754,"DAY":4755,"ĠNewfoundland":4756,"Ġexample":4757,"Ġimport":4758,"anka":4759,"ESendOptions":4760,"ĠShortNamePossessive":4761,"default":4762,")%":4763,",\"":4764,"La":4765,"Le":4766,"à®Łà®Łà®Ļ":4767,"à®ļà®¯à®©":4768,"Ġà®ħà®³à®ķ":4769,"Ġà®µà®©à®ª":4770,"Ġà®ªà®Łà®°":4771,"à®¤à®©à®ķ":4772,"Ġà®Ĳà®µà®°":4773,"à®ķà®£à®¤":4774,"Ġinter":4775,"à®¤à®±à®Ł":4776,"ĠMail":4777,"ĠTo":4778,"Ġ47":4779,"ager":4780,"Ġ01":4781,"Ġemail":4782,"âĢĮ":4783,"img":4784,"Ġmeans":4785,"bos":4786,"Ġ1971":4787,"Ġ1944":4788,"lies":4789,"Ġjob":4790,"94":4791,"EC":4792,"Sc":4793,"Text":4794,"fm":4795,"sort":4796,"xy":4797,"ye":4798,"Ġo":4799,"Ġund":4800,"Ġover":4801,"à®°à®¤à®°":4802,"à®ªà®°à®ļ":4803,"à®²à®µà®°à®¤":4804,"à®ļà®ªà®ķ":4805,"Ġà®ķà®´à®ķ":4806,"Ġà®¨à®²à®¤":4807,"à¯ĭ;":4808,"à®µà®¤à®Ļ":4809,"à®©à®¤à®±":4810,"itor":4811,"à®¿.,":4812,"aru":4813,"Ġà®¹à®ķ":4814,"ĠSmall":4815,"à¯į):":4816,"Ġinto":4817,"ille":4818,"oland":4819,"Ġfull":4820,"Ġ41":4821,"ĠBBC":4822,"Ġà®ĩà®µà®³":4823,"ĠKMail":4824,"Ġgomathiss":4825,"Ġred":4826,"ĠView":4827,"ervice":4828,"180":4829,"akh":4830,"NewNew":4831,"SEP":4832,"print":4833,"Ġcontroll":4834,"engal":4835,"norway":4836,"atterns":4837,"notation":4838,"Ġconnection":4839,"thumbrightpx":4840,"Brasero":4841,"'d":4842,"El":4843,"GO":4844,"PR":4845,"XX":4846,"count":4847,"ront":4848,"second":4849,"à®°à®¤à®¤":4850,"à®°à®ªà®°":4851,"Ġà®¨à®´":4852,"à®·à®©à®°":4853,"à®ķà®Łà®Ļ":4854,"ering":4855,"ros":4856,"entin":4857,"à®µà®²à®ª":4858,"lection":4859,"Ġcould":4860,"ĠMDI":4861,"Ġ58":4862,"Ġà®īà®²à®ķà®³à®µ":4863,"à¯į.....":4864,"ĠGNU":4865,"Ġ021":4866,"Ġrec":4867,"Ġà®µà®±à®Ł":4868,"Ġà®Ĩà®´à®®à®Ł":4869,"ĠVPN":4870,"Ġ1968":4871,"Office":4872,"ĠFranklin":4873,"1301":4874,"ĠInstit":4875,"MTP":4876,"PF":4877,"Whether":4878,"bengal":4879,"gar":4880,"lish":4881,"miss":4882,"ters":4883,"Ġqu":4884,"à®ķà®ķà®³":4885,"Ġà®µà®ľ":4886,"Ġà®īà®ªà®µ":4887,"Ġà®Ĩà®·":4888,"à®ĩà®Łà®ª":4889,"onqu":4890,"Ġà®ļà®®à®ª":4891,"Ġà®ħà®²à®±":4892,"à®°à®£à®ª":4893,"à®Łà®ªà®®":4894,"lable":4895,"Ġà®Ĭà®©à®®":4896,"à®ªà®ķà®Ļ":4897,"Ġà®µà®²à®¯à®¤":4898,"outp":4899,"1950":4900,"Ġfont":4901,"ĠMor":4902,"Ġwant":4903,"Ġwrap":4904,"ĠGe":4905,"à®ĵà®ª":4906,"à¯Ī\",":4907,"à®µà®³à®µà®©":4908,"exp":4909,"vert":4910,"ides":4911,"epar":4912,"Ġ1987":4913,"uckin":4914,"order":4915,"Ġsettings":4916,"CHUCK":4917,"process":4918,"Ġnetwork":4919,"Ġminutes":4920,"palettes":4921,"RUNTS":4922,"ĠFloor":4923,"westbengal":4924,"DS":4925,"EL":4926,"PK":4927,"ause":4928,"rat":4929,"Ġq":4930,"Ġà®ķà®³à®ª":4931,"à¯ģ.%":4932,"à¯ģ:-":4933,"Ġsim":4934,"elop":4935,"ĠPPP":4936,"ĠLanka":4937,"ĠFif":4938,"ĠBank":4939,"ĠGroup":4940,"à®Ĭà®Łà®ķà®Ļ":4941,"Ġwhile":4942,"elect":4943,"lands":4944,"Ġspace":4945,"Ġ1969":4946,"sole":4947,"Ġcharacter":4948,"msg":4949,"OfThe":4950,"CSU":4951,"Dialog":4952,"ET":4953,"draw":4954,"gh":4955,"iet":4956,"windows":4957,"à®¿]":4958,"à®°à®µà®®":4959,"à®µà®©à®°":4960,"à¯ĩ)":4961,"à®ķà®³à®±":4962,"à®ļà®ŀ":4963,"à¯į.%":4964,"à®ĩà®©à®µ":4965,"Ġà®ķà®Łà®ª":4966,"à®¯à®²à®µ":4967,"à®İà®ŀ":4968,"à®¯à®®à®¯à®®":4969,"à®Ĩà®ªà®¤":4970,"anir":4971,"ese":4972,"à®ļà®®à®¯à®¤":4973,"Ġà®ķà®²à®µà®°à®¤":4974,"Ġà®ĵà®Ļ":4975,"à®ªà®²à®ķà®®":4976,"à®±à®µà®³":4977,"iles":4978,"stein":4979,"Ġfun":4980,"ĠAd":4981,"ĠIMF":4982,"ĠFig":4983,"uto":4984,"ĠGtk":4985,"ĠRAM":4986,"Ġits":4987,"ĠTRUE":4988,"à®µà®¤à®©à®©":4989,"Ġrun":4990,"Ġradio":4991,"force":4992,"ending":4993,"osition":4994,"Ġoperation":4995,"Ġanand":4996,"1440":4997,"Ġspeed":4998,"Ġà®īà®ªà®ķà®°":4999,"olders":5000,"SOK":5001,"ername":5002,"Ġtrack":5003,"Ġappoint":5004,"latvia":5005,"Ġarticle":5006,"Exp":5007,"Ġcontroller":5008,"ĠFigaro":5009,"Ġappointment":5010,"CSS":5011,"Pro":5012,"hite":5013,"nal":5014,"pan":5015,"Ġother":5016,"à®°à®ľà®©":5017,"à®¯à®ļà®°":5018,"à®ļà®ķà®Ļ":5019,"Ġà®ħà®°à®ķ":5020,"Ġà®īà®²à®°":5021,"à®ħà®µà®¤":5022,"à®°à®®à®ª":5023,"à®¤à®®à®©":5024,"Ġà®¨à®Łà®µ":5025,"Ġà®ļà®®à®¸":5026,"Ġtyp":5027,"itch":5028,"lam":5029,"Ġ350":5030,"Ġà®ĩà®Łà®®à®³":5031,"ĠPress":5032,"ĠAdd":5033,"ĠAFL":5034,"Ġlt":5035,"ĠHel":5036,"Ġà®ĩà®³à®µà®°":5037,"irc":5038,"ither":5039,"mpty":5040,"like":5041,"conom":5042,"ĠÃĹ":5043,"KPilot":5044,"}'?":5045,"Ġ02110":5046,"ĠFifth":5047,"46":5048,"GRUNTS":5049,"Kà®ª":5050,"RC":5051,"Reg":5052,"Up":5053,"clu":5054,"date":5055,"Ã§":5056,"Ãµ":5057,"àª":5058,"à®©à®¯":5059,"Ġà®İà®©à®ļ":5060,"Ġ(.":5061,"Ġ(<":5062,"à®Ĩà®¤à®°":5063,"ertific":5064,"its":5065,"Ġauth":5066,"ename":5067,"enum":5068,"arb":5069,"ots":5070,"oma":5071,"atus":5072,"iste":5073,"thing":5074,"uras":5075,"andard":5076,"ĠRobert":5077,"Ġreques":5078,"à®Ĭà®ķ":5079,"ailable":5080,"Ġ1964":5081,"peru":5082,"period":5083,"context":5084,"OPT":5085,"ĠInter":5086,"hyth":5087,"Ġdirectory":5088,"Ġmodif":5089,"Ġà®ķà®©à®°à®ķ":5090,"clude":5091,"01":5092,"03":5093,"BD":5094,"Color":5095,"CUPS":5096,"DIST":5097,"KS":5098,"ative":5099,"iph":5100,"mahjongg":5101,"oot":5102,"ues":5103,"à®ªà®ĥà®ªà®°":5104,"à®¯à®¤à®²":5105,"Ġà®İà®ĥà®ª":5106,"à¯ģ.)":5107,"à®¤à®²à®©":5108,"à®±à®¤à®©":5109,"à®ķà®°à®ķ":5110,"à®ľà®¨":5111,"eror":5112,"inanc":5113,"Ġav":5114,"à®°à®µà®²à®°":5115,"Ġà®®à®©à®ķ":5116,"arm":5117,"ĠText":5118,"deut":5119,"Ġgt":5120,"ontact":5121,"ratic":5122,"aint":5123,"akan":5124,"Ġà®¨à®ķà®°à®ļà®ª":5125,"ivis":5126,"Ġ1939":5127,"Ġprint":5128,"LOG":5129,"à®ħà®µà®ļà®°à®®":5130,"08":5131,"All":5132,"BIN":5133,"DG":5134,"DCC":5135,"Link":5136,"UV":5137,"aus":5138,"cub":5139,"dia":5140,"description":5141,"gam":5142,"oin":5143,"oad":5144,"ram":5145,"sB":5146,"sa":5147,"à¯ģâĢĻ":5148,"à®¤à®µà®¤":5149,"à®µà®¤à®¤":5150,"à®¤à®°à®£":5151,"à®İà®±":5152,"Ġà®ªà®¤à®±":5153,"Ġà®ļà®°à®µà®£à®©":5154,"Ġkorea":5155,"enn":5156,"Ġdraw":5157,"Ġà®¨à®ķà®°à®µ":5158,"à®¹à®Ł":5159,"atem":5160,"lear":5161,"à®ħà®Łà®Ł":5162,"ĠSSL":5163,"à®Ĳà®ª":5164,"1930":5165,"Ġà®ħà®°à®ĥà®ª":5166,"Ġborder":5167,"ĠPh":5168,"Ġà®Ĩà®²à®¯à®®":5169,"Ġ66":5170,"ĠGo":5171,"à®Īà®´à®¤":5172,"Ġ98":5173,"Ġgrow":5174,"ĠYork":5175,"à¯ģ',":5176,"Ġhelp":5177,"guatem":5178,"Ġzeal":5179,"north":5180,"paragu":5181,"ottom":5182,"Ġà®ĩà®³à®µà®¯à®¤":5183,"Ġagain":5184,"ĠInstitute":5185,"onqueror":5186,"guatemala":5187,"Ġzealand":5188,"paraguay":5189,"++":5190,"04":5191,"76":5192,"Error":5193,"FC":5194,"With":5195,"md":5196,"my":5197,"mar":5198,"vasudevan":5199,"à®ķà®ŀ":5200,"à®±à®°à®ļ":5201,"à®ļà®¯à®¤":5202,"Ġà®ķà®²à®¤":5203,"Ġà®®à®Łà®²":5204,"Ġà®ĩà®¤à®¯à®®":5205,"Ġà®Łà®°":5206,"round":5207,"Ġpop":5208,"Ġ1917":5209,"ĠSouth":5210,"Ġprotocol":5211,"Ġbl":5212,"ĠLutte":5213,"ĠDTD":5214,"Ġ02":5215,"ession":5216,"ails":5217,"raq":5218,"Ġ1979":5219,"grind":5220,"Ġ1967":5221,"ĠAlso":5222,"Reply":5223,"zilla":5224,"Forward":5225,"MYK":5226,"rtvasudevan":5227,"Ġhours":5228,"Ġfunction":5229,"\"{":5230,"52":5231,"91":5232,"92":5233,"FestivalVoiceName":5234,"HTTP":5235,"Out":5236,"OCT":5237,"Page":5238,"disc":5239,"patterns":5240,"uch":5241,"Ã¬":5242,"à¯ģ``":5243,"à®®à®¯à®µ":5244,"à®²à®ľ":5245,"à®µà®ķà®ª":5246,"à®µà®³à®®":5247,"Ġà®ħà®Łà®®":5248,"Ġà®ļà®©à®¤":5249,"Ġà®ļà®ªà®¤à®®":5250,"Ġà®¨à®³":5251,"Ġà®īà®·":5252,"Ġà®Ĩà®³à®ª":5253,"à®ľà®²":5254,"Ġà®ªà®²à®¤à®°à®ª":5255,"lag":5256,"Ġapt":5257,"Ġà®Ĭà®ķà®Ļ":5258,"Ġdivis":5259,"à®°à®ªà®²à®Ļ":5260,"Ġso":5261,"Ġà®¹à®²":5262,"omain":5263,"ĠCPI":5264,"isof":5265,"Ġà®ħà®ķà®©":5266,"Ġà®ħà®ķà®¨":5267,"Ġ450":5268,"à¯į---":5269,"ĠAss":5270,"Ġ62":5271,"Ġ81":5272,"ĠHer":5273,"ĠWeb":5274,"Ġstd":5275,"angola":5276,"ird":5277,"Ġà®ħà®µà®ļà®°à®¤":5278,"ARG":5279,"1988":5280,"oba":5281,"PSG":5282,"plit":5283,"NONE":5284,"ĠThread":5285,"gradients":5286,"Ġvariant":5287,"brushes":5288,"drawable":5289,"OPTION":5290,"hythmbox":5291,"ipher":5292,"isofs":5293,"07":5294,"86":5295,"BO":5296,"DU":5297,"IB":5298,"NP":5299,"National":5300,"Par":5301,"ULL":5302,"air":5303,"eat":5304,"frica":5305,"loc":5306,"oz":5307,"pm":5308,"à®ªà®¹":5309,"à®¯à®ľ":5310,"Ġà®ķà®³à®Ļ":5311,"Ġà®ĩà®¯à®©":5312,"Ġà®īà®ªà®°":5313,"Ġà®Ĵà®£":5314,"à®¸à®¨":5315,"à®ĩà®Łà®µ":5316,"à®Łà®©à®ķ":5317,"à®©à®°à®¤":5318,"ons":5319,"ance":5320,"ality":5321,"entic":5322,"Ġdec":5323,"Ġà®¹à®ª":5324,"à®ªà®²à®µà®ķ":5325,"ĠSri":5326,"à®ıà®¸":5327,"olog":5328,"ĠMin":5329,"ĠTime":5330,"ĠPr":5331,"à®Ĩà®°à®ŀ":5332,"Ġlink":5333,"ĠETA":5334,"ĠEconom":5335,"Ġrep":5336,"vide":5337,"ubject":5338,"Ġ186":5339,"space":5340,"Ġleft":5341,"ĠShape":5342,"Ġexec":5343,"ova":5344,"ĠUnion":5345,"Ġattach":5346,"Ġ1956":5347,"inancial":5348,"GP":5349,"LTR":5350,"RS":5351,"UPA":5352,"dao":5353,"ling":5354,"mov":5355,"part":5356,"picture":5357,"uation":5358,"Ġver":5359,"à®¿),":5360,"Ġà®ľà®°":5361,"Ġà®ĩà®²à®£":5362,"esc":5363,"itoba":5364,"à®ļà®®à®ļà®®":5365,"Ġdictionary":5366,"Ġpl":5367,"Ġsepar":5368,"ĠCF":5369,"ĠCro":5370,"Ġcdrdao":5371,"Ġcups":5372,"ĠSHA":5373,"à¯ģ;...)":5374,"ries":5375,"Ġ63":5376,"ĠGT":5377,"à®ĩà®©à®ª":5378,"ĠOf":5379,"ĠNATO":5380,"ĠKB":5381,"oose":5382,"ĠJohn":5383,"ocket":5384,"config":5385,"luke":5386,"lates":5387,"ĠManitoba":5388,"burma":5389,"InsertInsert":5390,"Ġroot":5391,"Entry":5392,"CHUCKLES":5393,"Ġgrowisofs":5394,"800":5395,"DTD":5396,"GnuPG":5397,"Not":5398,"OM":5399,"Organ":5400,"XDG":5401,"ating":5402,"eep":5403,"fs":5404,"poland":5405,"yd":5406,"ym":5407,"Ã¶":5408,"à®ªà®´à®¨":5409,"Ġà®ĩà®³à®Ļ":5410,"Ġà®īà®¸":5411,"à®ĩà®©à®®":5412,"à®ķà®µà®©à®®":5413,"à®¤à®®à®®":5414,".....":5415,"Ġnbsp":5416,"Ġtemp":5417,"inal":5418,"Ġà®Łà®µ":5419,"Ġà®ªà®¤à®ķ":5420,"Ġamb":5421,"Ġà®ķà®²à®µà®°à®®":5422,"à®ķà®´à®ª":5423,"Ġ1920":5424,"ĠSpiegel":5425,"Ġind":5426,"Ġinput":5427,"à®ıà®ļ":5428,"ete":5429,"à®ĩà®°à®¯":5430,"ĠAg":5431,"Ġ57":5432,"usic":5433,"Ġà®ħà®³à®¨":5434,"Ġ74":5435,"pper":5436,"Ġ1949":5437,"Ġconf":5438,"onduras":5439,"orsche":5440,"padding":5441,"amaica":5442,"ĠGTK":5443,"(\"%":5444,")-":5445,"List":5446,"OU":5447,"Priority":5448,"db":5449,"gin":5450,"honduras":5451,"jamaica":5452,"urop":5453,"vs":5454,"Ġra":5455,"à®ªà®ķà®ª":5456,"à®®à®°à®ķ":5457,"Ġteam":5458,"à®ļà®°à®ķà®®":5459,"Ġkbs":5460,"Ġdomain":5461,"à®µà®²à®Ļ":5462,"abled":5463,"ĠSMTP":5464,"à®Ĳà®¸":5465,"Ġà®ħà®ķà®ļ":5466,"ĠMurph":5467,"ĠFBI":5468,"à®ĩà®©à®ķ":5469,"Ġ720":5470,"chile":5471,"à®ªà®¯à®£à®®":5472,"ĠEMAIL":5473,"Ġà®ªà®°à®µà®ļà®¨":5474,"iffic":5475,"Ġ>%":5476,"ugh":5477,"à®¾',":5478,"oding":5479,"ucker":5480,"ĠĠĠ":5481,"azakh":5482,"Ġheader":5483,"aysia":5484,"Ġdevice":5485,"====":5486,"ĠRoman":5487,"deutsche":5488,"movenum":5489,"BA":5490,"BIL":5491,"KD":5492,"NOR":5493,"OL":5494,"UID":5495,"bre":5496,"ks":5497,"pend":5498,"ze":5499,"à®®à®ľ":5500,"à®µà®µà®²":5501,"Ġà®µà®¯à®ļ":5502,"à®·à®£":5503,"Ġà®ľà®¨":5504,"Ġnick":5505,"Ġà®ªà®²à®µà®¨":5506,"Ġclick":5507,"Ġdocu":5508,"ĠMD":5509,"rial":5510,"ĠAct":5511,"ĠDE":5512,"Ġmake":5513,"Ġoff":5514,"ĠOut":5515,"Ġ78":5516,"Ġ1024":5517,"ulgar":5518,"ected":5519,"à®ļà®¯à®®à®±":5520,"artz":5521,"ford":5522,"epom":5523,"Ġ1986":5524,"pha":5525,"Ġ1976":5526,"many":5527,"organ":5528,"MSN":5529,"avig":5530,"OPER":5531,"Ġ1953":5532,"IMF":5533,"ĠContribu":5534,"SMTP":5535,"Ġà®ĥà®ªà®¤":5536,"Ġevents":5537,"Ġseconds":5538,"entina":5539,"ReplyForward":5540,"entication":5541,"azakhstan":5542,"Col":5543,"FO":5544,"Loc":5545,"Network":5546,"YY":5547,"canada":5548,"desktop":5549,"ius":5550,"kazakhstan":5551,"à¯į<":5552,"Ġà®Ļ":5553,"à®¤à®ķà®µ":5554,"à®®à®¤à®°":5555,"Ġà®®à®¤à®ª":5556,"Ġ($":5557,"à®¯à®°à®±":5558,"tia":5559,"til":5560,"à®¯à®®à®©à®¤":5561,"Ġà®°à®ŀ":5562,"Ġà®¤à®²à®Ļ":5563,"Ġday":5564,"Ġdialog":5565,"à®°à®ªà®°à®£":5566,"opy":5567,"hel":5568,"Ġ3000":5569,"ĠMove":5570,"ĠAL":5571,"ĠAnd":5572,"ĠImp":5573,"Ġ67":5574,"Ġ68":5575,"Ġ73":5576,"ĠNote":5577,"Ġlib":5578,"Ġ2012":5579,"ĠWolf":5580,"images":5581,"Ġ1500":5582,"Ġ1972":5583,"ipe":5584,"Ġdistribu":5585,"germany":5586,"SIG":5587,"Ġsomething":5588,"1948":5589,"Spread":5590,"argentina":5591,"denmark":5592,"ĠMessages":5593,"Ġambalam":5594,"ulgaria":5595,"epomuk":5596,"ĠContributions":5597,"Ġdistribution":5598,"58":5599,"LM":5600,"LY":5601,"MT":5602,"TE":5603,"TF":5604,"book":5605,"hai":5606,"jpg":5607,"uel":5608,"wo":5609,"à®ķà®°à®ļ":5610,"à®¤à®¤à®²":5611,"à®ªà®´à®ķ":5612,"à®ªà®Ĩà®²":5613,"à®©à®Łà®¤":5614,"à®¯à®ķà®°à®®":5615,"Ġà®ķà®ķ":5616,"Ġà®ķà®²à®ķà®Ļ":5617,"à®¨à®ª":5618,"Ġà®µà®Łà®¤":5619,"à®©à®°à®ŀ":5620,"aning":5621,"align":5622,"Ġdig":5623,"ĠCor":5624,"Ġ1914":5625,"elf":5626,"Ġbar":5627,"à¯į!\"":5628,"ĠNOT":5629,"Ġà®ķà®´à®ķà®Ļ":5630,"rain":5631,"\"><":5632,"Ġ1982":5633,"à¯Ī',":5634,"Ġ1975":5635,"Ġ1977":5636,"COS":5637,"icha":5638,"Ġà®ļà®®à®°à®ļà®ª":5639,"ossible":5640,"VIDE":5641,"Ġunder":5642,"54":5643,"BJP":5644,"DD":5645,"HS":5646,"HST":5647,"KTT":5648,"Man":5649,"See":5650,"Trans":5651,"UL":5652,"Xml":5653,"berg":5654,"bulgaria":5655,"sur":5656,"slo":5657,"ula":5658,"volution":5659,"ÃĤ":5660,"âĦ":5661,"à®¿âĢĻ":5662,"à®¤à®Ĩà®µ":5663,"à®ķà®³à®²":5664,"Ġà®ķà®³à®µ":5665,"Ġà®ķà®ŀ":5666,"Ġà®¨à®ľ":5667,"à®ķà®®à®°":5668,"title":5669,"alid":5670,"Ġà®ªà®²à®µà®ķ":5671,"à®ķà®ķà®Ļ":5672,"Ġà®¨à®ķà®°à®ª":5673,"Ġnames":5674,"reed":5675,"ntu":5676,"ĠSplit":5677,"Ġà®¤à®°à®ķà®°":5678,"ĠMy":5679,"ĠPe":5680,"ĠABC":5681,"ĠData":5682,"user":5683,"ĠGdk":5684,"à®ĵà®ļ":5685,"dev":5686,"ĠWorld":5687,"ugu":5688,"ichard":5689,"convert":5690,"buntu":5691,"CKS":5692,"screen":5693,"presets":5694,"Ġencryp":5695,"palette":5696,"malaysia":5697,"ĠPASOK":5698,"âĦ¢":5699,"120":5700,"57":5701,"FDP":5702,"GI":5703,"MIME":5704,"Widget":5705,"YL":5706,"eah":5707,"uff":5708,"Ã¤":5709,"à¯įà¯Ī":5710,"à®¨à®²à®®":5711,"Ġà®µà®°à®Ł":5712,"à®°à®®à®²":5713,"Ġà®ıà®µà®ª":5714,"à®¤à®°à®ķà®®":5715,"tian":5716,"inch":5717,"Ġplease":5718,"Ġpoint":5719,"Ġà®¤à®®à®¸":5720,"à¯Ī,\"":5721,"à®±à®µà®³à®°":5722,"ĠTele":5723,"ride":5724,"username":5725,"ĠBlack":5726,"à®Īà®µ":5727,"Ġ72":5728,"cher":5729,"Ġempty":5730,"Ġà®Ĭà®Łà®ķà®µ":5731,"Ġ96":5732,"à®¨à®ķà®°à®ª":5733,"à®¿'.":5734,"Ġref":5735,"Ġà®µà®±à®£":5736,"example":5737,"1984":5738,"Ġ1988":5739,"ritten":5740,"Ġwithout":5741,"ika":5742,"Ġevent":5743,"ÂłÂ°":5744,"Arch":5745,"Ġdisplayed":5746,"GROANS":5747,"ĠSocialist":5748,"Ġrequested":5749,"VIDEO":5750,"->":5751,"EU":5752,"Gpg":5753,"It":5754,"JB":5755,"MIN":5756,"Off":5757,"SF":5758,"Times":5759,"User":5760,"bg":5761,"du":5762,"ead":5763,"look":5764,"Ã»":5765,"ÃĢ":5766,"Ġeng":5767,"à®ķà®ķà®ª":5768,"à®Łà®¨à®®":5769,"à®®à®¯à®ª":5770,"à®²à®¹":5771,"à®ķà®³à®£":5772,"à¯Ģ)":5773,"à®ħà®¯à®°":5774,"Ġà®ľà®©à®°à®ŀ":5775,"tist":5776,"à®īà®ªà®¤":5777,"à®ķà®²à®µà®°à®Ļ":5778,"Ġtry":5779,"ered":5780,"eslot":5781,"lad":5782,"Ġà®Ĭà®ļà®²":5783,"ope":5784,"otal":5785,"ley":5786,"rem":5787,"Ġcount":5788,"ĠSecond":5789,"olid":5790,"eland":5791,"Ġfailed":5792,"ĠMMA":5793,"ĠPOP":5794,"ĠAuth":5795,"Ġ5000":5796,"ĠKà®ħà®ŀ":5797,"ĠEmail":5798,"Ġget":5799,"izer":5800,"ontrol":5801,"aine":5802,"à®ªà®´à®©":5803,"1972":5804,"aily":5805,"Ġ1981":5806,"à®¿\",":5807,"à®Ĩà®µà®£à®ª":5808,"Ġitems":5809,"Ġ1943":5810,"Ġ1965":5811,"Ġ1931":5812,"à¯ģ----":5813,"words":5814,"raph":5815,"Ġà®ħà®¹à®®à®¤":5816,"bek":5817,"gnome":5818,"ĠOpenPGP":5819,"Keywords":5820,"Ġimplies":5821,"ĠNorth":5822,"Ġavailable":5823,"480":5824,"DCOP":5825,"Pop":5826,"UK":5827,"UM":5828,"bin":5829,"bug":5830,"emb":5831,"gb":5832,"gz":5833,"hole":5834,"ng":5835,"ple":5836,"Ġoc":5837,"à¯į}":5838,"à®¤à®¯à®Ļ":5839,"à®Łà®ķà®ª":5840,"à®©à®³à®µ":5841,"à®ħà®Łà®ķ":5842,"à®·à®Ł":5843,"Ġà®ĩà®²à®ŀ":5844,"à®Ĩà®´à®¤":5845,"Ġà®ķà®£à®®":5846,"Ġà®ħà®±à®¨":5847,"Ġà®¤à®©à®®":5848,"Ġà®Īà®ķ":5849,"enti":5850,"Ġà®²à®©":5851,"opete":5852,"Ġsend":5853,"ĠCal":5854,"icros":5855,"Ġbin":5856,"eter":5857,"ĠPorsche":5858,"ague":5859,"utf":5860,"ĠBas":5861,"Ġ61":5862,"ami":5863,"ĠEast":5864,"Ġrequest":5865,"ango":5866,"ournal":5867,"Ġ..........":5868,"à®ĥà®ľ":5869,"ĠxAA":5870,"orge":5871,"orgia":5872,"1969":5873,"ĠUnited":5874,"Ġ365":5875,"aji":5876,"avaScript":5877,"Ġà®īà®ªà®ķà®°à®£à®Ļ":5878,"Ã§ois":5879,"bekistan":5880,"99":5881,"At":5882,"EG":5883,"Mark":5884,"OCR":5885,"dictionary":5886,"rist":5887,"set":5888,"vers":5889,"Ãİ":5890,"Ġ\\":5891,"Ġobject":5892,"à®Łà®°à®®":5893,"à®®à®Łà®ķ":5894,"à¯Ī``":5895,"Ġà®ªà®·":5896,"à®ļà®²à®¤":5897,"Ġà®ħà®ļà®°":5898,"Ġà®ħà®ļà®¤":5899,"Ġà®µà®ļà®©":5900,"à¯ĭ_":5901,"à®ħà®Łà®Ļ":5902,"à®¯à®¤à®³à®¤":5903,"à®µà®©à®ª":5904,"Ġà®ªà®Łà®²à®®":5905,"à®²à®®à®Ł":5906,"à®ªà®°à®µà®ļà®¨":5907,"alk":5908,"Ġdis":5909,"ret":5910,"ĠCart":5911,"ĠSystem":5912,"à®ıà®Ł":5913,"Ġfield":5914,"ĠMo":5915,"Ġ53":5916,"à®®à®£à®Ļ":5917,"ĠDev":5918,"ings":5919,"Ġher":5920,"ĠBanir":5921,"ĠHo":5922,"à®¨à®°à®ķà®¤":5923,"ĠVol":5924,"1971":5925,"Ġalso":5926,"128":5927,"Ġ1973":5928,"Ġ1942":5929,"CON":5930,"ĠCOVER":5931,"georgia":5932,"ĠInformation":5933,"Ġ1938":5934,"rowse":5935,"guy":5936,"Ġscreen":5937,"ierre":5938,"VICE":5939,"eedback":5940,"preset":5941,"Ġspecified":5942,"templates":5943,"ĠCommuniste":5944,"ochum":5945,"PKCS":5946,"CA":5947,"EO":5948,"FF":5949,"IX":5950,"KE":5951,"TY":5952,"World":5953,"Â²":5954,"à®¿..":5955,"à¯Ī....":5956,"à®ļà®®à®¤":5957,"à®¨à®Łà®ķ":5958,"Ġà®®à®¯à®Ļ":5959,"Ġà®ļà®ķà®°":5960,"à®ħà®ļà®²":5961,"Ġ('":5962,"Ġà®ķà®°à®Ł":5963,"Ġà®ļà®®à®ķ":5964,"Ġà®Ĳà®²":5965,"alm":5966,"Ġà®ªà®¯à®©à®Ł":5967,"Ġà®Īà®¸":5968,"Ġà®Īà®´à®ª":5969,"Ġà®®à®¤à®Ļ":5970,"enk":5971,"aran":5972,"Ġà®ĩà®Łà®±à®²":5973,"ombo":5974,"let":5975,"à®ªà®²à®ķà®¤":5976,"ility":5977,"à®µà®£à®Ļ":5978,"ĠMat":5979,"ĠAt":5980,"Ġà®īà®¤à®¯à®®":5981,"ĠDow":5982,"ĠDef":5983,"ĠDie":5984,"inger":5985,"ĠIN":5986,"Ġ77":5987,"ĠRight":5988,"à®ªà®¯à®£":5989,"ĠHa":5990,"ĠWindows":5991,"Ġgr":5992,"Ġ1978":5993,"Ġtextbox":5994,"Ġwindows":5995,"1947":5996,"Ã¼d":5997,"OpenGL":5998,"ĠAmerican":5999,"(#":6000,"))":6001,"900":6002,"GNOME":6003,"HEX":6004,"KCh":6005,"fel":6006,"go":6007,"oe":6008,"ration":6009,"san":6010,"sld":6011,"white":6012,"à®ªà®³à®ª":6013,"à®¯Name":6014,"à®±à®µà®ķ":6015,"Ġà®ķà®´à®±":6016,"à¯į.``":6017,"à®ħà®²à®ķ":6018,"onon":6019,"à®ªà®°à®Ł":6020,"alf":6021,"alv":6022,"eston":6023,"ithe":6024,"laude":6025,"Ġkppp":6026,"à®Łà®ķà®ķ":6027,"à®±à®©à®µ":6028,"rough":6029,"Ġda":6030,"à®°à®ªà®ŀ":6031,"Ġpath":6032,"Ġsource":6033,"à®Łà®µà®³":6034,"regions":6035,"ĠCMYK":6036,"à®İà®©à®ª":6037,"iceland":6038,"Ġcertific":6039,"à®Ĳà®®":6040,"à®ıà®µ":6041,"Ġbec":6042,"Ġfr":6043,"à®ķà®ļà®¸":6044,"Ġà®īà®¤à®¯":6045,"off":6046,"urugu":6047,"ĠBl":6048,"à®Īà®´à®®":6049,"ĠNetwork":6050,"ĠHor":6051,"Ġeither":6052,"à®Ĭà®´":6053,"ump":6054,"ego":6055,"herlands":6056,"netherlands":6057,"reely":6058,"PNG":6059,"arning":6060,"Ġà®¨à®°à®ķà®²":6061,"ensity":6062,"Ġresource":6063,"echn":6064,"ĠAng":6065,"Ġentry":6066,"agua":6067,"ĠDemocratic":6068,"sldbg":6069,"regionset":6070,"uruguay":6071,"FA":6072,"PRO":6073,"Ref":6074,"UMP":6075,"bottom":6076,"dash":6077,"gpg":6078,"kali":6079,"nic":6080,"à®ķà®ĩà®°":6081,"Ġà®ªà®¯à®°":6082,"à®ļà®ªà®°":6083,"Ġà®ħà®ķà®´":6084,"à®´à®ļ":6085,"à®ħà®°à®£":6086,"à®ħà®µà®Ļ":6087,"Ġà®ıà®£":6088,"à®³à®°à®ª":6089,"à®¤à®©à®µ":6090,"à®©à®®à®Ł":6091,"atero":6092,"ĠCH":6093,"Ġthey":6094,"Ġbase":6095,"Ġfolders":6096,"ĠMa":6097,"eto":6098,"Ġwrite":6099,"mber":6100,"ural":6101,"ĠFinancial":6102,"Ġmatch":6103,"à®Īà®ļ":6104,"Ġà®¤à®µà®±à®µ":6105,"Ġ71":6106,"ĠNULL":6107,"Ġlines":6108,"Ġequ":6109,"ceiv":6110,"ange":6111,"DEV":6112,"Ġmedia":6113,"à®Ĭà®Łà®ķà®¤":6114,"ources":6115,"Ġshow":6116,"Ġà®¨à®µà®ļà®®à®ļà®®":6117,"eft":6118,"udi":6119,"240":6120,"1963":6121,"Add":6122,"CII":6123,"Alkali":6124,"ĠMetals":6125,"Ġà®ĥà®ªà®ķ":6126,"regator":6127,"Ġà®µà®Łà®ªà®ķ":6128,"ĠPTCL":6129,"ifficult":6130,"icrosoft":6131,"87":6132,"As":6133,"Fi":6134,"KSpread":6135,"OH":6136,"PCF":6137,"Rec":6138,"VAL":6139,"WP":6140,"cil":6141,"der":6142,"itional":6143,"korea":6144,"ness":6145,"nep":6146,"none":6147,"path":6148,"sing":6149,"wml":6150,"Ġedit":6151,"Ġà®£":6152,"à®Łà®Łà®¤":6153,"à®Łà®¯à®²":6154,"à®²à®¯à®©":6155,"à®²à®¯à®Ļ":6156,"à®³à®©à®µ":6157,"Ġà®ķà®²à®®":6158,"à®¨à®²à®µ":6159,"à®£à®¯à®ķ":6160,"à®ħà®³à®ª":6161,"à®µà®¤à®²":6162,"Ġà®µà®°à®¤à®Ł":6163,"à®°à®®à®³":6164,"à®¯à®®à®³":6165,"à®Łà®°à®°":6166,"Ġter":6167,"Ġtamil":6168,"Ġà®¯à®ª":6169,"à®ļà®®à®¯à®Ļ":6170,"Ġ'/":6171,"Ġà®ħà®´à®ķà®ª":6172,"Ġà®Ĭà®©":6173,"armen":6174,"à®©à®®à®±":6175,"Ġà®ħà®µà®©à®¤":6176,"Ġà®ĵà®©":6177,"icode":6178,"ĠSE":6179,"ĠSS":6180,"ĠSound":6181,"Ġà®ħà®ķà®¸":6182,"Ġbel":6183,"ĠPC":6184,"ĠLay":6185,"ĠDes":6186,"ĠDNS":6187,"ason":6188,"ĠGDP":6189,"Ġ84":6190,"app":6191,"apatero":6192,"igue":6193,"aya":6194,"quality":6195,"raf":6196,"ĠShift":6197,"oving":6198,"DIC":6199,"Ġtraditional":6200,"ĠColombo":6201,"Ġprinter":6202,"Ġprabu":6203,"Ġpermiss":6204,"ĠCPE":6205,"Ġà®¨à®°à®ķà®®":6206,"1953":6207,"Ġheading":6208,"Ġtags":6209,"uzbekistan":6210,"southkorea":6211,"ustralia":6212,"dockable":6213,"ĠSettings":6214,"output":6215,"panama":6216,"ology":6217,"Ġtemplate":6218,"ĠteamEMAIL":6219,"estonia":6220,"ithec":6221,"armenia":6222,",...":6223,"Down":6224,"Ret":6225,"\\-":6226,"aug":6227,"button":6228,"client":6229,"flag":6230,"gi":6231,"gang":6232,"just":6233,"kcm":6234,"len":6235,"mask":6236,"sà®ĩà®²":6237,"zech":6238,"à®Łà®¯à®ķ":6239,"à®©à®ķà®°à®®":6240,"Ġà®®à®¸":6241,"Ġà®®à®ľ":6242,"Ġà®ħà®ķà®°à®®":6243,"à®£à®¯à®Ļ":6244,"Ġà®¤à®ķà®®":6245,"à¯į.,":6246,"Ġà®īà®ķà®ª":6247,"Ġà®ĩà®°à®¤à®¤":6248,"à®ĩà®±à®ª":6249,"à®ľà®¤":6250,"ony":6251,"tis":6252,"Ġà®ħà®°à®ļà®®":6253,"à®°à®£à®°":6254,"iter":6255,"Ġà®²à®µ":6256,"Ġà®Ĭà®ķà®®":6257,"Ġcl":6258,"à®£à®®à®Ł":6259,"ilo":6260,"à®¤à®±à®²":6261,"ĠPSO":6262,"ĠLu":6263,"ĠDate":6264,"ĠDCOP":6265,"à®Īà®´":6266,"Ġ76":6267,"à®ĩà®²à®Ł":6268,"ĠNo":6269,"ĠNSA":6270,"à®ĵà®²":6271,"oci":6272,"aph":6273,"Start":6274,"quir":6275,"ified":6276,"ĠJu":6277,"ĠJose":6278,"Ġà®Ĭà®°à®Łà®Ļ":6279,"Ġ240":6280,"PDF":6281,"COU":6282,"IAEA":6283,"ĠChris":6284,"ĠConstellation":6285,"Devhelp":6286,"ĠWorkers":6287,"Ġdaemon":6288,"ifficulty":6289,"41":6290,"AV":6291,"App":6292,"And":6293,"Check":6294,"Fucking":6295,"GC":6296,"GDP":6297,"KOffice":6298,"Preview":6299,"QXml":6300,"When":6301,"YE":6302,"gdb":6303,"iro":6304,"ka":6305,"naire":6306,"pel":6307,"rase":6308,"Âº":6309,"Ëļ":6310,"Ġà¯Ĩ":6311,"Ġà®´":6312,"à®Łà®µà®®":6313,"Ġà®ħà®ķà®®à®¤":6314,"Ġà®¤à®µà®®":6315,"à®µà®¤à®®":6316,"à®ķà®µà®¨":6317,"à®ľà®Ļ":6318,"à®ľà®¯à®©":6319,"à®¤à®µà®£":6320,"Ġnatur":6321,"Ġnavig":6322,"à®°à®£à®ķ":6323,"ales":6324,"alak":6325,"alaji":6326,"à®²à®ķà®©":6327,"lah":6328,"Ġà®²à®ŀ":6329,"ari":6330,"aragua":6331,"ater":6332,"rect":6333,"ĠCooper":6334,"ĠSO":6335,"à®ıà®±à®ķ":6336,"ĠMS":6337,"ĠMi":6338,"Ġà®īà®²à®ķà®ķ":6339,"ried":6340,"ĠAN":6341,"ĠDeut":6342,"ĠFar":6343,"à®Īà®´à®ª":6344,"ĠRev":6345,"à®ĵà®ķ":6346,"à®ĵà®°à®®":6347,"Ġ05":6348,"Ġ08":6349,"ĠUTF":6350,"ĠHIV":6351,"Ġeach":6352,"Ġ/.":6353,"ĠWe":6354,"Ġthen":6355,"Ġcomm":6356,"Ġgener":6357,"Ġgoogle":6358,"Ġ[-":6359,"ackage":6360,"Ġ1984":6361,"Ġalarm":6362,"Ġ1941":6363,"udo":6364,"akistan":6365,"à®īà®¯à®°à®¤":6366,"prc":6367,"Ġ1963":6368,"NTH":6369,"italy":6370,"aff":6371,"ĠÃĢ":6372,"1964":6373,"1968":6374,"ĠÂ«":6375,"tivity":6376,"à®īà®²à®ķà®®à®¯à®®":6377,"ĠLongDayName":6378,"assword":6379,"ĠScreen":6380,"Ġscroll":6381,"Ġprogress":6382,"à®ĥà®ªà®°à®©":6383,"burg":6384,"argin":6385,"Ġencoding":6386,"ĠBrun":6387,"GROANING":6388,"KAB":6389,"Ġ8859":6390,"Phonon":6391,"yemen":6392,"guyana":6393,"nicaragua":6394,"alaksh":6395,"1000":6396,"51":6397,"Bar":6398,"Def":6399,"Delete":6400,"RING":6401,"WW":6402,"Wh":6403,"dy":6404,"mod":6405,"nia":6406,"osp":6407,"su":6408,"sin":6409,"yy":6410,"ynt":6411,"ĠÎ":6412,"Ġic":6413,"Ġurl":6414,"à¯ģà¯į":6415,"à®ķà®ķà®®":6416,"à®²à®ŀ":6417,"à¯Ī_":6418,"Ġà®ļà®¤à®°":6419,"Ġà®¨à®ļà®°":6420,"à®ĩà®´à®¨":6421,"à®ªà®¤à®ķ":6422,"à®³à®°à®ķ":6423,"à®¤à®°à®µà®°":6424,"Ġà®ĩà®²à®ļ":6425,"0000":6426,"Ġ\"\"":6427,"inux":6428,"Ġà®ªà®²à®¨":6429,"Ġpossible":6430,"Ġà®ĩà®Łà®±":6431,"à®ķà®´à®µ":6432,"ices":6433,"ictor":6434,"ĠService":6435,"oul":6436,"Ġà®ļà®ķà®²à®¤":6437,"ĠTom":6438,"riv":6439,"ĠPer":6440,"ĠPolicy":6441,"ington":6442,"uted":6443,"ĠNe":6444,"à®ĵà®°à®Ļ":6445,"Ġ850":6446,"à®°à®¸à®©":6447,"Stre":6448,"Ġreceiv":6449,"ider":6450,"ife":6451,"à®Ĭà®´à®²":6452,"Ġactive":6453,"Ġà®ļà®£à®²":6454,"Ġ140":6455,"ĠâĢľ":6456,"Ġanother":6457,"KDED":6458,"ĠChar":6459,"Ġ1933":6460,"Ġunknown":6461,"neum":6462,"ĠOpenGL":6463,"Ġdetails":6464,"Ġcredit":6465,"Ġtypes":6466,"Ġdocument":6467,"ĠPSOE":6468,"=?":6469,"CIA":6470,"Post":6471,"Pneum":6472,"Sync":6473,"Socket":6474,"bh":6475,"drtvasudevan":6476,"ij":6477,"nick":6478,"otia":6479,"ril":6480,"src":6481,"zone":6482,"à¯į</":6483,"à®¤à®ļà®®":6484,"à®Łà®¯à®ª":6485,"à®°à®ķà®£à®®":6486,"à®©à®ķà®¤":6487,"à®®à®°à®©":6488,"à®³à®Łà®ķà®¤":6489,"Ġà®ªà®¤à®®":6490,"Ġà®ķà®©à®¤":6491,"Ġà®µà®ļà®ª":6492,"Ġà®¨à®¯à®®":6493,"à¯ĩà®¾?":6494,"à®¯à®²à®ķà®®":6495,"Ġà®ıà®Ļ":6496,"à®³à®°à®µ":6497,"à®İà®µà®©":6498,"Ġtwo":6499,"ino":6500,"à®ªà®°à®ķ":6501,"à®¤à®ķà®©":6502,"lave":6503,"à®®à®©à®ļ":6504,"Ġà®ªà®£à®¯à®®":6505,"Ġposition":6506,"à®ªà®ķà®µà®¤":6507,"Ġse":6508,"Ġsame":6509,"Ġsent":6510,"Ġsure":6511,"Ġsoftware":6512,"Ġsalv":6513,"Ġcal":6514,"Ġ1918":6515,"ĠSort":6516,"ĠSection":6517,"à®ıà®²":6518,"elle":6519,"stamp":6520,"Ġfoo":6521,"ĠMO":6522,"ria":6523,"riend":6524,"Ġweb":6525,"Ġ550":6526,"ĠLab":6527,"Ġà®·à®°à®¤":6528,"utan":6529,"ĠBrice":6530,"Ġ6000":6531,"Ġmo":6532,"Ġmul":6533,"Ġmouse":6534,"à®Īà®ķ":6535,"ĠOCR":6536,"à®ħà®°à®ļà®°":6537,"Ġxml":6538,"ĠKar":6539,"ocus":6540,"ĠHar":6541,"Ġext":6542,"cep":6543,"istory":6544,"ĠWh":6545,"Ġ<\\":6546,"Ġacute":6547,"Ġwhere":6548,"erty":6549,"odel":6550,"iller":6551,"ians":6552,"PDS":6553,"âĻ«":6554,"ROUN":6555,"Ġkeys":6556,"ashington":6557,"ĠEng":6558,"Ġpercent":6559,"collection":6560,"ancel":6561,"Ġcomple":6562,"Ġapplications":6563,"viation":6564,"inski":6565,"fmclient":6566,"gammon":6567,"Ġattachments":6568,"ĠCFDT":6569,"haiti":6570,"ĠCartr":6571,"Ã¼ddeutsche":6572,"ithecus":6573,"bhutan":6574,">]":6575,"BE":6576,"Bl":6577,"Cre":6578,"Control":6579,"Kà®µ":6580,"LF":6581,"Path":6582,"System":6583,"UAW":6584,"WER":6585,"can":6586,"crit":6587,"dec":6588,"fp":6589,"ga":6590,"ho":6591,"wik":6592,"Ã´":6593,"à¯į\\":6594,"à®ªà®³à®Ļ":6595,"à®®à®ķà®°":6596,"Ġà®ķà®µà®°à®ª":6597,"Ġà®¤à®ķà®Ł":6598,"Ġà®¤à®µà®£":6599,"Ġà®ļà®³":6600,"à®¯à®²à®ķà®¤":6601,"à®°à®ļà®¤":6602,"Ġà®°à®®à®£":6603,"à®īà®¨":6604,"Ġnow":6605,"amer":6606,"à®ļà®®à®¸":6607,"à®®à®©à®ª":6608,"Ġ----":6609,"Ġà®Ĭà®ķà®µ":6610,"ĠCursor":6611,"Ġà®ĵà®®":6612,"Ġcopy":6613,"ĠShe":6614,"acy":6615,"à®°à®ķà®©":6616,"1914":6617,"ĠTab":6618,"ĠTARS":6619,"à¯į-----":6620,"ĠLi":6621,"ĠDer":6622,"ĠFDP":6623,"ĠGNOME":6624,"tem":6625,"Ġrelease":6626,"Ġrefer":6627,"izeflag":6628,"umar":6629,"à¯ģ''.":6630,"Ġalong":6631,"Shift":6632,"Ġ225":6633,"ĠZod":6634,"Import":6635,"GTK":6636,"Ġ1936":6637,"Ġprefix":6638,"GLSL":6639,"ission":6640,"alsizeflag":6641,"puter":6642,"ĠAbd":6643,"ruct":6644,"ĠRepublic":6645,"Backend":6646,"à®±à®°à®ļà®°":6647,"ĠOffice":6648,"ĠMovement":6649,"Ġnaturalsizeflag":6650,"!)":6651,"71":6652,"After":6653,"BM":6654,"Fran":6655,"JOE":6656,"Mess":6657,"Magn":6658,"NPA":6659,"None":6660,"Ob":6661,"Per":6662,"SC":6663,"Sch":6664,"Yahoo":6665,"YUV":6666,"by":6667,"bil":6668,"fur":6669,"har":6670,"iraq":6671,"mib":6672,"tag":6673,"ule":6674,"va":6675,"vis":6676,"ya":6677,"yc":6678,"zego":6679,"Ãħ":6680,"Ãĩ":6681,"à®Łà®ľà®©":6682,"à®²à®ķà®°":6683,"à¯Ī'%":6684,"à®µà®ļà®©":6685,"à®ķà®³à®ķ":6686,"à®ļà®©à®°":6687,"Ġà®µà®¯à®°":6688,"à®¸à®µ":6689,"à®ĩà®²à®¤":6690,"à®ħà®·":6691,"à®ķà®®à®ª":6692,"à®·à®°à®¤":6693,"à®µà®©à®¨":6694,"à®Ĩà®µà®¤":6695,"à®¤à®µà®´":6696,"Ġtar":6697,"init":6698,"Ġà®Ĳà®Ļ":6699,"Ġ'.":6700,"edef":6701,"enu":6702,"Ġdisc":6703,"reat":6704,"ĠCo":6705,"ĠClutter":6706,"à®ªà®£à®µ":6707,"ĠSim":6708,"Ġproxy":6709,"state":6710,"Ġbit":6711,"Ġfuckin":6712,"riev":6713,"ĠPP":6714,"ĠPort":6715,"ĠPlace":6716,"ĠAR":6717,"ĠASE":6718,"Ġà®®à®£à®µ":6719,"ĠFTP":6720,"ĠBe":6721,"ĠGlob":6722,"ĠRichard":6723,"à®µà®ļà®ª":6724,"à®ĵà®®":6725,"ĠKo":6726,"ĠUk":6727,"Ġlock":6728,"Ġeven":6729,"apt":6730,"à®¯à®°à®ļà®°":6731,"Ġstar":6732,"ione":6733,"ully":6734,"Ġbegin":6735,"ĠJournal":6736,"à®°à®³à®²":6737,"ĠVal":6738,"Ġusr":6739,"oday":6740,"ixmap":6741,"vina":6742,"console":6743,"1962":6744,"rowser":6745,"Ġimage":6746,"ĠUnivers":6747,"Ġunread":6748,"jayalaksh":6749,"tools":6750,"guides":6751,"ĠShortDayName":6752,"1956":6753,"Ġresolution":6754,"hoto":6755,"Ġlocation":6756,"SDL":6757,"Access":6758,"OECD":6759,"pression":6760,"EEK":6761,"ĠMessage":6762,"WMComment":6763,"ĠDavid":6764,"ersonal":6765,"references":6766,"Ġrandom":6767,"bosnia":6768,"Ġà®ĩà®³à®µà®°à®ļà®°":6769,"cuba":6770,"ichael":6771,"Ġrefers":6772,"Offscreen":6773,"Ġherzego":6774,"Ġequals":6775,"Ġtamilpc":6776,"mibalaji":6777,"rieving":6778,"Ġherzegovina":6779,"43":6780,"82":6781,"93":6782,"AD":6783,"BBC":6784,"Google":6785,"PER":6786,"Re":6787,"Word":6788,"Windows":6789,"hakan":6790,"kregator":6791,"sà®²":6792,"Ġquot":6793,"Ġmbox":6794,"à®¾à®¾":6795,"à®°à®¯à®¤":6796,"à®ªà®ķà®°":6797,"à®ªà®ķà®ķ":6798,"à®®à®µà®°":6799,"à®®à®°à®°":6800,"Ġà®ªà®µà®°":6801,"Ġà®ªà®´à®¨":6802,"à®ļà®ķà®Ł":6803,"à®¨à®Łà®°":6804,"à¯Ĥ,":6805,"à®ķà®®à®²à®®":6806,"à®ķà®°à®µà®°":6807,"à®°à®®à®ķ":6808,"à®ľà®Ł":6809,"à®¯à®¤à®³à®®":6810,"à®°à®¤à®ª":6811,"à®Ĩà®ĥà®ª":6812,"Ġà®ħà®©à®²":6813,"Ġà®Ĳà®²à®£":6814,"à®ªà®°à®¸":6815,"orm":6816,"à®µà®®à®¯à®®":6817,"Ġà®Ĭà®®":6818,"Ġà®Ĭà®ķà®¤":6819,"à®¿.'":6820,"araj":6821,"Ġpub":6822,"Ġshell":6823,"otsw":6824,"à®ªà®£à®ķ":6825,"à®ļà®©à®ŀ":6826,"ĠSP":6827,"Ġindex":6828,"à®ıà®£":6829,"à®ªà®©à®µà®±":6830,"ĠMac":6831,"ĠMDN":6832,"ĠPO":6833,"ĠAS":6834,"thias":6835,"ĠBur":6836,"ĠNova":6837,"Ġà®Ĩà®µà®£à®ķ":6838,"Ġlater":6839,"2010":6840,"irth":6841,"tlement":6842,"Ġalt":6843,"gress":6844,"ĠZapatero":6845,"SEC":6846,"à®¿(%":6847,"lueto":6848,"ffers":6849,"à®ĩà®³à®¨":6850,"Alpha":6851,"vention":6852,"NEF":6853,"IGN":6854,"tically":6855,"Ġà®¤à®ļà®®à®ª":6856,"tify":6857,"reference":6858,"breviation":6859,"à®ªà®Ĩà®²à®¯à®¤":6860,"hakanini":6861,"otswana":6862,"luetooth":6863,"53":6864,"<\\\\":6865,"CSP":6866,"DATE":6867,"Ge":6868,"Gar":6869,"Kà®ļ":6870,"Mouse":6871,"RAM":6872,"Sk":6873,"Sup":6874,"Tamil":6875,"Use":6876,"Ubuntu":6877,"aust":6878,"cam":6879,"cos":6880,"fe":6881,"gium":6882,"kfmclient":6883,"lk":6884,"now":6885,"preview":6886,"yth":6887,"Ã²":6888,"à¶":6889,"à·":6890,"à®¤à®°à®ļ":6891,"à®¾%":6892,"à®Łà®Īà®Ł":6893,"à®±à®£":6894,"à®³à®¤à®®":6895,"à®¨à®Łà®®":6896,"Ġà®ħà®ķà®µ":6897,"Ġà®ļà®²à®µ":6898,"à®´à®°à®ļ":6899,"Ġà®īà®²à®µ":6900,"à¯ĭ:":6901,"à¯Ĥ'":6902,"Ġà®ħà®®à®¤":6903,"Ġ((":6904,"à®ķà®°à®Ł":6905,"à®ľà®µ":6906,"Ġà®ıà®°à®£":6907,"aniel":6908,"à®ķà®²à®Ł":6909,"Ġà®ħà®²à®ļ":6910,"à®ļà®®à®©":6911,"lash":6912,"à®ļà®°à®¸":6913,"Ġafrica":6914,"Ġà®²à®·":6915,"Ġà®®à®©à®¸":6916,"arns":6917,"Ġsing":6918,"Ġà®¹à®ļ":6919,"à®©à®µà®²":6920,"atune":6921,"rew":6922,"ĠCSU":6923,"iso":6924,"ication":6925,"ĠSa":6926,"ĠSan":6927,"ĠSQL":6928,"ouis":6929,"Ġà®Ĩà®ļà®ķ":6930,"etro":6931,"Ġà®ªà®¯à®£à®Ļ":6932,"Ġway":6933,"Ġwarning":6934,"ĠDA":6935,"ĠIC":6936,"ĠBrand":6937,"ĠGDL":6938,"ĠGreely":6939,"ĠEr":6940,"agement":6941,"ists":6942,"Ġ97":6943,"ATA":6944,"Ġthread":6945,"ĠJP":6946,"à®¿->":6947,"ourg":6948,"INV":6949,"Ġlet":6950,"Ġshortcut":6951,"à®ĥà®²":6952,"ackages":6953,"à®¨à®²à®ļ":6954,"ĠStart":6955,"Ġ${":6956,"125":6957,"Ġà®ļà®©à®¨":6958,"PAL":6959,"COOPER":6960,"web":6961,"maildir":6962,"Ġ1966":6963,"lose":6964,"Ġexp":6965,"buffers":6966,"Char":6967,"venia":6968,"ĠConf":6969,"Ġperipher":6970,"ĠScotia":6971,"ĠReview":6972,"à®ħà®ķà®²à®µ":6973,"Ġcurrently":6974,"ighs":6975,"Ġconfiguration":6976,"Webcam":6977,"Ġcreated":6978,"ĠAmerica":6979,"ĠFOV":6980,"Ġinstall":6981,"ĠAdditional":6982,"Ġstdout":6983,"DUCT":6984,"Ġnickname":6985,"slovenia":6986,"Ġengine":6987,"KChart":6988,"Ġbelow":6989,"Streamer":6990,"cepted":6991,"ĠASEAN":6992,"()":6993,"=%":6994,"AA":6995,"Cancel":6996,"GA":6997,"General":6998,"Hz":6999,"On":7000,"PPD":7001,"SV":7002,"].":7003,"bl":7004,"ftp":7005,"ham":7006,"uamount":7007,"win":7008,"zer":7009,"à¯įâĢĮ":7010,"à®©à®²à®ķ":7011,"à®²à®ķà®ª":7012,"à®²à®°à®¤":7013,"à®³à®µà®¤":7014,"Ġà®ªà®ľ":7015,"à®¨à®±":7016,"Ġà®®à®ķà®°":7017,"Ġà®ħà®ļà®²":7018,"Ġà®¤à®°à®£":7019,"Ġà®¤à®²à®®":7020,"Ġà®¤à®®à®©":7021,"Ġà®ļà®¯":7022,"à¯į,...)":7023,"à®ħà®°à®Ļ":7024,"Ġà®ľà®¯à®ļ":7025,"Ġà®ħà®Łà®²":7026,"mes":7027,"à®īà®¸":7028,"Ġà®Ĳà®¯à®ª":7029,"à®ªà®°à®µà®³":7030,"ally":7031,"à®®à®¤à®ļ":7032,"esh":7033,"Ġ-(":7034,"à®ĩà®¤à®¯à®¤":7035,"à®°à®µà®ª":7036,"Ġà®®à®©à®µ":7037,"Ġà®ķà®²à®ķà®¤":7038,"ĠCar":7039,"Ġprovid":7040,"Ġfree":7041,"ĠMorgan":7042,"eta":7043,"ĠPo":7044,"ĠPol":7045,"ĠLO":7046,"ĠDe":7047,"ĠDaily":7048,"iation":7049,"ura":7050,"Ġhome":7051,"utoma":7052,"ĠBy":7053,"ĠGUI":7054,"ĠOCI":7055,"depend":7056,"ĠUID":7057,"Ġlong":7058,"aps":7059,"ister":7060,"Ġ2011":7061,"Ġ92":7062,"imum":7063,"Ġgo":7064,"ids":7065,"thumbleft":7066,"ĠJones":7067,"ouncil":7068,"command":7069,"inese":7070,"Ġchoose":7071,"Ã©n":7072,"Ġwork":7073,"Ġ1937":7074,"minute":7075,"SUM":7076,"Union":7077,"ĠSci":7078,"Ġresp":7079,"ĠMartin":7080,"ĠForce":7081,"ĠStearns":7082,"resh":7083,"Develop":7084,"ributed":7085,"rench":7086,"ravail":7087,"ĠApplic":7088,"lished":7089,"ĠInternet":7090,"Ġpopup":7091,"Ġdivisions":7092,"uropean":7093,"Location":7094,"ĠImport":7095,"ĠWolfgang":7096,"ĠMatthias":7097,"irthday":7098,"${":7099,"42":7100,"63":7101,"69":7102,"AIM":7103,"BSD":7104,"Do":7105,"EV":7106,"How":7107,"Job":7108,"Moving":7109,"Oper":7110,"PE":7111,"PM":7112,"Pur":7113,"Pixmap":7114,"QIB":7115,"RGB":7116,"Vika":7117,"aver":7118,"cre":7119,"czech":7120,"group":7121,"hr":7122,"hard":7123,"itions":7124,"mac":7125,"ÃĬ":7126,"Ġrow":7127,"Ġà®³":7128,"à®ķName":7129,"à®ªà®ķà®Ł":7130,"à®®à®ķà®¤":7131,"à®±à®ķà®°à®®":7132,"à®¨à®Łà®©à®®":7133,"Ġà®ħà®ķà®Ļ":7134,"Ġà®µà®°à®ļ":7135,"Ġà®īà®ªà®ķ":7136,"Ġà®Ĩà®Łà®²":7137,"à®¸à®®":7138,"à®ħà®Łà®©":7139,"à®ħà®ķà®Ļ":7140,"à®µà®¤à®°":7141,"Ġà®ħà®¤à®°":7142,"à®¤à®¤à®¤":7143,"Ġà®ħà®®à®³":7144,"à®¤à®°à®Ł":7145,"Ġà®°à®ĥà®ªà®°à®©":7146,"Ġà®ħà®©à®©":7147,"iname":7148,"Ġà®Ĳà®İà®¸":7149,"Ġà®Łà®µà®°":7150,"à®®à®¤à®Ļ":7151,"Ġà®Īà®´à®®":7152,"roans":7153,"Ġduration":7154,"Ġsit":7155,"Ġsec":7156,"reak":7157,"ĠChe":7158,"ĠCount":7159,"ĠCASE":7160,"isia":7161,"Ġ1916":7162,"ĠSaru":7163,"Ġinv":7164,"à®ıà®ľ":7165,"à®ķà®©à®ķ":7166,"1917":7167,"Ġbook":7168,"Ġà®¤à®°à®¨":7169,"rix":7170,"ĠPEM":7171,"ĠAtkHyp":7172,"ecal":7173,"echt":7174,"ustin":7175,"Ġmost":7176,"ĠGpg":7177,"ĠGerman":7178,"ĠOE":7179,"ĠRGB":7180,"ĠUI":7181,"ĠUse":7182,"tear":7183,"ĠWar":7184,"Ġreason":7185,"Ġ[<":7186,"à®ħà®µà®ļà®°":7187,"à®ħà®ķà®²à®¤":7188,"ahn":7189,"ĠVW":7190,"ertà®ĩà®²":7191,"Ġalert":7192,"viewport":7193,"udensity":7194,"PID":7195,"weight":7196,"IAS":7197,"NTP":7198,"Ġkeyboard":7199,"Ġ50000":7200,"ĠÂ¯":7201,"}\".":7202,"lux":7203,"DIF":7204,"ĠUSB":7205,"Ġbugs":7206,"***":7207,"MMM":7208,"Ġminute":7209,"à®ħà®ķà®°à®µà®°":7210,"Ġoutta":7211,"Enc":7212,"Nonecal":7213,"____":7214,"Ġrange":7215,"UADescription":7216,"OfTheMeeting":7217,"ĠRoberts":7218,"Ġindic":7219,"ĠALIAS":7220,"suriname":7221,"YEAR":7222,"Ġnavigation":7223,"ĠMike":7224,"ictoria":7225,"Ġsalvador":7226,"Ġbeginning":7227,"jayalakshmibalaji":7228,"Ġperipheries":7229,"QIBase":7230,"ĠAtkHypertà®ĩà®²":7231,"47":7232,"65":7233,";}":7234,"Arial":7235,"Brice":7236,"FTP":7237,"GEA":7238,"LC":7239,"Mo":7240,"Make":7241,"Pilot":7242,"RG":7243,"Select":7244,"TIME":7245,"UC":7246,"ais":7247,"cue":7248,"ds":7249,"folder":7250,"ged":7251,"iw":7252,"join":7253,"pse":7254,"sys":7255,"uro":7256,"ves":7257,"Ã¸":7258,"Ð¸":7259,"à®¿--":7260,"à®¤à®¹":7261,"à®®à®±à®¨":7262,"à®±à®¤à®²":7263,"à®³à®ķà®¤":7264,"Ġà®¤à®³à®ª":7265,"Ġà®İà®¯à®°":7266,"à¯į.:\"":7267,"à®ķà®µà®ķ":7268,"à®©à®°à®®":7269,"à®©à®°à®Ļ":7270,"à®ķà®Łà®ª":7271,"amela":7272,"Ġtxt":7273,"eral":7274,"à¯Ī.:":7275,"Ġ230":7276,"Ġà®ªà®£à®ļ":7277,"Ġsche":7278,"Ġà®ķà®²à®ķà®ª":7279,"ĠCNN":7280,"ĠSA":7281,"ĠSL":7282,"ĠSo":7283,"ĠSu":7284,"ĠSw":7285,"ough":7286,"ollow":7287,"Ġà®īà®¤à®µà®µ":7288,"Ġà®Ĩà®ļà®©à®¤":7289,"ĠMM":7290,"ĠPl":7291,"ĠPamela":7292,"eck":7293,"ofuser":7294,"ĠFiles":7295,"à¯ģ...)":7296,"Ġ69":7297,"ĠNone":7298,"à®ĵà®ªà®©":7299,"ĠWi":7300,"ĠWatch":7301,"enter":7302,"ized":7303,"ĠNameOfThe":7304,"Ġ170":7305,"à¯ģ'.":7306,"à®ĥà®ªà®¤":7307,"Ġvon":7308,"Ġà®ķà®µà®©à®ķ":7309,"udio":7310,"mann":7311,"Ġdistributed":7312,"ROM":7313,"luep":7314,"ffect":7315,"à¯ĩ',":7316,"Ġzones":7317,"GHT":7318,"Replace":7319,"burn":7320,"adei":7321,"International":7322,"achegrind":7323,"Launchpad":7324,"reedom":7325,"ĠRights":7326,"justment":7327,"ĠÎ¼":7328,"Ġicon":7329,"Message":7330,"Purge":7331,"ĠNameOfTheUser":7332,"350":7333,"DR":7334,"Diff":7335,"ECT":7336,"Group":7337,"Ghost":7338,"John":7339,"Lib":7340,"PHP":7341,"Rhythmbox":7342,"Social":7343,"Tab":7344,"Victoria":7345,"birthday":7346,"full":7347,"km":7348,"kde":7349,"kppp":7350,"mit":7351,"nivers":7352,"pakistan":7353,"rad":7354,"son":7355,"wide":7356,"zez":7357,"Ã°":7358,"Ġesc":7359,"à¯ģ\\":7360,"à®Łà®¯à®°":7361,"à®°à®³à®¤":7362,"à®°à®¯à®®":7363,"à®°à®³à®®":7364,"à®µà®¯à®²":7365,"à¯ĩ%":7366,"Ġà®ªà®¤à®¤":7367,"à®¨à®¯à®©":7368,"Ġà®®à®¤à®©":7369,"Ġà®ļà®¸":7370,"à¯Ģ'":7371,"à®µà®°à®Ł":7372,"Ġà®ħà®¤à®®":7373,"à®ľà®ķà®µ":7374,"à®µà®©à®ķ":7375,"à®¤à®©à®ª":7376,"à®Ĩà®·":7377,"Ġà®°à®Ļ":7378,"à®³à®µà®³":7379,"ined":7380,"Ġà®ĩà®¤à®¯":7381,"Ġkd":7382,"Ġasp":7383,"Ġabo":7384,"à®±à®©à®±":7385,"Ġà®®à®©à®Ļ":7386,"Ġport":7387,"à®ķà®£à®µà®©":7388,"rees":7389,"abc":7390,"Ġcall":7391,"à®ļà®©à®µà®°":7392,"Ġprovide":7393,"à®ıà®®":7394,"elzer":7395,"1920":7396,"ĠToday":7397,"ĠPATH":7398,"ĠPango":7399,"ĠDay":7400,"ĠDatabase":7401,"ĠIPP":7402,"ĠBochum":7403,"Ġ650":7404,"Ġmmm":7405,"anda":7406,"ĠOpel":7407,"à®ªà®¯à®©à®±":7408,"à®ªà®¯à®£à®¤":7409,"Ġ06":7410,"ĠKGpg":7411,"ĠKluep":7412,"Ġlook":7413,"ĠExt":7414,"ĠEnd":7415,"ĠESF":7416,"Ġà®Ĭà®Łà®ķà®ª":7417,"ĠWord":7418,"vier":7419,"vious":7420,"DEVICE":7421,"ogaraj":7422,"Ġ110":7423,"belgium":7424,"Ġorig":7425,"MAX":7426,"Ġ1800":7427,"upg":7428,"à®Ĭà®Łà®ķà®®":7429,"spin":7430,"eger":7431,"Ġaccount":7432,"ILO":7433,"Ġ130":7434,"Ġval":7435,"tics":7436,"iance":7437,"eful":7438,"CDDB":7439,"Ġannivers":7440,"event":7441,"swick":7442,"Ġ1962":7443,"azione":7444,"Ġsettlement":7445,"Ġcolors":7446,"Ġbugzilla":7447,"MDIST":7448,"ĠProtocol":7449,"Ġsuch":7450,"FITS":7451,"Â¢Â¨":7452,"attern":7453,"à®ļà®°à®£à®Ł":7454,"OpenPGP":7455,"tification":7456,"ĠPostScript":7457,"VGA":7458,"Ġcontinents":7459,"ĠGeorge":7460,"à®ĩà®Łà®µà®²":7461,"Ġseparator":7462,"KTTSD":7463,"Ġencryption":7464,"ĠHoelzer":7465,"Ġcertificate":7466,"Ġbecause":7467,"ociated":7468,"ĠRevolution":7469,"ĠBrunswick":7470,"ynth":7471,"dependent":7472,"sysfs":7473,"Ġabove":7474,"ĠKluepfel":7475,"Ġanniversary":7476,")'":7477,">>":7478,"ACL":7479,"Box":7480,"Button":7481,"CUR":7482,"Cooper":7483,"FT":7484,"GM":7485,"He":7486,"Hot":7487,"Hel":7488,"Heh":7489,"JK":7490,"Lutte":7491,"Mul":7492,"Part":7493,"Val":7494,"ber":7495,"cap":7496,"dated":7497,"fil":7498,"hint":7499,"ique":7500,"lib":7501,"prop":7502,"sol":7503,"sane":7504,"session":7505,"trans":7506,"ui":7507,"zip":7508,"Ġeditor":7509,"Ġolder":7510,"à®ķà®·":7511,"à®ªà®±à®ķ":7512,"à®®à®±à®¤":7513,"Ġà®ªà®³à®ª":7514,"à®ķà®³à®Ļ":7515,"Ġà®ļà®µà®°":7516,"à¯ĭ...":7517,"à¯ĩà®¾\"":7518,"Ġà®Ĩà®µà®¤à®±":7519,"à®Łà®¤à®Ł":7520,"à®°à®®à®¨":7521,"à®Ĩà®ķà®ķ":7522,"era":7523,"err":7524,"eres":7525,"Ġà®Łà®Ļ":7526,"Ġà®ªà®²à®Ļ":7527,"lac":7528,"laus":7529,"Ġà®īà®£à®°à®µ":7530,"ederation":7531,"Ġà®²à®®":7532,"omp":7533,"ĠCSV":7534,"isi":7535,"isting":7536,"Ġcase":7537,"à®ļà®©à®ª":7538,"active":7539,"ĠMb":7540,"ĠPop":7541,"ĠPat":7542,"ĠPhoto":7543,"Ġwar":7544,"Ġà®®à®£à®¨":7545,"à®ľà®©à®ķ":7546,"à®ľà®©à®ª":7547,"à®®à®£à®°":7548,"ĠLev":7549,"ĠDi":7550,"urn":7551,"ĠFax":7552,"ĠFrame":7553,"ĠBro":7554,"ĠBen":7555,"ĠBus":7556,"Ġmark":7557,"ander":7558,"amond":7559,"Ġà®¨à®²à®ļ":7560,"ĠKh":7561,"Ġ86":7562,"Ġ89":7563,"ĠHartz":7564,"Status":7565,"ista":7566,"Ġà®ªà®°à®µà®ļà®®":7567,"ifond":7568,"Ġ<<":7569,"ĠJay":7570,"ĠJavaScript":7571,"Ġmeaning":7572,"Config":7573,"ĠXXX":7574,"1973":7575,"à®ĥà®µ":7576,"Ġà®īà®²à®ķà®®à®¯à®®":7577,"Ġà®ĩà®®à®¯à®®à®²":7578,"Ġ1974":7579,"lied":7580,"ĠAlt":7581,"ĠÂ±":7582,"CTOR":7583,"Ġà®ªà®²à®©à®³":7584,"Ġcontrol":7585,"CPM":7586,"Ġprefer":7587,"Chinese":7588,"ClutterPath":7589,"UTC":7590,"CSV":7591,"ĠTrust":7592,"Ġconfigur":7593,"Inter":7594,"NTSC":7595,"ĠCentral":7596,"ĠEconomic":7597,"Manager":7598,"Garamond":7599,"!!":7600,"55":7601,"Arc":7602,"Click":7603,"HINT":7604,"Human":7605,"Is":7606,"Jean":7607,"Kopete":7608,"MI":7609,"Mon":7610,"Model":7611,"Set":7612,"Saru":7613,"Tr":7614,"There":7615,"USA":7616,"XT":7617,"XSL":7618,"Xft":7619,"botswana":7620,"ih":7621,"mk":7622,"peg":7623,"sk":7624,"tn":7625,"ways":7626,"Ãģ":7627,"Ġquery":7628,"Ġutf":7629,"ĠËļ":7630,"à¯į(_":7631,"à¯ģ`":7632,"à®¤à®³à®°":7633,"à®ªà®µà®²":7634,"à®®à®¯à®ķ":7635,"à®µà®´à®®":7636,"à®ļà®¤à®°":7637,"Ġà®ķà®¤à®±":7638,"Ġà®®à®ķà®®":7639,"Ġà®¨à®Łà®©à®Ļ":7640,"Ġà®īà®°à®®":7641,"à®µà®°à®£":7642,"à®ħà®¤à®©à®¤":7643,"Ġà®ıà®³à®©à®®":7644,"à®³à®°à®µà®¤":7645,"à®¤à®®à®ķ":7646,"à®¯à®®à®©":7647,"Ġ\"#":7648,"info":7649,"à®ļà®®à®¯":7650,"ora":7651,"oriz":7652,"lated":7653,"à®®à®©à®®":7654,"Ġà®ļà®°à®¸":7655,"ross":7656,"Ġdu":7657,"Ġpost":7658,"Ġpress":7659,"Ġpriority":7660,"Ġpattern":7661,"Ġside":7662,"ĠCRL":7663,"ĠCouncil":7664,"Ġà®ĵà®¸":7665,"Ġcor":7666,"Ġcirc":7667,"ĠSib":7668,"Ġprocess":7669,"Ġblock":7670,"ĠMAN":7671,"ĠTool":7672,"ĠTLS":7673,"rier":7674,"ĠPN":7675,"ĠAnn":7676,"Ġwe":7677,"ĠDel":7678,"ĠDUE":7679,"à¯į...\"":7680,"Ġhalf":7681,"Ġms":7682,"ĠOptions":7683,"ĠObs":7684,"chan":7685,"ĠRÃ©":7686,"Ġxmi":7687,"à¯Ī\".":7688,"ĠKM":7689,"ĠKey":7690,"ĠKonqueror":7691,"Ġlicense":7692,"Ġthrough":7693,"=\"#":7694,"quare":7695,"DEF":7696,"Ġ[[":7697,"à®ħà®µà®ļà®°à®ķ":7698,"à®¨à®°à®ķà®®":7699,"ĠXSL":7700,"à®ľà®¯à®¨à®ķà®°":7701,"rich":7702,"Ġshown":7703,"rigger":7704,"ISHA":7705,"allen":7706,"iven":7707,"Ġcancel":7708,"Ġ1934":7709,"Ġabbreviation":7710,"Ġcontents":7711,"eller":7712,"lators":7713,"Ġphrase":7714,"Ġ1958":7715,"1945":7716,"CFI":7717,"auri":7718,"1957":7719,"UTF":7720,"UEISHA":7721,"ergy":7722,"mboxImp":7723,"Ġparame":7724,"ĠResource":7725,"IRC":7726,"hello":7727,"Ġà®ħà®°à®µà®£":7728,"Ġchange":7729,"Ġcrash":7730,"Ġà®¤à®ķà®µà®®":7731,"Ġmotherfucker":7732,"Ġraj":7733,"nepal":7734,"augustin":7735,"ĠSOCKS":7736,"osphere":7737,"Ġpublished":7738,"Ġvalues":7739,"ifondazione":7740,"ĠSiberia":7741,"\"}":7742,"67":7743,"Cdrdao":7744,"GAM":7745,"HER":7746,"ITS":7747,"JVP":7748,"Kà®ħà®ŀ":7749,"LAN":7750,"Last":7751,"Press":7752,"Paul":7753,"Size":7754,"Subject":7755,"TV":7756,"TCP":7757,"TLS":7758,"UD":7759,"XID":7760,"]...":7761,"dig":7762,"diff":7763,"friend":7764,"ground":7765,"graf":7766,"ient":7767,"ious":7768,"ja":7769,"jus":7770,"ken":7771,"point":7772,"rary":7773,"sv":7774,"sri":7775,"yes":7776,"à¯į`":7777,"à®ķà®¤à®²":7778,"à®©à®ķà®²":7779,"à®®à®°à®£à®®":7780,"à®³à®ļà®µ":7781,"Ġà®ªà®¯à®ķ":7782,"à®ļà®ªà®Ł":7783,"à®ļà®µà®Ł":7784,"à®¨à®ļ":7785,"Ġà®®à®°à®£à®Ļ":7786,"à®£à®³à®µ":7787,"à®Ļà®µ":7788,"à¯ĢÂ¨":7789,"Ġà®Ĩà®²à®©":7790,"à®¸à®¸":7791,"à®ķà®°à®°":7792,"Ġà®ľà®²à®®":7793,"à®īà®Łà®®":7794,"à®µà®®à®£":7795,"à®ļà®²à®ķ":7796,"lapse":7797,"Ġdots":7798,"omo":7799,"ĠCSS":7800,"Ġà®Ĩà®¤à®°à®µà®±":7801,"ĠSSP":7802,"ĠSelect":7803,"à®ıà®Ĵ":7804,"Ġnext":7805,"eline":7806,"1915":7807,"1938":7808,"unn":7809,"Ġà®ªà®¯à®ªà®Ł":7810,"ĠPPD":7811,"ĠPUK":7812,"ĠPeter":7813,"ĠAuto":7814,"adha":7815,"ĠLDIF":7816,"ecial":7817,"ĠDir":7818,"ĠFront":7819,"ĠFDIC":7820,"ĠBer":7821,"à¯ģ.....":7822,"Ġmy":7823,"Ġmat":7824,"ĠGP":7825,"ĠGoogle":7826,"ĠOct":7827,"ĠNot":7828,"ĠNation":7829,"ĠNumber":7830,"à®µà®ļà®©à®¤":7831,"ams":7832,"à®ĵà®İà®®":7833,"ĠUSS":7834,"ĠHans":7835,"ewith":7836,"Ġ108":7837,"Ġ109":7838,"String":7839,"à¯į'',":7840,"à®İà®¸à®Ļà®µ":7841,"ĠWest":7842,"Ġ(%%":7843,"Ġrate":7844,"ours":7845,"Ġ......":7846,"Ġ135":7847,"à®ĥà®ªà®ķ":7848,"Ġuseful":7849,"à®¾'.":7850,"ĠStates":7851,"ĠCDs":7852,"Ġoptions":7853,"STRING":7854,"à¯ģ---":7855,"ĠImagepicture":7856,"minist":7857,"elling":7858,"Ġ1957":7859,"anta":7860,"rgb":7861,"United":7862,"Replac":7863,"EXT":7864,"ually":7865,"POSE":7866,"lacement":7867,"ĠStein":7868,"Reset":7869,"ĠDVDs":7870,"ĠGuard":7871,"Ġbackup":7872,"ĠxBF":7873,"ĠIPCC":7874,"ribute":7875,"ĠFranc":7876,"ESendOptionsWith":7877,"ESendOptionsAfter":7878,"Expand":7879,"Ġmodify":7880,"parts":7881,"Ġ9660":7882,"Ġocc":7883,"Ġ'/'":7884,"Ġreceived":7885,"furter":7886,"SECAM":7887,"ĠPopular":7888,"grafted":7889,"Replacewith":7890,"ESendOptionsWithin":7891,"Ass":7892,"ABC":7893,"Book":7894,"Bride":7895,"Del":7896,"Dem":7897,"FUEISHA":7898,"IMA":7899,"Item":7900,"Lab":7901,"Line":7902,"Murph":7903,"NNTP":7904,"PLA":7905,"QRT":7906,"Sal":7907,"TARS":7908,"da":7909,"ek":7910,"fth":7911,"gen":7912,"ply":7913,"rus":7914,"racy":7915,"td":7916,"tain":7917,"ulation":7918,"window":7919,"yl":7920,"Â½":7921,"ÃĨ":7922,"Ġvi":7923,"Ġà®Ķ":7924,"à®¾....":7925,"à®ªà®¯à®®":7926,"à®©à®®à®²à®°":7927,"à®®à®³":7928,"à®¯à®µà®¤":7929,"Ġà®¨à®Ļ":7930,"à¯į.âĢĿ":7931,"à¯ĩà®¾)":7932,"Ġà®İà®©à®±":7933,"à®¤à®²à®³":7934,"à®ķà®µà®©à®¤":7935,"Ġà®ıà®²à®¤":7936,"Ġà®ıà®ľà®©":7937,"à¯ģ,%":7938,"Ġà®ľà®²":7939,"à®³à®¤à®©":7940,"timed":7941,"Ġà®°à®¸":7942,"inn":7943,"Ġà®Ĳà®¤à®°":7944,"Ġà®¯à®Ļ":7945,"alia":7946,"Ġà®ªà®¯à®©à®³à®µ":7947,"à¯į:\\":7948,"à®ļà®²à®¸":7949,"Ġà®ľà®©à®ķ":7950,"à®±à®®à®±":7951,"à®±à®®à®³":7952,"Ġdire":7953,"Ġplay":7954,"à®©à®®à®¯à®®":7955,"Ġà®¸à®µ":7956,"Ġà®µà®²à®¯à®Ļ":7957,"Ġà®ĵà®Łà®µ":7958,"à®ªà®²à®¤à®°à®ª":7959,"Ġcap":7960,"ĠSer":7961,"ĠSec":7962,"ĠSele":7963,"à¯į)-":7964,"Ġprop":7965,"Ġproble":7966,"à®°à®²à®ķà®®":7967,"à®ıà®Ĳ":7968,"à®ıà®ķà®©":7969,"1919":7970,"1940":7971,"ĠTet":7972,"ĠTravail":7973,"à®ķà®ļà®ª":7974,"Ġ4000":7975,"etter":7976,"ĠPen":7977,"ĠApr":7978,"ĠAlex":7979,"ĠList":7980,"ĠLigue":7981,"ĠBou":7982,"ĠBook":7983,"ĠGr":7984,"ĠGnuPG":7985,"ĠNepomuk":7986,"ĠRay":7987,"ĠRSS":7988,"ĠRFC":7989,"ĠRhythmbox":7990,"Ġxà®©":7991,"ĠKTT":7992,"ĠKontact":7993,"Ġ87":7994,"Ġlilo":7995,"ĠEX":7996,"oclient":7997,"ociation":7998,"ĠHome":7999,"appen":8000,"Ġ950":8001,"ĠWide":8002,"ĠWritten":8003,"entry":8004,"Ġcomputer":8005,"ppd":8006,"seudo":8007,"egal":8008,"Ġ252":8009,"Ġshows":8010,"ugin":8011,"lication":8012,"graph":8013,"Ġcons":8014,"CENT":8015,"à®ĩà®®à®¯à®®à®²":8016,"conf":8017,"STDEV":8018,"Ġheh":8019,"aved":8020,"CalItem":8021,"ĠÂ¦":8022,"ansa":8023,"Ġfilename":8024,"%%%":8025,"CKD":8026,"ĠContin":8027,"Index":8028,"ĠCommission":8029,"MDN":8030,"ĠSteph":8031,"ALSE":8032,"à®Ĭà®Łà®ķà®ķ":8033,"Ġlikely":8034,"FLINT":8035,"PrintPreview":8036,"Ġlocalhost":8037,"ASEAN":8038,"ĠMcBride":8039,"FileReplace":8040,"VARA":8041,"ĠVerdi":8042,"ĠTransnet":8043,"Ġdownload":8044,"ĠMorel":8045,"RegExp":8046,"eather":8047,"locale":8048,"quired":8049,"Default":8050,"ROUND":8051,"EEKDAY":8052,"Skype":8053,"austria":8054,"ython":8055,"QIBaseResult":8056,"eventpage":8057,"Ġmaturity":8058,"fthansa":8059,"PrintPreviewDialog":8060,"De":8061,"Due":8062,"Esc":8063,"IE":8064,"LSSP":8065,"Nor":8066,"Pierre":8067,"Sn":8068,"Search":8069,"Yeah":8070,"eting":8071,"iac":8072,"mat":8073,"ming":8074,"nation":8075,"ua":8076,"za":8077,"Î¹":8078,"à¯įà¯ģ":8079,"à®¤à®ķà®³":8080,"à®Łà®ķà®µ":8081,"à®ªà®³à®°":8082,"à®²à®·":8083,"Ġà®ªà®µà®©":8084,"à®ļà®Łà®Ļ":8085,"Ġà®®à®Łà®¤":8086,"Ġà®ĩà®¯à®µ":8087,"à®ĩà®°à®ļ":8088,"à®ĩà®ŀ":8089,"à®ĩà®´à®ª":8090,"à®ħà®®à®²":8091,"à®ħà®ķà®ļ":8092,"à®ķà®ªà®²à®®":8093,"à®°à®ļà®µ":8094,"Ġà®ıà®¯à®°":8095,"à¯ģ,)":8096,"à®¯à®®à®©à®Ļ":8097,"à®Łà®°à®¸":8098,"à®Ĩà®Łà®®":8099,"à®Ĩà®Łà®²":8100,"Ġ\".":8101,"Ġnor":8102,"à®³à®µà®±":8103,"Ġà®ħà®²à®ª":8104,"à¯Ī.''":8105,"ince":8106,"Ġà®ħà®±à®®":8107,"à®²à®®à®±":8108,"itte":8109,"à®ļà®²à®°":8110,"Ġà®īà®±à®Ļ":8111,"Ġà®ħà®µà®²":8112,"Ġdat":8113,"Ġdel":8114,"aradha":8115,"Ġpaper":8116,"Ġpower":8117,"Ġà®ĩà®Łà®ħà®®":8118,"ĠClass":8119,"Ġà®ĵà®¤":8120,"Ġà®ĵà®µà®°":8121,"isual":8122,"Ġtransfer":8123,"abia":8124,"Ġ1959":8125,"Ġ1923":8126,"ourier":8127,"1935":8128,"1906":8129,"std":8130,"str":8131,"stock":8132,"ĠMann":8133,"ĠMorn":8134,"ĠTM":8135,"ĠType":8136,"ĠDTE":8137,"ĠFis":8138,"ĠFAC":8139,"ĠOS":8140,"Ġ79":8141,"ĠNDA":8142,"ĠRec":8143,"Ġà®ªà®´à®©":8144,"ĠKe":8145,"ĠKPilot":8146,"ĠUK":8147,"ĠHe":8148,"Ġà®ĩà®³à®µà®°à®ļ":8149,"Ġà®Ĭà®Łà®±":8150,"Ġ123":8151,"Ġreg":8152,"units":8153,"angle":8154,"Ġlast":8155,"ontaine":8156,"Ġ...\"":8157,"à¯ģ!\"":8158,"unday":8159,"Ġmeeting":8160,"upright":8161,"Ġ>:":8162,"à®ĥà®Ł":8163,"ender":8164,"Ġvs":8165,"osa":8166,"ixels":8167,"ĠZh":8168,"igner":8169,"TTPS":8170,"Ġcanton":8171,"Ġ1935":8172,"CPE":8173,"BCC":8174,"Ġsetting":8175,"jaya":8176,"ĠConn":8177,"center":8178,"UNH":8179,"Ġperiod":8180,"Ġiriver":8181,"titude":8182,"ĠExpress":8183,"ĠResearch":8184,"ĠOnline":8185,"Ġdiffer":8186,"ĠLiberation":8187,"Ġrediff":8188,"Ġà®ĩà®³à®µà®°à®ļà®©":8189,"Organizer":8190,"ĠCorp":8191,"YLIST":8192,"Ġsingle":8193,"ĠApplicable":8194,"luxemb":8195,"GEAC":8196,"Ġscheme":8197,"ĠWiFi":8198,"zezinski":8199,"Ġescape":8200,"solute":8201,"ĠJayaradha":8202,");":8203,"79":8204,"83":8205,";.":8206,"??":8207,"Auto":8208,"By":8209,"CPI":8210,"CLA":8211,"GS":8212,"HCP":8213,"Jack":8214,"Mac":8215,"Music":8216,"Microsoft":8217,"NBC":8218,"Nepomuk":8219,"Other":8220,"QO":8221,"Qt":8222,"QWeb":8223,"QDialog":8224,"QPrintPreviewDialog":8225,"SIN":8226,"Sign":8227,"Sighs":8228,"What":8229,"[%":8230,"australia":8231,"ban":8232,"fix":8233,"feb":8234,"ln":8235,"link":8236,"lite":8237,"mund":8238,"ney":8239,"pe":8240,"pixbuf":8241,"rw":8242,"vas":8243,"value":8244,"yahoo":8245,"ÃĴ":8246,"Ġà¯į":8247,"Ġown":8248,"Ġoutput":8249,"Ġà®¾":8250,"à®Łà®Łà®ķ":8251,"à®°à®³à®µ":8252,"à®°à®©à®®":8253,"à®°à®ķà®²à®Ł":8254,"Ġà®ħà®ľà®¯":8255,"Ġà®µà®©à®µ":8256,"à®£à®¨à®²à®©":8257,"à®ĩà®¯à®©":8258,"à®ħà®±à®ķ":8259,"à®ªà®¤à®Ł":8260,"à®Łà®©à®µ":8261,"à®ķà®®à®®":8262,"Ġà®ħà®®à®°à®ļ":8263,"à®°à®®à®¯à®®":8264,"Ġà®ıà®²à®®":8265,"à®Ĩà®³à®ª":8266,"any":8267,"Ġ\"(":8268,"à®ķà®²à®ļ":8269,"à®¯à®µà®´":8270,"ames":8271,"à®³à®µà®Ł":8272,"Ġà®ķà®£à®¤":8273,"à®ªà®°à®©":8274,"à®ļà®®à®¨":8275,"à®ļà®°à®Ļ":8276,"Ġkind":8277,"à®µà®ķà®ļ":8278,"ene":8279,"eny":8280,"Ġà®®à®©à®®à®ķ":8281,"Ġpng":8282,"Ġste":8283,"Ġservice":8284,"att":8285,"request":8286,"ĠCond":8287,"ĠCCP":8288,"Ġà®ĵà®¨":8289,"ĠSÃ¼ddeutsche":8290,"ĠSUD":8291,"Ġincl":8292,"illy":8293,"Ġ320":8294,"Ġdoc":8295,"olland":8296,"Ġà®Ĩà®°à®ŀ":8297,"stable":8298,"Ġfur":8299}